#version: 0.2
Ø §
Ù Ħ
Ù Ĭ
Ġ Ù
Ġ Ø
Ù Ĩ
Ù Ī
Ø§ ÙĦ
Ø§ Ø
Ù ħ
Ø ±
Ġ Ø§ÙĦ
Ù ĩ
Ù ĥ
Ø ª
Ø ¨
ĠÙ Ī
Ø ¯
ĠÙ ħ
Ø ¹
Ø Ń
Ø ©
Ù ģ
Ù Ĥ
Ø ³
Ġ ÙĬ
ĠØ ¨
ĠÙ ģ
ĠØ ª
Ø§ ÙĨ
Ġ ÙĦ
Ø ´
ĠØ ¹
Ø ¬
ÙĦ Ùĩ
ĠÙ Ĩ
ĠÙģ ÙĬ
ĠÙ ĥ
ĠØ ±
ÙĦ ÙĬ
ĠÙ ĩ
Ø ²
Ù ī
ÙĬ ÙĨ
Ø§Ø ±
ÙĬ Ø±
Ø ®
ÙĨ Ø§
Ø µ
Ø ·
Ø¨ ÙĬ
ĠÙħ ÙĨ
Ø§ Ùħ
Ø§Ø ª
ĠØ§ÙĦ ÙĦÙĩ
ĠØ ´
ĠØ ®
ĠØ ¬
ĠØ Ń
Ø§Ø ¯
ÙĪ ÙĨ
Ġ Ø§Ø
Ùĩ Ø§
Ø ¶
ĠÙ Ĥ
ĠØ £
Ø± ÙĬ
Ø§Ø ´
Ġ Ø§ÙĨ
Ø¯ ÙĬ
ĠØ ¯
ĠØ§ÙĦ Ùħ
Ø§ Ùĥ
Ø °
ĠØ ³
ÙĦ Ùī
Ø§ ÙĬ
ÙĪ ÙĦ
Ø§Ø ¹
Ùĥ Ùħ
Ùĩ Ùħ
Ø§Ø ¨
Ø§Ø Ń
Ø§Ø ¡
Ø§ Ùģ
ÙĪ Ø±
Ø º
ÙĬ Ø§
ĠØ µ
Ø§Ø ¦
ĠÙĪ Ø§ÙĦ
ĠØ¹ ÙĦÙī
Ø§Ø ³
Ø £
Ø§ Ùĩ
Ø «
ĠÙĦ ÙĬ
ÙĨ ÙĬ
ÙĪ Ùģ
ĠØ§ÙĦ Ø¹
ĠØ§ÙĦ Ø¬
Ø³ ÙĦ
ÙĦ Ø§
ĠÙħ Ø¹
Ùħ Ø§
ÙĬ Ø©
ØŃ Ùħ
ÙĦ ÙĪ
Ġ Ġ
Ø± ÙĪ
Øª ÙĪ
Ø§ ÙĪ
ĠØ¹ ÙĦÙĬ
ĠÙħ Ø§
ĠØ¹ ÙĨ
ĠÙĩ Ø°
ĠØ± Ø¨ÙĬ
ĠØ¨ Ø§ÙĦ
ĠÙĥ ÙĬ
ĠØ º
Ùģ ÙĬ
Øª ÙĬ
Øµ ØŃ
Ø§Ø ¬
Ø² Ø§Ø¦
Ø ¸
ÙĬ Ø¯
ĠØ® ÙĪ
Ø± Ø¬
Ø³ Øª
ÙĦ Ùħ
ÙĪ Ùħ
Ø§ÙĦ ÙĦÙĩ
Â ł
ÙĪ Ø§
ĠØ ¥
ĠÙĥ ÙĦ
Ùĥ Ø±
Ø§Ø± Ùĥ
ĠØª Ø§Ø¹
ĠØ§ÙĦ ØŃ
ĠØª Ø¹
ĠØ¨ ÙĦ
ĠÙĬ ØŃ
Ø¯ÙĬ ÙĪ
Ùĥ ÙĪÙĨ
ĠÙĬ Ø¹
ÙĦ Ùĥ
Ø§ÙĨ ÙĬ
ÙĤ ÙĬ
ĠÙĨ Øª
ÙĨ Øª
ĠÙĩ Ùĩ
ÙĬ Ùĥ
ÙĦ ÙĤ
Ø± Ø¨ÙĬ
Ùħ ÙĬ
ĠØ§ÙĦ ÙĨ
ĠØ§ÙĦØ¬ Ø²Ø§Ø¦
Ø± Ø¨
ĠØ ·
ĠÙĬ Ø§
ĠØ ²
Ø¨ ÙĦ
ĠØ®ÙĪ ÙĬØ§
Ø± Ùģ
Ø± Ùĥ
ĠÙĦ Ø§
ĠØª ØŃ
ĠØ§ÙĨ Ø§
ĠØ¹ÙĨ Ø¯
Ø§Ø µ
ĠØ§ÙĦ Øª
Ùħ ÙĨ
Ø³ ÙĬ
ÙĤ Ø¯
Ø§Ø ²
ØŃ Ùĥ
Ø¨ Ø§Ø±Ùĥ
ĠØ§ÙĦ Ø´
ÙĦ Ø©
Ø¨ Ø±
ĠØ¨ Ø²
ĠØ§Ø ®
ĠÙĩØ° Ø§
Ùħ Ø©
Ùħ Ø§ÙĦ
ĠØ´ Ø§Ø¡
ĠØº ÙĬØ±
ĠÙĦ Ùĥ
Ø§ÙĨ Ø§
ĠØ§ÙĦ Ùģ
ĠÙĪ ÙĬ
ĠÙĪØ§ÙĦ ÙĦÙĩ
ÙĪ Ø³
Ø± Ø©
ØŃ Ø¨
ÙĤ ÙĪÙĦ
ĠÙĦ ÙĦ
ĠÙĥ Ø§ÙĨ
ÙĪ Ø§Ø¯
Ø§Ø ®
Ø¹ Ø©
ĠØ§ÙĦØ¬Ø²Ø§Ø¦ Ø±
ĠÙĪ ÙĦØ§
ÙĪ Ùĥ
Ø± ØŃÙħ
Ø´ ÙĪÙģ
ĠÙħ Ø´
ÙĬ Øª
ĠÙĬØŃ Ùģ
ĠØ§ÙĦ ÙĤ
ĠØ§ÙĦ Ø¨
ÙĬ Ø¨
Ø¯ ÙĬØ±
Ø¹ Ø¯
ØŃÙħ Ø¯
Ø§Ø ·
ĠÙĩ ÙĪ
ĠØ± ÙĪ
Ø§ØŃ Ø¯
ĠØ¨Ø² Ø§Ùģ
ĠÙħ Øª
Ùħ ÙĪ
ĠÙĪ ÙĦ
ÙĪ ÙĬ
Ùħ ÙĦ
ĠØ§ÙĦ Ùĥ
Ùģ Ø±Ø¬
ĠØ§Ø ³
Øª Ùĥ
ĠØ§ÙĦ Ø¯
Ùħ Ø¹
ĠØ§ÙĦ Ø£
ĠØ± Ø§Ùĥ
ÙĤ Ø©
Ø¬ Ø¨
ÙĪ Ø¯
Ø® ÙĦ
ĠØ§ÙĨ Øª
ĠØµ ØŃ
Ø¯ Ø§
Ø¹ Ø¨
Ø± Ø§
ĠÙĪ Ø§ØŃØ¯
Ø§ÙĦ Ùħ
Ġ Ø§
Ùģ Ø±
ĠØ§ÙĦ Ø³
ĠØ§Ø Ń
ĠØ§ÙĦ Ø®
ĠØ¬ ÙĪØ§Ø¯
ÙĤ Øª
Ġ Ø§ÙĪ
Ùħ Ø¶
ÙĪÙģ ÙĤ
ĠÙĪ Øª
Ø¯ Ùħ
ĠÙĬ Ø±ØŃÙħ
Ø ¥
Ġ Ø§Ùħ
ÙĬ Ùĩ
ĠØ¨ÙĦ Ø§Ø¯
Ø§Ø °
ÙģÙĬ Ø¯ÙĬÙĪ
ĠÙĬ Øª
ÙħØ¶ Ø§ÙĨ
Ø¶ ÙĦ
ĠÙħ Ø§Ø´
ĠÙĬØŃÙģ Ø¸
ÙĪ Ø¬
ĠØ§ÙĦ ÙĦÙĬ
Ùĥ ÙĦ
Øª Ùī
ÙĬ Ø´
Ø³ Ø¨
Ø§ ÙĬÙĨ
ÙĬ Ùħ
ĠÙģÙĬ Ø¯ÙĬÙĪ
ÙĦ Øª
ÙĪ Ø¨
ĠÙĪ Ùħ
ĠØ£ ÙĨ
ĠÙĬ Ø¨Ø§Ø±Ùĥ
ÙĪ Ø±ÙĬ
ĠØ¨ ØµØŃ
Ø³ ÙĨ
ĠÙĨ Ø¹
ĠØ§ÙĦ ØµØŃ
Ùĥ ÙĬ
ĠØ§ÙĦ ÙĬ
Ø§ÙĦ ÙĬ
ĠÙĪ ÙĨ
ĠØ± Ø§Ùĩ
ĠØ± ÙħØ¶Ø§ÙĨ
ĠÙħ ØŃ
Ġ Ø§ÙĬ
ÙĪ ÙĦÙĬ
Ùĩ Ø¯
Ùĩ Ùĩ
Ø¯ Ø©
ĠÙĬ ÙĪÙģÙĤ
ĠÙĪ ØŃ
ĠÙģÙĬ Ùĩ
Ø¨ÙĬ Ø¨
ĠØ ¶
ÙĬ Ø§Øª
ÙĦ Ø¨
ĠÙħ ÙĦÙĬ
Âł Âł
ĠÙĩ ÙĨØ§
ÙĪÙĨ ÙĬ
ĠØ¯ ÙĬØ±
Ø± Øª
ĠØ§ÙĦ ÙĪ
ÙĥØ± Ø§
Ø ¡
Ùħ Ø±
ĠÙĥÙĬ Ùģ
Ø§ÙĦ ØŃ
ĠÙħ ÙĬ
ĠØ¬ ÙħØ§ÙĦ
ÙĨ Ø©
ĠÙĬ Ø®
ĠØ¨ Ø§Ø´
Ø³ÙĦ Ùħ
ĠØŃ ØªÙī
Ø· ÙĬ
Øª ØŃ
ĠØ§ÙĦ Øµ
Ø§Ø ©
Ø³ÙĦ Ø³ÙĦ
ĠØ¹ÙĦÙĬ Ùĥ
Ø° Ø§
ĠØ® ÙĬØ±
ĠØ§ÙĦ Ø±
ĠØ «
Ø¨ Ø¯
ĠÙģÙĬ ÙĩØ§
ØªÙĪ Ùī
ĠÙħ Ø±
ĠØ¹ÙĦÙĬ Ùĩ
ÙĬÙĨ Ø§
ĠÙĬ Ø´
ĠØ¹ ÙĦ
ĠÙģ Ø§ÙĦ
ĠØ¯ ÙĬ
Øª Ø±
Ġ Ø§Ùĥ
Ø³ÙĦ Ø§Ùħ
Ø¬ ÙĬ
Ø² ÙĬ
Ø³ Ø§ÙĨ
Ùĥ Ø§ÙĨ
ĠÙģÙĬ Ùĥ
ĠØ§Ø ¨
Ø¨ Ø¹
Ø¶ ØŃÙĥ
ÙĪ Ø´
ÙĪ ÙĬØ§
ĠØ± Ø§ÙĨÙĬ
Ø¹ ÙĦ
ĠÙĦ Ùħ
Ø±ÙĪ ØŃ
ĠÙĤ Ø§ÙĦ
ĠÙĪ Ùĩ
ĠÙĩ Ø§Ø¯
ÙĪÙģ ÙĬ
ĠÙ Ģ
Ùħ Ø«
ĠÙĩ ÙĬ
ÙĦ ØŃ
Ø§ÙĬ Ø©
Ø³ Ùħ
Ø« Ø±
Ø² ÙĬØ¯
Ø¨ ØŃ
Ùģ Ø³
ÙĦÙĤ Ø©
Ùĥ ÙĨ
Ø§Ùħ ÙĦ
ĠÙĨ ØŃ
ÙĪ Øª
Ú ¨
ĠÙħ ØŃÙħØ¯
Ġ Ø§Ø±
Ø§Ø² Ùħ
e s
ĠØ§ÙĦÙĨ Ø§Ø³
ĠÙĬÙĪÙģÙĤ Ùĥ
Ġ p
ĠØ§ÙĦ Ø·
ĠÙĨ Ø´ÙĪÙģ
ĠØ¥ ÙĨ
ĠÙĪ Ø¹
ÙĪ Ø§ÙĦÙĦÙĩ
ĠØ§ÙĦ ÙģÙĬØ¯ÙĬÙĪ
ÙĪ Ùĩ
ĠØª ÙĤ
Ø§ ÙĬØ±
ĠØ± Ø§ØŃ
ĠÙħ Ø«
Ø ¦
ĠÙĥÙĬ ÙħØ§
ĠØ¨ ÙĦÙĬ
ĠØ¨ ÙĬ
Ø§Ø± Ø¨
ĠÙĪ Ø§Ø´
ĠØª Ø®
Ø§Øª Ùĥ
ĠÙĥ ÙĨØª
ÙĤØ¯ Ø±
ĠØŃ Ø§Ø¬
ĠÙĪ Ø´
ĠØ§ÙĦ Øº
Øª Ø´
Ġ d
ÙĬ ÙĦ
o u
ĠÙģ Ø±
Ø¹ Ùħ
ÙĪ Ø¹
ĠØ§Ø® ÙĬ
Ø§Ø´ ÙĪØ±
Ùħ Øª
ĠØ§ÙĦØ¬Ø²Ø§Ø¦ Ø±ÙĬ
Ø· ÙĬÙĥ
ĠÙĬØŃÙģØ¸ Ùĥ
ÙĨ Ø³
ĠØ³ ÙĦ
Ø§Ø¯ Ø©
Ġ c
ĠÙĦ Ùĩ
Ġ Ø§Ùģ
ÙĦÙĩ Ø§
ĠÙħØ¹ Ø§Ùĥ
ĠÙĥ Ø§ÙĬÙĨ
Ø§Ø± ÙĬ
ĠØ£ Ø®
Ø§Ø± Ø©
ÙĬØ± Ø©
Ùģ Øª
ĠØ´ ÙĬ
ĠÙĪ Ø¬
ĠØ¨ Ø¹Ø¯
ÙĪ ÙĤ
ĠÙĦ Ø§Ø²Ùħ
Ø ¢
Ù Ģ
ĠØ °
ØŃ Ø©
ÙĤ Ø·
ĠØ§ÙĦØ¹ Ø§ÙĦÙħ
ĠØ¨ Ø±
Ġ l
Ø´ Ø§Ø¡
ĠØ³ ÙĬ
Ø§Ø ¶
ÙĪÙģÙĬ ÙĤ
ÙĨ Ø¯
ĠÙĬ Ø¬
Ø ¤
Øª ÙĨÙĬ
ĠØ§ÙĦØµØŃ Ø©
ĠÙĪ ÙĬÙĨ
ĠÙĦ ÙĦÙĩ
ĠØ¬ Ø§Ùħ
Ø§Ø¨ Ø©
ĠÙĪ ÙĦÙĬ
o n
ĠÙħ Ø³
ĠÙħØ§Ø´ ÙĬ
Ø§ØŃ Ø©
ĠØ¹ÙĨ Ø¯ÙĬ
ĠÙĩØ° Ùĩ
ĠØ±ÙĪ ØŃ
Ø§Ùĩ ÙĦ
Ùĥ Ø§
ĠØ¨ ÙĨ
ĠÙĥ Ø¨
ĠÙĨ Ø§Ø³
ĠÙĥ Ø§ÙħÙĦ
Ø§ÙĦ Ùĥ
ĠØ¹ÙĦÙĬ ÙĥÙħ
i n
ĠØª Øª
ÙĦ Ùģ
Ø¯ ÙĪ
ĠÙĬØ¹ ÙĨÙĬ
ĠØ¨ Ø¹
ĠÙĬ ÙĥÙĪÙĨ
Ø´ ÙĬ
Ø§ ÙĩÙħ
Ø§ ÙĤ
ĠØ¨ Ø¯
Ùħ Ø§ÙĨ
Ġ t
ĠÙħ Ø§Øª
ĠØ ¢
ĠÙĪ Ø¨
ĠØ´ ÙĥØ±Ø§
ĠØ¹ Ø§Ø´ÙĪØ±
ÙĦ Ø¹
Ø´ ÙĥÙĪÙĨ
ĠØ¨ Ø±Ùĥ
ĠÙĩ Ø§Ø°
Ø® Øµ
ĠØ§Ø ¹
ÙĪ ØªÙĬ
ĠÙĨ Ø´
Ø§ÙĨ Øª
ÙĤÙĬ ÙĪØ³
ĠÙĪ Ø±
ĠØ§ÙĦ Ø¥
ĠÙĦÙĥ ÙĨ
Øµ ÙĦ
Ø¨ Ø§Ø¨
Ø¯ ÙĬÙĨ
ĠÙĬ Ø¯ÙĬØ±
ĠØª Ø¨
Ø¨ÙĦ Ø§Ø¯
Ø§Ø³ Øª
a n
ĠÙĨØª ÙģØ±Ø¬
ĠØª Ø³Øª
ĠØ¬ Ø²Ø§Ø¦
ĠØ± Ø§Ø¦
ĠØ§ÙĦ Ø°
ĠØ¬ ÙħÙĬ
ĠÙĦ Ø¹
ĠÙĬ Ø³
ĠØª ÙĨ
ĠÙĤ ÙĨ
Ø® Ø±
e n
ĠØ® Ø¨ÙĬØ¨
ĠÙĨ Ø³
ĠØ¹ÙĨØ¯ Ùĥ
ĠØª ÙĪ
ĠÙĤ Ø¨ÙĦ
ĠØ§ÙĦ Ø§
ĠØª ÙĥÙĪÙĨ
ĠØµ Ø§ÙĦØŃ
Ùĩ Ø±
ĠÙĬ ÙĤÙĪÙĦ
ĠÙĨ ØŃØ¨
ÙĪ Ø©
ĠØ§ÙĦ Ø²
Ġ m
Ùģ ÙĩÙħ
ÙĪ ÙĨØ§
Ø±ÙĬ ÙĤ
Ø¨ Ùĩ
Øª ÙĩØ§
ÙĬ Ø¹
ÙĬØ§Øª ÙĬ
ĠÙĬ Ø¯
ĠØª Ø¬
Øª Ùĩ
ÙħÙĨ Ùī
ĠØ§ÙĦØ¬ Ø²
ĠÙĨ ÙĤ
Ø§Ø¯ ÙĬ
Ùĩ ÙĦ
ĠÙħ Ø²
ĠÙĦ ÙĪ
ĠØ¨ Ø³
Ġ Ø§Øª
ĠØª Ø³
Ø£ ÙĨ
Ùĩ Ø§Ø±
Øª ÙĪÙģÙĬÙĤ
Ø§Ø¨ Ø¹
ĠÙĬ Ø¨
ĠØ§Ø ¬
ĠØ® ÙĦ
ĠØ¶ ØŃÙĥ
ØŃ Ø§ÙĦ
ĠÙĬ ÙĤ
ĠØ¹ Ùħ
ĠÙĪØ§ÙĦ ÙĪ
Øµ Ø±
ĠØ¯ Ø§Ø±
ĠØ¨ Ø§Ø±Ùĥ
ĠØ¨ Ùĥ
ĠØ± Ø¨
Ø§Øµ ÙĦ
ĠØª Ø´
ĠØ¬Ø²Ø§Ø¦ Ø±ÙĬ
ĠØª Ùħ
Ø¸ ÙĬÙħ
ÙĦ Ø§Ùħ
ĠØ§ÙĦ Ø«
ÙĬÙĨ ÙĬ
ØŃ Øª
ĠØ§ÙĦÙħ Øº
ĠÙĨ ÙģØ³
Ø±Ø¨ÙĬ Ø©
ÙĦÙĪ Ùħ
ĠØ§ÙĦ Ùī
ĠÙĨ Ø¯ÙĬØ±
Ø± ÙĤ
ĠÙħØŃ ØªÙĪÙī
ĠÙĬ ÙĨ
ĠÙĬ Ø§Ø±Ø¨
ĠØŃØ§Ø¬ Ø©
Ø± Ø¶
Ø§ÙĦÙĦÙĩ Ùħ
ÙĤ Ùī
ĠÙĨØª Ø§
Ùĩ Ø§Øª
ĠÙĬ ÙĪÙħ
Ø§Ø´ Ø±
ÙĦ ÙĨØ§
Ø¯ Ø±
Ø· ÙĪØ±
Ø¬Ø¨ ÙĨÙĬ
ĠØ¨ÙĦØ§Ø¯ ÙĬ
ĠØŃ Ø¨
ĠØ¨ ÙĬÙĨ
Ø¯ Ùĩ
ĠØ§Ø³ Øª
Ø§Ùģ ÙĬ
ĠØ§ÙĦÙħ Ø´
ĠØªØ§Ø¹ Ùĥ
Øª Ø¨
Ùģ Ø¶ÙĦ
Ø§Øµ Ø©
Ø¬ Ø§ØŃ
ĠÙĨ ÙĤÙĪÙĦ
Ø® ÙĪÙĬØ§
ØŃØ¨ Ø§
Øº ÙĬØ±
e r
ĠØ§ÙĦØ® ÙĬØ±
ÙĥØ± Ø©
Ġ Ø§Ø¯
ĠØ± Ø§ÙĨØ§
ĠÙĬØ¹ Ø·ÙĬÙĥ
Ø± Ùī
i s
Ġ s
ĠÙĪ Ø³ÙĦÙħ
ÙĬ Ùģ
Ø§ÙĬ Ùĥ
ĠØ£ ÙĨØ§
ĠØª Øµ
Ø¬ Ø¹
Ø´ Ø§Ùħ
ĠÙĬ Ø³Øª
ĠØ§ÙĦØ¹ Ø¸ÙĬÙħ
ĠØ±Ø§Ø¦ Ø¹
ĠÙĤ ÙĦØª
Ø§Ø º
ĠÙĨ Ø®
ĠØ§ÙĦÙħ Ø¹
ĠÙĦ Ø§ÙĨ
ĠØ§Ùģ Ø¶ÙĦ
ĠÙĨØª Ø§Ø¹
ÙĨ ÙĪ
Ø§ÙĪ Ø¯
ĠÙĪ Ø£
Ġ a
ÙĦÙĩ Ùħ
ĠÙĬØª ÙģØ±Ø¬
ĠÙħ Ø³ÙĦØ³ÙĦ
ĠØ§ÙĦ ØŃÙħØ¯
Ø±ÙĬ Ø¨
ĠØ§Ø ´
ĠÙħØ§Ø´ Ø§Ø¡
ĠÙĨ Ø¨
ĠÙħ Ø±Ø©
ÙĦÙĪ Ø¯
Øª ÙĨØ§
ĠÙĥØ§ÙĨ Øª
ĠÙħ Ø§ÙĬ
ĠØ£ ÙĪ
ĠÙħ Ø¬
Ġ v
ĠÙĦ ÙĤ
ĠØ¥ ÙĦÙī
Ø¨ Ø·
ĠØ¬ Ø¯ÙĬ
Ø±ÙĪ Ø³
ĠØ§Ø °
Ġ f
Ùħ ÙĥÙĨ
Ø¹ Ø±Ùģ
Ø¹ ÙĪ
Ø±ÙĬ ÙĥØ§
ĠÙĩ Ùĥ
ĠØ£Ø® ÙĬ
ĠÙĦ ØŃ
ĠØ¬ Ø¯Ø§
ÙħØ« ÙĦ
Ø±ÙĬ Ùħ
ĠÙħÙĦÙĬ ØŃ
Øº ÙĦ
ĠØª ÙĤÙĪÙĦ
ĠØ¨ Ùĩ
ĠØ§ÙĦ ØªÙĬ
ĠÙĦÙĬ Ùĥ
Ø² ÙĤ
ĠÙĬØŃÙģ Ø¶
ÙĨ Ø§ÙĨ
ĠÙĥ ÙĪÙĨ
ĠØª Ùģ
ÙĬ ØŃ
ĠØ§ÙĦ Ùĩ
ĠÙħ ÙĪ
Ø± Ø¯
ĠØ¹ Ø§Ùħ
Øª Ùħ
Ø± Ø§Ùħ
Ġ b
Ø± Ø§Ø¡
ĠØ¨ ÙĬÙĥ
ĠÙĪ Ùĥ
ĠØ±ÙĪ Ø¹Ø©
ĠØ§ÙĦ Ø§ÙĨ
ĠØ¨ ÙĦØ§
ĠØ§Ø µ
ĠØ® Ø§ÙĪ
ĠØ§ÙĦÙħ ØŃ
ĠØ¹ÙĦÙĬ ÙĩØ§
ÙĤ ÙĦ
Ø« ÙĬØ±
a r
Ø¨ØŃ Ø§ÙĨ
ĠØ£ Ùħ
ÙĪÙĬ ÙĦØŃ
Ø§Ø¹ Ø©
ĠÙĪ Ø±Ø¨ÙĬ
Ø§Ø´ ÙĬ
ĠØ¨ÙĦØ§Ø¯ ÙĨØ§
ĠØ³ Ø¨ØŃØ§ÙĨ
ĠØŃ ÙĨØ§
ØŃ Ø´
ÙĪ Ø²
ĠÙģ ÙĦ
ĠØ§ÙĦØ¹ Ø§Ø´Ø±
Ø· Ø©
ĠØŃ Ø¨ÙĬ
ĠØµ ÙĦ
ĠØ§ÙĦ ÙĦ
ĠØ´ ÙĥÙĪÙĨ
ĠÙħ ÙĥØ§ÙĨ
ĠØ§ÙĦ Ø§Ø®
q u
Ø§ÙĬ Ø§
Ø² Ø§ÙĬØ±
Ø±ÙĬ Ø©
ÙĩØ¯ Ø±
ĠÙĬØŃ Ø¨
ĠØª Ùĥ
ĠØ³ Ùħ
ĠØ® Ø·
Ø§ÙĦ Ø©
ĠØ§Ø³ Ùħ
ĠÙħ ÙĦ
ĠÙĤ ÙĦ
ĠÙĥÙĬÙģ Ø§Ø´
ĠÙĬ Ø§Ø®
ÙĦØ§ ÙĤ
ĠØ§ÙĦÙĦÙĩ Ùħ
ĠØ¹ÙĦÙĬ ÙĨØ§
ĠØ³ÙĦ Ø³ÙĦ
ÙĦÙĬ ÙĨ
ÙĪ ÙĬØ©
Ø±Ø§ ÙĩÙħ
ĠØ§ ÙĪÙĦ
ÙĪ ÙĩØ§
ĠÙĥ ÙħØ§
ĠÙĬ Ø·
ĠÙĨ Ø³Øª
ĠÙħ Ø§Ùĥ
ĠÙħÙĦÙĬ ÙĪÙĨ
ĠÙĪ ÙĤ
Ø§Ø³ Ùħ
ĠÙĥØ¨ ÙĬØ±
ÙĤÙĬ ÙĤØ©
ĠØ³ÙĦØ³ÙĦ Ø©
ĠØ³ ÙĬØ¯
ÙĪÙĦ Ø©
ĠØ¹ ÙħÙĬ
Ø²ÙĬ Ø²
Ø±ÙĪ Øª
Ø§ÙĦ Ø¨
ĠØ§ÙĦØ° ÙĬ
Ø³ Ø·
ĠØŃ ÙĦÙĤØ©
ĠØªØŃ ÙĬØ©
Ø¬ Ø²Ø§Ø¦
ĠØ¹ÙĨØ¯ ÙĨØ§
ĠØ§ÙĦÙĨ ÙĪØ±ÙĬ
Ùĥ ÙĪ
ĠØ§ÙĦ Ø§Ùħ
ĠÙħ Ø³Øª
ĠØ§ÙĨ Ø³Ø§ÙĨ
Ø·ÙĬ ÙĥÙħ
ĠÙħ Ø®
ĠÙĪ ÙĤØª
ĠÙĨ Øµ
Øº ÙĬ
ĠÙĤ Ø¯
Ø´ Ø±
ĠÙĤ Ø§Ø¹
ĠØ§ÙĦÙĬ ÙĪÙħ
Ùħ Ø§Ø´
Ùģ Ø©
ÙĬÙĨ Ø©
Ø§ÙĦ Ùĩ
Ùħ Ø³
ÙĦÙĪÙħ Ø§Øª
Ø¯ Ùĥ
ĠØ§ÙĦØ¬ ÙĨØ©
Ø³ÙĦÙħ ÙĬÙĨ
ĠÙĦ Ø¨
Ø® ÙĬØ±
ĠÙĥ ÙĪÙħ
Ø¹ ÙĬ
ĠÙģ ÙĤØ·
ĠÙĨ ÙĪØ±ÙĬ
ĠØª Ø´ÙĪÙģ
ĠØ§Ø° Ø§
r e
ÙĨÙĬ Ø©
ĠÙħ Ùĥ
ĠÙĦ ÙĦÙħ
Øµ Ø©
ÙĦÙĪ Ø§
ĠØ§ØŃ Ø³ÙĨ
Ø§ ÙĪÙĨ
ĠØµ ÙĪÙĬÙĦØŃ
ÙĦÙĬ ÙĤ
ĠÙĩØ° Ø§Ùĥ
ĠÙĬØ´ ÙģÙĬ
ĠØ§ÙĦØŃ ÙĦÙĤØ©
Ø± ØŃ
Ø¨ Ø©
ĠÙĬ Ùĩ
ĠØ§ÙĦÙħ ÙĨ
Ø¬Ø¨ ØªÙĨÙĬ
Ø¯ÙĬ Ùĥ
Ø±Ø¨ Ø©
ĠÙģ ÙĪ
ĠÙĩ Ø´Ø§Ùħ
Ø± Ùĩ
ĠÙĨ Ø¬
Øº ÙģØ±
ĠÙĨ ÙĪØ±
ĠØªØ¹ Ø±Ùģ
Ø¯ ÙĤ
ĠØµ Ø§ØŃ
ĠÙħ Ø§ÙĨ
ĠØ± Ø³
ĠØŃ Ø§Ø¨
ĠØ´ ÙģØª
ĠØ² Ø¹
Ø¹ ÙĦÙħ
ĠÙħ Øº
ĠØ´ÙĬ Ø¡
ĠØ§ÙĨ Ø´Ø§Ø¡
Û Į
ĠÙħ ÙĤ
ÙĦÙĬ Ø©
ÙĬ ÙĪ
Ø§Ùĥ ÙĦ
Ø± Ø§Ùĥ
ÙħØ§Ø´ Ø§Ø¡
ĠØ¨ Ø§Ø¨
ĠØ§ÙĦ Ø³ÙĬ
ĠØ¯ Ø±
ĠØ¥ ÙĦØ§
Ø§Øª ÙĬ
ÙĨ Ùī
ĠØ¨Ø§ÙĦ ÙĦÙĩ
ĠÙĬ Ø´ÙĪÙģ
ĠÙĤ Øª
Ùħ Ùĩ
ĠÙĪ ÙĦÙĥ
ĠØ¨Ø§ÙĦ ØªÙĪÙģÙĬÙĤ
Ø§ ÙĪÙĦ
ĠØŃ ÙĤ
Ø¨ Øª
Øª Ø±ÙĪØ³
ØŃ ÙĤ
ĠÙĪ Ø§ØµÙĦ
Ø¯ Ø®ÙĦ
ÙĦÙĬ Ùĩ
ĠØµ ÙĦÙī
ĠÙĪ Øµ
Øª Ø§Ø¬
ĠÙĪ Ø§ÙĨØ§
Ø§Ùģ Ø¶ÙĦ
ĠØ´ Ø¨Ø§Ø¨
ĠØ´ Ø®Øµ
ĠØ§ÙĦÙĪ ÙĤØª
Ø§Ø «
ĠØ´ ØŃØ§ÙĦ
Ùģ ÙĪ
ĠØ± Ø§ÙĬ
ÙħÙĪ Øª
ĠØ´ ÙĪÙģ
ĠØ£ Ùĥ
ĠØ§ÙĦÙħØº Ø±Ø¨
Ø¬ ÙĦ
ØªÙĪ Ø¨
ÙĪØ± Ø©
Ø§Ø· ÙĦ
ĠØ§ÙĦÙħ Ø³
Ġ qu
ĠÙĨØ¹ Ø±Ùģ
ĠÙĩ Ø¯
ĠØ£ ØŃ
ĠØ§ÙĦÙħ ÙĪ
Ø§Ø° Ø§
Ø³ Ø©
ÙĨ ÙĬØ§
ĠØ± Ø§
ĠÙĥ ÙħÙĦ
ĠÙĬØŃÙģØ¸ ÙĥÙħ
Ø¬ Ø§Ø¨
r a
Ø§ÙĬ Ø´
ÙĥØ± Ùĩ
ĠÙħØ² Ø§ÙĦ
ĠÙĦ ÙĥÙħ
Ø§Ùħ ÙĬ
ĠØ£ ÙĬ
ĠÙĦ ÙĨ
Ø¨ Ø§ÙĦ
ĠÙĪ ÙħÙĨ
ĠÙģ ÙĩÙħ
ĠØ£ ÙĨØª
es t
Ùħ Ø¬
ĠØ¬ Ø²
Ø§Ùģ ÙĪ
Øµ ÙĪ
ĠØ´ Ø§Ø¨Ø©
ĠÙĩØ° ÙĬ
ÙĪÙĨ Ø³
ĠØ§Ùĥ Ø«Ø±
ĠØ§ÙĦ Ø¨ÙĦØ§Ø¯
Øª Ø±Ùĥ
ÙĦÙħ Ø©
ĠØŃ Ø³
ĠÙħ Ø§ÙĦ
Ø§Ùħ Ø©
ĠØ¨ Ø´
ĠÙĬ ÙĪ
ĠØ± Ø§ÙĩÙħ
ĠØ§ÙĦØ¹Ø§ÙĦÙħ ÙĬÙĨ
ĠÙĬØ±ØŃÙħ Ùĥ
ĠØ³ ÙĨ
ĠÙħØ± ØŃØ¨Ø§
ĠØ§ÙĦÙĤ Ø±
Ġ j
Ø¯ÙĬ Ø©
Ø¬ ÙĪØ§Ø¯
ĠÙĩ Ø§ÙĬ
ĠÙĬ Øµ
ĠØ§ÙĨ ÙĬ
ĠØª ÙĤØ¯Ø±
Ø¶ Ø±
ĠÙĪ Ø§ÙĨ
ĠØ¹ Ø¨Ø¯
ÙĦÙĬ Ø´
Ø§Ùĩ Ø¯
ÙĬ Ø·
ĠØ¯ Ø®ÙĦ
ĠÙĪØ§ÙĦ Ùħ
ĠØ² ÙĪØ¬
ĠØ§ÙĦ Ø§Ø³
ÙĦÙĬ ÙĦ
ĠÙĪÙĦ Ø¯
ĠÙĦ Ø£ÙĨ
ĠØ¹ÙĦ Ø§Ùĩ
a s
ĠÙĬ Ùĥ
Ġ Ú¨
Ø² ÙĪØ¬
ĠØ± ØŃ
ĠÙħ Ø§Ø²
ÙĪÙĦ ÙĨØ§
Ø¬Ø²Ø§Ø¦ Ø±
ĠØ¨Ø¹ Ø¶
ĠØ³ÙĬØ¯ ÙĨØ§
ÙĦÙĬ Ùĥ
ĠÙĪ Ø®
ĠØ¯ Ø±Øª
a l
ĠØª Ø±ÙĪØŃ
ĠØªØŃ Ø¨
ĠÙĥ Ùħ
ĠØ¹ÙĦ Ø§Ø´
Ø§Ùģ Ø©
ÙĦÙĪ ÙĤ
ĠÙħ Ø¯
ĠÙĪ Ùģ
ĠÙĦÙĬ Ø³
ĠÙħ Ø¨
ØŃ ÙĬ
ĠÙģ ÙĪØ±
i l
ĠØ¬ÙħÙĬ Ø¹
Ùħ Ø¯
Ø¬ Ø©
Ø§Øª Ùĩ
ĠØ§ÙĦØ¹ Ø§Ùħ
Ø¨ ØµØŃ
Ø§ Ø§Ùģ
Ø´ ÙĥØ±Ø§
ĠØ¯ ÙĤÙĬÙĪØ³
ĠØ§ÙĦØ´ Ø¹Ø¨
Ùħ ÙĬÙĨ
ĠÙĦ Ø§ÙĬÙĥ
ĠØ£ Ø¬
ĠØ§ÙĦÙħ Ø³ÙĦØ³ÙĦ
ĠÙĥÙĦ Ø´
ĠØ¹ Ø´
ĠÙĬØ¹ Ø±Ùģ
ĠÙĨ ÙĩØ§Ø±
Ø§Ø³ ÙĬ
ĠØª ÙĦÙĤ
ĠÙħØ« ÙĦ
ĠØ´ Ùģ
Ø§Ùĥ ÙĨ
ĠÙĪÙĦÙĥ ÙĨ
ÙĪ Ø§ÙĨ
ĠØŃ ÙĬ
ÙĪÙĥ Ø§ÙĨ
ĠØŃ ÙĬØ§Øª
Øº Ø©
ĠÙĪÙĦ Ø§ÙĬØ©
ĠØ§ÙĦÙħ Ø¬
Ø±ÙĪ Ø§
ĠÙĪ ÙģÙĬ
ĠÙĪÙĦ Ø§Ø¯
ÙĤØ¯ Ùħ
ĠÙĨ Ø±ÙĪØŃ
Øª ÙĥÙħ
Ø³ Ø±
ĠÙģÙĬ ÙĥÙħ
i t
ØŃ Ø§ÙĨ
Ùģ Ø¹
ĠØ® Ø¯Ùħ
ĠÙĬØ±ØŃÙħ ÙĪ
ĠØŃØ§Ø¬ Ùĩ
ĠØ¨ Ø§Ùĩ
ĠÙĬØŃÙģØ¶ Ùĥ
ĠÙĪ ØµØŃ
Ø±Ø¬ Ø¹
ĠØ¨ÙĦ Ø¯
ĠØº ÙĬ
ĠØ§ ÙĤ
ĠØ®Ø§ÙĪ ØªÙĬ
Ùģ Ø¸
Ø¨ÙĬ Ø¹
ĠØ¹ Ø§ÙĬØ´
Ø±ÙĪ Ø¹
Ø¹ Ø±
ÙĪ Ø§ÙĦ
ĠÙĬ Ø±
ÙĪ Ø§Ø±
ĠÙĤ Ø±
ĠØ§ÙĦÙħ Ø³ÙĦÙħÙĬÙĨ
ĠÙĪ ÙĥÙĦ
ĠÙĤÙĦ Ø¨ÙĬ
ÙħØª Ø¹
ĠØ® Ø±Ø¬
ÙĦ Ø§ÙĦ
ĠØ±ÙĪ ØŃÙĥ
ĠØ§ØŃ ÙĨØ§
ĠØ¬ Ø§
ÙĬ Ø¯ÙĬ
ĠØ¨ ÙĩØ§
ĠØªØ³Øª Ø§ÙĩÙĦ
ĠÙĦ ÙĪÙĥØ§ÙĨ
Ġd e
Ġ e
Ø¨ Ùĥ
ĠØ¨Ø² Ø§Ø§Ùģ
ĠØ® Ø§Ø·
Øª Ø¹
ĠØªØŃ ÙĬØ§ØªÙĬ
ĠØ±Ø§Ùĩ ÙĬ
ĠÙħ Ø§Ø±
ĠØ§ÙĦÙĨ Ø¬Ø§ØŃ
ĠØ³ ÙĨØ©
ĠÙĩ Ø¯Ø§
ĠØ§ÙĨ Ùĩ
Ø² ÙĪØ±
ĠÙĤ Ø§Ø¯Ø©
ĠÙĪØ¹ ÙĦÙī
ÙĤ Ø¨ÙĦ
ĠØ§Ùħ Ø±ÙĬÙĥØ§
ÙĪ Ø§Øª
ÙĪØ¯ Ø©
ĠÙħÙĨ ÙĩØ§
ĠÙĥ Ø«ÙĬØ±
Ø¢ ÙĨ
ĠØ§ÙĦ Ø¨Ø±
ĠØ¹ Ø¯
ĠÙĩ Ùħ
Ùĩ ÙĬ
ĠØ®ÙĦ Ø§Øµ
ĠØ±Ø§Ùĥ Ùħ
ÙģØ± ØŃ
ĠÙĩÙĨØ§ Ùĥ
ĠÙĪ Ø³
Ø§ ÙĩØ§
ĠØ§ÙĦØ¬Ø²Ø§Ø¦Ø±ÙĬ Ø©
Ø§Ø±ÙĬ Ø®
ĠØ¹ Ø±Ùģ
ĠÙĪ Ø²
o m
Ø± Ø´
Øª ÙĩÙħ
ĠØ® Ø¯
ĠØ´ ÙĪÙĬ
Ø± Ø§ÙĨ
Ø¬ Ø²
Ø§ÙĦ Ø³ÙĦØ§Ùħ
ĠØ¯ Ø±Ø§ÙĩÙħ
Ø° Ùĩ
Ø§ÙĦ Ø¹
ĠÙĤ ÙĦØ¨
Ø¥ ÙĨ
ĠØ±Ø§Ùĩ ÙĪ
ĠÙħ Ø§Ø¹
ĠÙģ Ø·ÙĪØ±
ĠÙĪ Ø§ÙĨØª
ĠØ¬ Ø§ÙĬ
Ø§Ùģ ÙĬÙĩ
ÙħØ« ÙĬÙĦ
ĠØ® Ø§ØµØ©
ÙĢ ÙĢ
ĠÙĬ Ø¬ÙĬ
Ø£ Ø³
ĠÙħØ« ÙĦØ§
ĠØ¹ÙĨØ¯ ÙĩÙħ
ĠÙģÙĬ ÙĩÙħ
ĠØ§ÙĨ Ùĥ
ĠØ· ÙĬØ¨
a t
ÙĬ Ø³
ĠØ¨ ØŃ
ĠØ§Ø¨ ÙĪÙĨÙĬ
ĠÙĩ ÙĦ
Ø² Ø§ÙĨ
ĠØª Ø§ÙĨÙĬ
ĠÙĨ ØªÙĪ
ĠÙĬØ¹ Ø·ÙĬÙĥÙħ
Ø± ÙĬÙĨ
Ø± Ø§ÙĨÙĬ
Ùĩ Ø§ØªÙĥ
ĠØ§ÙĦÙħ ÙĩÙħ
ĠÙħØ´ ÙĬ
Ø¯ Ø¹
ĠÙħÙĬ ÙĦÙĪØ¯
ĠÙĬ Ùģ
Ø±ÙĬ ÙĤØ©
ØªØŃ ÙĬØ©
ÙĨ Ø¯ÙĬ
ĠØªØŃ ÙĬØ§
ĠÙħ Øµ
Ùĩ Ø°Ø§
Ø· ÙĪ
ĠØ³ ÙĦÙħ
ÙĪØªÙĬ ÙĪØ¨
ĠØ¬Ø¯ÙĬ Ø¯
ÙĨØ§ ÙħØ¬
ĠØ¹ ÙĦØ§
ĠÙĪØŃ Ø¯
ĠØ¹ ÙĤ
ĠØ§ÙĦØŃ ÙĤ
ÙĨØ³ Ø§
Ġ Ø§Ùĩ
ÙĨ Ø§Ø³
ĠØ¹ÙĨØ¯ Ùĩ
Ø§Ø² ÙĬ
ÙĥÙħ ÙĦ
Ø¨ÙĬ ÙĦ
ĠØ´ ØºÙĦ
Ø£ ÙĨØ§
ĠØª Ùĩ
ĠØ² ÙĬ
ĠØ§ÙĦ Ø¨ÙĦ
ĠØ¹ÙĦÙĬ ÙĩÙħ
Ø¯ÙĬ Ùħ
ĠØ¹ ÙĬÙĨ
Ø¯ÙĬÙĨ Ø©
Ø¨ ÙĪ
Ø¶ Ø§
ĠÙħ Ø§Ø¯
u n
Ø± ÙĪÙģ
ĠØ§ÙĦØ´ ÙĬ
ÙĨ Ø¹
Ġl a
ĠØ¨ ÙĬÙĩ
ĠÙĦ Ø£
ĠØŃ Ùħ
ĠØªØ® Ø¯Ùħ
ĠØ±Ø³ ÙĪÙĦ
ĠÙĬ Ùħ
ĠØ¹ ÙĬØ¯
Ùģ ÙĦ
ĠÙħ Ùĩ
ØŃ ÙĬØ¯
ĠØª Ø±
ĠØªØ§Ø¹ ÙĬ
ĠÙĦ Øª
ĠØ§ÙĦÙĤ ÙħØ©
Ùĥ Ø³
ĠØ§ÙĦÙħØŃ ØªÙĪÙī
Ø§Ùĥ Ùħ
ĠĠ Ġ
ĠØ¹ÙĨØ¯ ÙĪ
ĠÙĦ ÙĨØ§
ĠÙĥ Ø§Ø´
ĠÙĩÙĥ Ø°Ø§
ĠØ® ÙĦÙĬ
ĠÙģ Ø¶
ĠØ¨Ø§ÙĦ Ø¹
ĠÙħØª Ø§Ø¨Ø¹
Ø§Ø± Ø¬
ĠØ´ ÙĪÙĬØ©
ĠØ±ÙĪØŃ ÙĬ
ĠØ§ÙĦØ¬Ø² Ø¡
ĠÙĪ ÙħØ§
ÙĬØ± Ø§
ĠØ£ ÙģØ¶ÙĦ
ĠØŃØ¨ÙĬ Øª
ĠØ´ Ø¹Ø¨
Ø§Ø¨ ÙĬ
Ø§ÙĦ ÙĪ
ĠØ¬ ÙĬØª
ĠØ¨ Ø·
ĠÙĥ Øª
ÙĪÙĦ ÙĪ
ĠÙĩØ§Ø° ÙĬ
ĠÙģÙĪ ÙĪØ±
ĠÙĪÙĦÙĬ Ø¯
ĠÙĪ ÙĬØ±
ĠØ¬ Ø¯
ÙĪØ§ ÙĤ
ĠØ§ÙĦØª Ø¹
Ø± Ø§Øª
ĠØŃ Ø§ÙĦ
ĠÙĬØ® Ø¯Ùħ
Ġ n
ĠØ§ÙĦ ÙģÙĬ
in g
ÙĪ Ø¶
ĠÙĥØ¨ ÙĬØ±Ø©
ĠØ¨Ø§ÙĦ Ø¶ØŃÙĥ
Ø± Ø³
ÙĦ ÙĦÙĩ
ĠÙĪÙĩ ÙĪ
Ã ©
Ø¹ ÙĬØ¯
ĠØ¨ Ø¬
en t
ĠÙĨÙĪØ± ÙħØ§ÙĦ
Ø§Ø¦ ÙĬ
ĠØ´ Ø§Ø¨
Ø§Ùħ Ø§
Ø§Ø¦ ÙħØ§
ĠØ¬ ÙĬ
ĠØ³ Øª
ĠÙħØ´ Ø§Ø¡
ÙĪ ÙĥÙħ
ĠÙħ ÙħÙĥÙĨ
ÙĤ Ø±
Ø² Ø§
an d
ÙĬØ± ÙĬ
Ø· ÙĨ
ĠØ´ ÙĩØ±
ÙĦ Ø¹Ø¨
ĠÙĤ ÙĪØ©
ĠÙħ ÙĪÙĦ
Ø¬ ØŃ
h a
Ø¯ Ø§Ø±
ĠØ¹ ÙħÙĦ
ĠØ§ÙĦØ§ ÙĪÙĦ
ĠØ§ÙĦ Ø¨ÙĬ
ÙĤ Ùĩ
ĠØª Ø¬ÙĬ
ĠØ£ Ø¹
ĠÙĥ ÙĨ
ÙĪ Ø§ØŃ
ĠÙĨ Ùģ
ĠØªØ¹ ÙĬØ´
ĠÙĩØ§Ø¯ ÙĬ
Ø¨ÙĬ Ø©
ĠØ¬ ÙĨ
ou r
l e
ĠÙĦ ÙĩØ§
ĠØ± ÙĬ
ĠØ¯ ÙĬÙĨ
Ø§Ø¬ Ø©
ĠØ§ÙĦÙĥ Ø±ÙĬÙħ
Ġ g
Ùĩ ÙĪ
Ø±ÙĪ Ùĥ
ĠÙĨØ® Ø¯Ùħ
Ø§ÙĨ ÙĬØ©
ĠØ¯ Ø§ÙĬØ±
ĠØ² ÙĪ
ĠØ§ÙĦÙģ Ø±
Ø§Ø¦ ÙĦ
ĠØ³ Ø¨
ĠØ§ÙĦÙħ Øª
Ø§Ø¬ ÙĦ
Ġ Ø§ÙĩÙĦ
ÙĨ Ø§Ø©
ÙĪØ¯ Ùĥ
ĠÙĤ Ø±ÙĬØ¨
ĠØ¯ ÙĪÙĨ
ĠØ¹ Ø¬Ø¨ØªÙĨÙĬ
o r
ĠØ¨Ø¯ ÙĪÙĨ
ĠØ¹ Ø¨
Ø³ÙĬ ÙĤÙī
ĠØ¨ Ø§ÙĬÙĨ
ĠÙĬØ§Ø® ÙĪÙĬØ§
ĠØ ¸
ĠØªØ¹ ÙĦÙħ
ĠØ¨ ÙĪ
ĠØª Ø·
Ø¬ Ø±
ĠÙĥÙĦ Ø§Ùħ
Ø± Ø§Ùĩ
ĠØ¨Ø§ÙĦ Ùĥ
Ø®ÙĦ Øµ
ĠÙĤÙĨ Ø§Ø©
ÙĬØ¹ Ø·ÙĬÙĥ
ĠØ§ÙĦ Ø³ÙĦ
ĠØ§Ø º
ĠÙĤ ÙħØ©
ĠØ· Ø±ÙĬÙĤ
ĠÙĪ ÙĨØª
ĠÙĦ ÙħØ§
ĠØªÙĪ ØŃØ´
ĠÙĪ Ø§ØŃ
ÙħÙĬ ÙĦÙĪØ¯
ĠØ§ÙĦ Ø§Ø±
ĠØ§ÙĦ Ø¶
ĠØª Ø±Ùĥ
Ø¯ÙĬ Ø¯
Ø§Ø¬ ÙĬ
ÙĤÙĬ Øª
ÙĪØ¬ Ø¯
ĠÙĦ Ø§Ø¨
ÙĦØŃ ÙĤ
ĠØ´ Ø§Ùģ
ĠØ² ÙĬØ¯
Ø³Ø¨ ØŃØ§ÙĨ
ÙĨ Ø§Ø´
ĠÙħØ§Ø² Ø§ÙĦ
Ùħ ÙĨØ§
Ø² Ø©
ĠØ¨Ø³ ÙĥØ±Ø©
ÙĪ ÙĦÙĩ
ĠØ§ÙĦØ¹ Ø±Ø¨ÙĬØ©
ĠØ§ÙĦØ¹ ØªØ±ÙĪØ³
ĠØ§ÙĦØŃ ÙĬ
ĠÙĪÙĬ Ø¹
ĠØ¨Ø± Ø§ÙģÙĪ
ĠØµ Ø§ÙĨ
Ø³ÙĦØ³ÙĦ Ø©
Ø¨Ø¯ Ø¹
Ø³ Ùĥ
ĠÙħÙĨ Ùĥ
ĠØŃ Ùĥ
Ø±ÙĬ Ø¯
ĠØ¯ Ø¹
ÙħÙĬ Ø¹
ĠØ· ÙĪÙĦ
Ø¬ ÙĦÙĬ
ĠÙĨ Ø¸
ĠÙħØ¹ Ùĥ
ĠØ¨Ø§ÙĦ ÙĨ
Ø¬ ÙħØ§ÙĦ
ĠÙĩ Ø§Ùĥ
ĠØ§ÙĦÙħ Ø³Øª
ĠÙĨØª ÙħÙĨÙī
Øª Ø§
ĠÙĦÙĥ ÙĦ
ĠÙģÙĬØ¯ÙĬÙĪ ÙĩØ§Øª
ØŃ Ø±
ÙĦÙĬ ÙĪÙĨ
ĠØ³ ÙĪ
Ùħ Ø´
ĠÙĦ Ø®
Ø· Ø§ÙĨ
Ø¨ Ø§ØŃ
ĠØ± Ø§Ø³
ĠØ¯ ÙĪØ±
ĠØ§ÙĦØ¯ ÙĬÙĨ
ĠØ¨ÙĬ ÙĩØ§
ĠÙĦØ¹ Ø²ÙĬØ²
ĠØ¯ÙĬ ÙħØ§
Ġc est
ĠÙħ ÙĩÙħ
Ġl es
ĠØ¨ ÙĤ
ĠÙĦ Ùģ
Øº Ùħ
Ġqu e
ĠØ§ÙĦÙĪ ØŃÙĬØ¯
ĠØ§ÙĦØµ ÙĦ
Ø§ÙĦ Ø§
Ø§Ø± Ùĩ
ĠØ§ÙĦØ¯ ÙĨÙĬØ§
ĠØ¨ ÙĨØª
ĠÙĪØ§ÙĦ Ø¹
ĠÙħ ÙĨØ§
Ø¹ Ùĩ
Ø¨ÙĬ Ø§
ÙĪÙĦ Ùĥ
ĠØ¯ Ø§Ø¦ÙħØ§
ĠÙĤ Øµ
Ø° Ø¨
ĠØ³ÙĦ Ø§Ùħ
ĠØª Ø¯
ÙĬ ØŃØ©
ØªÙĪ Ø§
ĠÙĨØŃ ÙĨ
ÙħØ¹ ÙĬÙĨ
ĠØŃ Ø·
Ø§ÙĬ Ùĩ
ĠØ§ÙĦ Ø³ÙĦØ§Ùħ
ĠØ± Ø¬
ÙĦÙĪ Ø¨
Ø³Ø¨ Ø©
ĠØ¬ÙħÙĬ ÙĦ
ĠØª ÙĬ
ĠÙĨ Ø·
ĠÙĥ Ø«Ø±
ÙĤ Ùħ
Ø§Ùģ ÙĬØ©
ÙĤ Øµ
ĠÙĦ ÙĩÙħ
Ø±ÙĬ Ùĥ
ĠØ· ÙĦØ¹
Ġ k
Ø® ÙĬ
ĠØ§ÙĦØ¹ ÙħÙĦ
ĠÙĨ Ø¯
ĠÙĤ Ø§Ø¯
ĠØ¨ Ø§Ø³
Ø§ÙĦ Ø«
ĠÙĪ Ø¯
ØŃ Ø¯
Ø±Ø¨ ØŃ
ĠØ§ÙĪ ÙĤ
ÙĪØ± ÙĪÙĨØ§
ĠÙĦÙĤ ÙħØ§ÙĨ
ĠØ´ Ø¹
ĠÙģØ± ÙĨØ³Ø§
ĠÙĪ Ø§Ø¹
ĠÙħ Ùģ
c h
ĠÙĩ ÙĥØ§
ĠØŃ Ø³ÙĨ
i on
ĠÙħ ÙĪØ±
ĠØ¨ Ø§Ø·ÙĦ
ĠØ£Ùĥ Ø«Ø±
ĠØ¬ Ø¹
Ġf a
ĠÙģØ·ÙĪØ± ÙĥÙħ
ÙĪØ¯Ùĥ Ø§Ø³Øª
ĠØª ÙĪÙĦÙĬ
ĠØ¹ ÙĦÙħ
ĠØ§ÙĦØŃ Ø±
ĠÙĬÙĪÙģÙĤ ÙĥÙħ
ÙĨ Ùĩ
ÙĪ Ø§Ø´
ĠØ¬ Ùħ
ĠØ£ Øµ
ĠØ¨ Ø§
ĠÙĨ Ùĩ
ĠØ§ÙĨ ÙĪ
ĠÙĪÙĩ Ø±Ø§ÙĨ
ĠØ²Ø¹ ÙħØ§
ĠØ¹ ÙħØ±
ĠØ®ÙĪ ØªÙĬ
ĠØ§Ùĥ Ø¨Ø±
ĠØŃ ÙĪ
ĠØ§Ø® Ø±
Ġ un
ĠØ§ÙĦ Ø§Ø¹
ĠØ¨ Ø£
ĠØª ÙģØ±Ø¬
ĠÙĥ ÙĬÙĨ
Ø® Ø±Ø¬
Ø¯ÙĬ Øª
Ø§ÙĦ ÙĬØ©
ĠÙĨ ÙĬ
ĠÙĨ Ùĥ
ØµÙĪ ÙĬØ±
Ùĥ ÙĬÙĨ
ĠØ§ÙĦØ¬Ø²Ø§Ø¦Ø±ÙĬ ÙĬÙĨ
w a
ĠØŃ ÙĬØ§ØªÙĬ
ĠØ§ÙĦÙĤ ÙĦØ¨
ĠØµØ§ØŃ Ø¨ÙĬ
ĠØª Ø¨Ø§Ø±Ùĥ
ĠØ® ÙĦÙĤ
Ø³ÙĬ Øª
ĠÙĥÙĬÙģ Ø§Ùĩ
ĠÙĬ Ø±ÙĪØŃ
ĠØ¨ Ø±ÙĪ
ĠÙĪØ´ ÙĥØ±Ø§
Ø§ØŃ Ø³ÙĨ
ĠÙĪØ§ÙĦ Øª
ĠØ§ÙĦ Ø±Ø¬
ĠÙģ Ø¹
ĠØµ Ø±
ĠÙĪØª ØŃ
ĠØ« Ùħ
ÙĨØ§ Ùĥ
ĠØ¬ Ø§Ø¨
ÙĤ Ø§ÙĦ
ĠØ± ØŃÙħ
ĠØ± Ø¬Ø¹
ĠØµ ÙĦÙĬ
ĠÙĪ Ø¨Ø§Ø±Ùĥ
ĠØ¨ Øª
Ø· Ø§Ø±
ÙĬØ¨ Ø©
ĠØ³Ùħ ÙĬØ±
ÙĨ Ø§Ø¡
Ø±ÙĬ Øª
ĠÙģÙĬØ¯ÙĬÙĪ ÙĩØ§ØªÙĥ
ÙĥÙĬ Ùģ
Ùĩ Ø§Ø´
ĠØ§Ùħ ÙĬÙĨ
ÙĪØ§ÙĤ Ø¹
ĠØµØ§ÙĨ Ø¹
ĠÙħ ÙĬÙĨ
ĠØª ÙĦÙħ
ĠØ¯ Ø²Ø§ÙĬØ±
Ø§Ø® ÙĬ
ĠØ§ÙĦØ¬Ø² Ø§ÙĬØ±
ĠØ¨ÙĦ Ø§ØŃØ©
ĠÙĦ Ø¨ÙĦØ§Ø¯
ĠÙĥ ÙĨØ§
ĠÙĨØ¹ Ùħ
ĠØ¨ Øº
ĠÙħØ¹ Ø§ÙĬØ§
ÙĦÙĤ Ø§Øª
ĠØ« Ø§ÙĨÙĬ
ĠØ§ÙĦØµÙĦ Ø§Ø©
ÙĪ Ø¨Ø±
Ø¯ Øª
Ġp as
Ø· Ø±
ĠØ¯ Ùĥ
ĠÙħØ´ ØªØ±Ùĥ
Ø§ÙĪ ÙĬ
ĠØ§ÙĦØ± Ø³
ĠØ° ÙĦÙĥ
e l
ĠÙģ ÙĪÙĤ
ĠÙĨ ÙĪ
ĠØ¯ Ø§ÙĬ
r o
ĠÙħ Ø¨Ø§Ø±Ùĥ
ĠØª ÙĩØ¯Ø±
Ø§Ø¦ Ø¹
ĠØ§ÙĦØ£ Ùħ
ĠÙħ Ø±ÙĬ
ĠØ¨ Ø§Ùĥ
ĠØŃ Ø³Ø¨
ĠØ¹ÙĦ Ø§Ø¨
e m
ĠÙĥ ÙĦÙħØ©
ĠÙĪ ÙħÙĬÙĦÙĪØ¯
ĠÙĩ Ø§
ĠÙħÙĨ ÙĩÙħ
ĠØ§ÙĦØ¹ Ø±Ø¨
ĠØ±Ø§ÙĬ ØŃ
ĠÙĥØ«ÙĬØ± Ø§
ĠØŃ Ø¯
ĠÙĪ Ø·
ĠÙĬ ÙĤØ¯Ø±
ĠØ¨ Ø®ÙĬØ±
Ø¶ Ø¹
Ø§Ø¹ Ø¯
ĠØ¹ÙĦÙĬ Ø§
ĠØ§ÙĦÙħØ¹ ÙĦÙĪÙħØ§Øª
Ø§ ÙĤØ©
ĠØ¨ ÙĥÙĦ
Ø£ ÙģØ¶ÙĦ
Ø§ÙĦ Ùī
Ø¹ Ùĥ
u s
Ġ y
Ø§ÙĨ Ø©
Ø§Ùģ ÙĬÙĥ
ÙĪØ± Ùĥ
i m
ĠÙĦ Ø¬
Ø³Ø· ÙĬÙĨ
ĠØ§ÙĦ Ø§ÙĪ
ĠÙģ Ø§Øª
Ø® Ø¨ÙĬØ¨
ĠÙĨØª Ø¨Ø¹
ĠØ§Ø® Ø±Ùī
ĠÙĦ Ø¯
ĠØ£ Ø¨
ĠØ¥ ÙĦÙĩ
ĠÙĦÙĦ Ø¹
Ġp ar
Ø¦ Ø©
ĠØ£ Ø³
ĠØ§ÙĦØ± ØŃ
Ø§Ø± Ø§Øª
ØªÙĥ ÙĦÙħ
Ø¹ÙĦ Ø§Ùĩ
ĠÙħÙĦ Ø§ØŃ
ÙĦ Ø§Øª
ĠØ±Ø§Ø¦ Ø¹Ø©
ĠØ¯ ÙĪÙĦ
ĠÙĪÙĩ Ø°Ø§
ĠØ£ Ø³Øª
ĠÙĨØ¹ Ø§ÙĪØ¯
ĠÙĦ Øº
ĠÙħÙĦÙĬ ØŃØ©
ÙĨ Ø§Øª
Ø² ÙĬØ©
ĠÙĬØ¬ ÙĬØ¨
ÙĨÙĪ Ø§Øª
ĠØ§ÙĦØª ÙĪÙģÙĬÙĤ
ĠØ¬ÙħÙĬ ÙĦØ©
ĠÙĨØªÙĪ ÙħØ§
Ø§ÙĦ Ùģ
Ø¹ ÙĦÙī
ĠÙħØ¹ ÙĦÙĪÙħØ§Øª
ĠÙĪÙĦ ÙĦÙĩ
ĠÙħ Ø¯ÙĬÙĨØ©
ĠÙĪØŃ Ø¯Ø©
Ùĩ Ø©
Ùĩ Ø§Ø¯
ĠÙģ ÙĨØ§ÙĨ
Ø° ÙĬ
ĠØ®ÙĪ ÙĨØ§
ĠØ¹ÙĨØ¯ ÙĩØ§
Ø§Øµ ÙħØ©
ĠÙģ ÙĦÙĪ
Ùħ Ùĥ
ÙĦ Ø§Ø¨
ĠÙĪ Ø§
ĠÙĨ ÙĤØ¯Ø±
ĠØµ ØºÙĬØ±
Ġl e
Ġm a
Ø· ÙĤØ©
ĠÙħØ¹Ø§Ùĥ Ùħ
ĠÙħÙĥØ§ÙĨ Ø´
ĠÙģ Ø¯ÙĬÙĪ
ĠØª Ø£
ĠØ¬ Ø§Øª
Ø¶ Ø±Ø¨
ĠØ± ØŃØª
Ø® ÙĦÙĪ
ĠÙĤ Ø§Ø³Ùħ
ĠØ¨Ø¹ ÙĬØ¯
Ø§Ùģ Ø±
ĠÙĩØ§ÙĬ ÙĦ
ÙĩØ§ ÙĩØ§
Ùĩ ÙĪØ¯
ÙĤØª ÙĦ
Ø° ÙĦÙĥ
ĠØ¨Ø§ÙĦ ÙĬ
ÙĦÙģ Ø©
ÙĪØªÙĬ ÙĪØ¨Ø±
ĠØ¹ Ø·
ĠÙĬØ® Ø±Ø¬
ĠØŃÙĬØ§Øª Ùĥ
ĠØ§ÙĦ ØªÙĪ
ÙĪÙħ Ø©
ĠØªØ¹ ÙĦÙĬÙĤ
ĠØ§ÙĦØ« Ø§ÙĨÙĬ
Ø§Ø ¸
Ø¨ Ø§Ø±
ĠÙħ ÙħØ«ÙĦ
ĠØ¨ Ø¥
ĠØ¹ Ø¬Ø¨
ĠØ³ ÙħØ¹
ĠØ« ÙĤ
ĠØ§ÙĦ Ø§ØŃ
ĠØ§ÙĦØ¹ Ø²ÙĬØ²
Ø§Ø¯ Ùħ
ĠØ³ÙĨ ÙĬÙĨ
ĠØ§ÙĪÙĤ Ø±ÙĪØª
ĠÙĬØ±ØŃÙħ Ùĩ
ĠÙĤ Ø¨
ĠØ¥ ÙĦÙĬÙĩ
ĠÙħ Ø§Ùħ
ĠÙĨØ´ÙĪÙģ ÙĪ
ĠÙĦ Ø§ÙĬ
Ø¹ ÙĨØ¯
ĠÙĬ Ø¶ØŃÙĥ
ĠØª Ø²ÙĬØ¯
ĠØ§Ø¬ ÙħÙĦ
ĠØ£ ÙĩÙĦ
ĠÙĪÙĬ Ø¬
ĠØ§ÙĦ Ø±ØŃÙħ
ĠÙĥ Ø±ÙĬÙħ
ÙĪÙĨ ØªØ§Ø¬
ÙĪØ³ Ø¹
Ú ©
ĠØ§Ø ·
ĠØ¯ÙĬØ± ÙĪ
ĠÙĥ Ø±
Ø¸ Ø±
ĠÙĪÙĬ Ø´
c e
ĠÙĥ Ø±ÙĬ
ĠÙĬØ® Ø¨Ø·
ĠÙģØ¶ ÙĦÙĥ
ĠÙħ Ø·
Ø³ ÙĪ
Ø² ÙĬØ±
ĠØ¨Ø§ÙĦ ÙĦÙĬ
ÙĨ Ø´
Øª Ø§Ø±
Ùģ Ùĥ
Ø§Ùĩ ÙĬ
ÙĪ ÙĬÙĨ
ĠØªØ® Ø±Ø¬
Ø² ÙĦ
Ø¸ Ø©
Ø¹ÙĦ Ø§Ø´
ÙħØ± ØŃØ¨Ø§
ĠÙĥ Ø§Ùħ
ĠÙĤ ÙĪÙĦ
Øº Ø±
ĠØ§ÙĦØµØŃ Ø±Ø§Ø¡
Ø¨ Ø¹Ø¯
ĠÙĨ ÙħÙĪØª
ĠÙĩ ÙħØ§
ĠØµØŃ Ø§
ĠÙĬØ± Ø²ÙĤ
Ø¨ ÙĬÙĨ
ĠØ´ Ø±
ĠØ¨Ø± ÙĨØ§ÙħØ¬
ĠØ§ÙĦ ÙĤÙĬ
ĠÙĬ ÙħÙĥÙĨ
ĠØ§ÙĦÙħ Øµ
Ø§ÙĪ ØªÙĬ
ĠØ§ÙĦÙģÙĬØ¯ÙĬÙĪ ÙĩØ§Øª
Ø¬Ø§Ø¨ ÙĬØ©
Ø¯ ÙħÙĪ
ĠØ¹ Ø§Ø¯
ÙĦÙĪ ÙħØ©
ĠÙĪÙĬ Ø³
ĠÙĥ ÙĦÙħ
ĠØ® Ø³
ĠØ´ÙĪÙĬ Ùĩ
Ùģ Ø¶
Ø§ÙĦ ÙĤ
Ø§Ø± Ùģ
ĠØ§ÙĦØº Ø±Ø¨
ĠØªÙĦÙħ Ø³Ø§ÙĨ
Øª ÙħØ¹
ĠÙĥ Ùģ
ĠØ£ ÙĪÙĦ
Ø¬ Ø¯
ĠØµ Ø¯ÙĬ
Ø¤ Ø§ÙĦ
ÙģÙĬ Ø¯
h and
ĠØ´ Ø±Ùĥ
ÙĦ ÙĥÙħ
ĠÙĨ ÙĥÙĪÙĨ
ĠØ§ÙĦØ¬ ÙħÙĬ
ĠØ§ÙĦ Ø§Ø¨
ĠØ´ Ùĩ
ĠØ§ÙĦÙĤ ÙĨØ§Ø©
ĠØ¬Ø¯ÙĬ Ø¯Ø©
Ø±Ø§ ÙĤ
ĠØ§ÙĦØ· Ø±ÙĬÙĤ
Ø´ Ùģ
Ø¬ Ø§
ĠÙħ ÙĤÙĬÙĪØ³
ØŃ ÙĦÙĬ
ĠØ¹ Ø§Ø¯ÙĬ
ĠÙħØ¹ Ø§Ùĩ
ĠØ¨Ùĥ Ø±ÙĬ
ÙĬ Ø§Ø®
Ø¨ Ø®
ĠØµ ÙĪ
ÙħØ« ÙĦÙĬÙĨ
Ø¬ Ùħ
ĠØ§ÙĦØ£ Ø®
ĠÙĬ Øº
ĠÙĩÙĪ ÙħØ§
ÙĤØ· Ø¹
ĠÙģ ÙĦÙĪÙĤ
Ø¶ ÙĬ
ĠØ§ÙĦØ¹ Ø±Ø¨ÙĬ
ĠÙħØ´ ÙĥÙĦ
ĠÙĬ Ø§Ø±
ĠÙĨØ´ Ø§ÙĦÙĦÙĩ
ĠØ§ÙĦ Ø§Ø¬
Ø´ Ø¹Ø¨
Ø§Ø¨ ÙĦ
ĠØ² ÙĪÙħ
Ø§Ø²ÙĬ Øº
Øµ Ùģ
ĠØªØ§Ø¹ ÙĨØ§
Ø²ÙĬ ÙĪÙĨ
u r
ĠÙħØ¹ ÙĦÙĬØ´
ĠØ§ÙĦØŃÙĬ Ø§Ø©
ĠØ¹ Ø¬Ø¨ÙĨÙĬ
Ø®ÙĦ Ø§Øµ
ĠØ§ØŃ ØªØ±
ĠÙĪØ¬ Ùĩ
ĠØ¬Ø§Ùħ ÙĬ
ÙĤ Ø³
ĠÙĨØŃ ÙĪØ³
ĠØ¯ ÙĪ
ĠÙĬØ· ÙĦØ¹
Ġj e
Ùħ ØŃ
Ø³ÙĨ Ø·
ĠØ¹Ùħ Ø±ÙĬ
ÙĤ Ø§Ø¯
ĠØªØŃ Øª
ĠØµØŃ Ø©
ĠØ§ÙĨ Ø³
ĠØŃØ³ Ø§Ø¨
Ùĥ Ø§ÙĬÙĨ
Ø¬ Ø±Ø©
Ø³Øª Ø§ÙĨ
ĠÙĬØ¹ Ø§ÙĪÙĨ
Ùħ Ùħ
ĠØ§ÙĦ Ø§Ø³Øª
ĠÙĬ Ø¬Ø¨
ĠÙĨÙĤÙĪÙĦ Ùĥ
ĠØ¬ ÙĪ
ĠÙĪÙħ ÙĤÙĬÙĪØ³
v ing
ÙĤ ÙĪ
ĠÙĬ ÙħØ§
ĠÙĦ ÙĤØ¯
Ø§Ø± Ø³
Ø¶ ÙĪØ¹
Ø§Ùĩ Ø¯Ø©
in k
ĠÙĪÙĬ ØŃ
ÙĪØ¨ Ø§
ĠÚ¨ Ø§Ø¹
a m
ÙĨ ÙĬÙĨ
ĠØ¥ Ø°Ø§
ĠØ±ÙħØ¶Ø§ÙĨ ÙĬØ©
ĠÙĪÙĦÙĬ Øª
ĠØŃØ¨ÙĬ Ø¨ÙĬ
ĠØ¬Ø¹ ÙģØ±
ĠÙħØ³ ÙĥÙĬÙĨ
ÙĦ Ø§Ø«
ĠØ¯ Ø§Ø®
ĠØ§ÙĦÙħ Ø±
Ø¸ Ùħ
ÙĪØ³ Ùħ
ĠØ£ØŃ Ø³ÙĨ
Ø² ÙĪ
Ø² Ø¹
ĠÙĤ ÙĬ
ĠÙħ Ø²ÙĬØ¯
ĠÙĨ Ø¬ÙĬ
ĠØ§ÙĦÙĬ ÙĪØªÙĬÙĪØ¨
Ġ w
ÙĤ Ùģ
ĠØ§ÙĦ ÙĥØ±
ÙĤÙĬ ÙĤ
Ø¨Ø¯ ÙĦ
ĠØ§ÙĦØº Ø±Ø¨Ø©
ĠØ§Øª ÙħÙĨÙī
p ink
Ø¨ ÙĬØ±
Ø§ÙĨ ÙĬØ§
wa ving
Ø§ÙĦ Ø·
ĠÙĬ Ø²ÙĬØ¯
ĠØ§ÙĦØ§ÙĨ Ø³Ø§ÙĨ
ĠÙħÙĥ Ø§Ø´
hand pink
handpink waving
ĠÙĬØ¹ ÙĬØ´
ĠØ§ÙĦØ¯ Ø§Ø±
ĠØ¹Ø¯ Ø¯
ĠØ®Ø¯ ÙħØ©
ÙĪ ÙĩÙħ
ĠØ¹ Ø§ÙĦÙħ
ĠØ§ÙĦØ¹ ÙĦÙħ
ĠÙĬØŃ Ø·
ĠØ¥ÙĨ Ø´Ø§Ø¡
ĠÙģÙĦ Ø³Ø·ÙĬÙĨ
ĠØ¯Ø®ÙĦ Øª
Ġ en
ÙĬ ÙĬ
ĠØ§Ùħ Ø§
ĠÙĬ ÙģÙĩÙħ
Ø§Ø¦ ÙĦØ©
ĠØ¨ÙĦ Ø§Øµ
ĠØ§ÙĦØ§Ø³ ÙĦØ§Ùħ
l o
ÙĨØ§ Ùĩ
ĠØ§ÙĦØªØ¹ ÙĦÙĬÙĤ
ĠØ¨ ÙĨÙĬ
ĠØµ Øº
Ġ h
ĠØ¨ Øµ
ĠØª Ø¯Ø®ÙĦ
ĠØª Ø§Ø±ÙĬØ®
Ø§Ùħ Ø·
Ø¯ÙĬ ÙĦ
ĠØ§ÙĦÙĤØ± Ø¢ÙĨ
Ø¹ ÙħÙĦ
Ø§ÙĬ Ø§Øª
ÙħÙĬ Ø²
ĠÙĬØ¯ Ø®ÙĦ
ÙĬØ¯ÙĬ Ø§
ĠØŃ Ø¨ÙĬØ¨
ĠØ®ÙĪ Ùĥ
Ø§ÙĨÙĬ Ø´
ĠÙĩØ§Ø° Ø§
ĠØ§ÙĦØ¥ Ø³ÙĦØ§Ùħ
Ùģ Ø§ÙĦ
ĠÙĨØ¹ ÙĬØ´
ÙĨØ³ ÙĬØ©
ĠØ§ÙĦØ¨ÙĦ Ø¯
Ø¨ÙĬ Ùĩ
ĠÙĩØ° Ùĥ
handpinkwaving handpinkwaving
ĠØ§ÙĦ Ø¶ØŃÙĥ
Ø¨ Ø³
ĠØŃ ÙĪÙĦ
Ø¯ÙĬ Ùĩ
ĠØ®ÙĬØ± Ø§
ĠÙĪØµØŃ Ø¨Ùĩ
ĠÙģ Øª
ĠÙĦ Ø¹Ø¨
ĠØ¹ ÙĬ
ĠØ± Ø£
Ø² Ø§ÙĦ
ĠØŃ ÙĦÙħ
Ø±ÙĬ Ùģ
ĠØ¨Ø§ÙĦ Ùħ
ĠØ¢ Ø®Ø±
Ú ¤
ĠØ¨ Ø§Øº
ĠØª ÙĪÙĨØ³
Ø±ØŃÙħ Ø©
ĠØªÙĪ ØµÙĦ
Ø§Øª ÙĪ
ĠØ¢ ÙĦÙĩ
ĠØ§ÙĦØ« Ø§ÙĦØ«
ÙĨ Ø§Ø¦ÙĬ
Ø° ÙĨ
ĠØªØ§Ø¹ ÙĪ
ĠØ³ÙĬ Ø¯ÙĬ
Ùħ Ø´Ø§Ø¡
Ø¶ Ø©
ÙĪØ± ÙĪ
ĠØ¬Ø² Ø¡
ĠØ²ÙĪ ÙĪÙħ
ĠÙĪ Ø§Ø¬
ĠØ£ ØŃØ¨
ĠØ§ÙĦØª ØŃ
ÙĬØª Ùĥ
ĠÙĤÙĨ Ø§ØªÙĥ
i d
Ø§ÙĦ ØŃÙħØ¯
ĠÙĬ ÙĩØ¯Ø±
ĠÙħÙĨ Ùĩ
ĠØ® Ø§Øµ
ĠØŃ Ø±
ĠØµØ§ØŃ Ø¨
ĠØ§ÙĦ Ø§ÙĬ
ĠØ® Ø§ÙĦ
ÙĦÙĬ Ùħ
ĠØ³ Ùĥ
ĠØ¹ÙĨØ¯ ÙħØ§
ĠÙĬØ¨ Ø§ÙĨ
ĠØª Ø§ÙĪ
Ø® Ø§ÙĪØªÙĬ
ĠØ¬ ÙĬØ¯
ĠØªÙĦÙĤ Ùī
Ø¨ Ø§
ĠÙģ Ùĥ
ĠØ§Ø± ÙĪØ§ØŃ
ĠØª ÙģÙĩÙħ
Øµ ÙĦÙĪ
ĠØ£ Ø´
ÙĪØ¨ Ø©
ĠÙĤØ§ÙĦ ÙĪ
ĠØ§ÙĦ Ø¸
ĠØ§ÙĦØ´ Ø®Øµ
ĠØ§ÙĦÙĥ ÙĪÙħ
Ø§ÙĦ ÙĨ
ĠÙħ Ø¨Ø¯Ø¹
ØªÙĪ ÙĨØ§
ĠØªØ¹ Ø§ÙĦÙī
ĠÙĥØ§ÙĨ ÙĪ
ĠØ§ÙĦ Ø³ÙĦØ³ÙĦØ©
ĠÙħ ÙħØª
ĠÙĨ Ø¶ØŃÙĥ
ĠØµ Ø¹
ĠØª Øº
ĠØ§ÙĦØ´ Ø¨Ø§Ø¨
ĠØ§ÙĦÙħÙĪ Ø³ÙĬÙĤÙī
v e
ĠØª Ø¨Ø¹
ĠÙħØŃ ØªÙĪ
ÙĪÙģÙĤ Ùĥ
ĠØ¨ÙĦØ§Ø¯ Ùĥ
ĠØ§ÙĦ ÙĩØ¯
ĠÙĦ ÙģÙĬØ¯ÙĬÙĪ
ĠÙĪØ§ÙĦ ÙĨ
Ø£ ÙĦÙĤ
ØŃ ÙĨ
ĠØ¨ Ùħ
ĠØª ÙħØ§
ÙĨØ§ ÙĩØ§
ĠØ³ ÙĬØ±
Ø§ÙĬ Ø¬
ØªÙĪ Ø´
ĠØª Ø¯ÙĬØ±
ĠØ£ Øª
ĠØ¯ ÙĤ
ÙĪÙĦ Ø§
ĠÙĦÙĬ Ø¨ÙĬØ§
Ø§Ø· ÙĤ
e d
ĠØ¬ ÙħØ¹
Ø¨ÙĦ Ø©
ĠØ® Øµ
ĠØ§ÙĦÙħ Ø²ÙĬØ¯
ĠØ³ ÙĪÙģ
ĠÙĬØ® ÙĦÙĬ
Ø§ÙĦ Øª
ĠØ¯ ÙĪÙĥ
ØªØŃ ÙĬØ§
ĠØ§Ø± ÙĪØ¹
ÙĤØ¯Ø± Ø´
ĠÙĨØ´ Ø§ÙĦÙĩ
ĠØ¬Ø²Ø§Ø¦Ø±ÙĬ Ø©
Ø¹ Øª
ĠÙĬ ÙĤØ¯
Ø§Ø³ Ø©
ĠØ£Ùħ Ø±ÙĬÙĥØ§
ï »
ĠÙĬ Ø§Ùĥ
ĠÙĬ ÙĪØªÙĬÙĪØ¨Ø±
ĠØ± ØºÙħ
ĠØ§ÙĦØŃ Ø¨ÙĬØ¨
Ø³Ø¨ ÙĪÙĥ
ĠÙĪØŃ Ø¯Ùĩ
ĠÙħ Ø§Ùĩ
Ø·ÙĬ Ùģ
ĠÙĨØŃØ¨ Ùĥ
ĠØ§ÙĦØ³ÙĬ Ø§ØŃØ©
ĠÙĥ ØªØ¨
Ø§ÙĬ ÙĦ
ĠØº ÙĦ
ÙĦØª ÙĨÙĬ
ĠØ§Ø¨ ÙĨ
Ùģ Ùĩ
ĠÙĬ ÙĪØ¬Ø¯
ØŃ ÙĨØ§
ÙĤØ¯ ÙĬØ±
ĠØ®Ø§Ø· Ø±
Ġ A
Ø³ÙĬ ØŃ
ĠÙĪ ÙĪ
Ùģ Ø§Ø±
Ø±ÙĬ ØŃ
Ø§ÙĨ Ø§Øª
ĠØ¹ Ø±Ø¨ÙĬ
Ġ r
ĠÙģ Ø§ÙĦÙħ
ĠØ´ ÙĪÙĬØ§
ĠÙĤ Ø³ÙĨØ·
ĠÙĪÙĬØ¬ Ø¹ÙĦ
ĠÙĥ Ø§Ø±
ĠØ§ÙĦØŃ Ø§Ø¬
ĠÙĬØ´ Ø§ÙģÙĬ
Ø¬ÙĦÙĬ Ø²ÙĬØ©
ĠØ¯ ÙĤÙĬÙĤØ©
ĠØªØµ ÙĪ
ĠØ§ÙĦØª Ø¬
ĠØ§ÙĦØ¨ Ø§Ùĥ
ĠÙĬØŃÙģØ¶ ÙĥÙħ
ĠØ§ÙĦÙĥ Ø«ÙĬØ±
ĠÙĦ Ø´
ĠÙĨ ÙģÙĩÙħ
ĠØ§ÙĦÙĨ Ø¨ÙĬ
ĠØ¨ØµØŃ ØªÙĥ
ØªØŃ ÙĬØ§ØªÙĬ
ĠØ§ÙĦØ¬Ø² Ø§Ø¡
ĠÙĪ ÙĦÙĪ
ĠØŃ ÙĦ
Ø§ØŃ ÙĬØ©
ĠØ§ÙĦØ¹ Ø§ØµÙħØ©
ĠØª ÙĨØ³
Ø° Ø§Ùĥ
ĠØ¨ Ø±Ø§
ĠØª Ø¶ØŃÙĥ
Ġd es
ĠÙĪÙĦÙĬ Ø³
Ø§Ø¯ Ø±
ĠØ§ÙĦØ¹ ÙĬØ¯
Ø±ÙĪ Ø¹Ø©
Ø³Ø¨ Ø¨
Ġp our
a i
ÙĨ ÙĪØ¨
ĠØ¨ Ø³ÙĬ
ÙĦÙĬ Ø§
ĠÙĦØ§ÙĨ Ùĩ
ĠÙĥ ÙĪÙĥ
Øª ÙĦÙĬ
ĠÙĪ ÙĥØ§ÙĨ
Ø¯ ÙħØ©
ĠÙģ ÙĥØ±Ø©
ĠÙĩ ÙĬØ§
ĠØ· Ø§ÙĦØ¨
ĠØ¨ÙĬ ÙĥÙħ
a d
Ø¹ ÙĬÙĨ
Ø¹ Ø¬Ø¨ØªÙĨÙĬ
ĠØ¹ Ø³
ÙĪØ± Ø§ÙĦ
ĠÙħ Ùħ
ÙĤ Ùĥ
ĠØ¨ Ø¯ÙĬØª
ĠØ± ÙĤÙħ
Øº Ø±Ø¨
ĠØ§ÙĦØ¥ ÙĨ
Ø¨ÙĬ Øª
ĠØ§ÙĦØ¬ Ø§ÙĬ
ĠØ¹ÙĨØ¯ ÙĥÙħ
ĠØ¹Ø§ÙĬØ´ ÙĬÙĨ
ĠØ§ÙĦ Ø¯ÙĬ
ĠØª Ø²ÙĪØ±
ĠÙģÙĬ ÙĨØ§
ĠØŃ ÙĦÙĪ
ĠØ¯ÙĬ Ø§ÙĦÙĥ
ĠÙĬØ¯ÙĬØ± ÙĪ
ĠØ§ÙĦ ØŃÙħ
ĠÙĪ ØµÙĦ
ÙĤØ· Ø©
ĠÙĨØ¬ ÙĬØ¨
ÙĪ Ø¹Ø©
ĠØ¬ Ø¨
ĠØ® ÙĬ
Ø§Ø¹ ÙĬ
ĠØº Ø§ÙĦØ¨
ĠØªØ¹ Ø¬Ø¨ÙĨÙĬ
ĠØªØŃ Ø³
ØªØ± Ø§Ùĥ
ĠÙĨØ³Øª ÙĨØ§
ĠØ§ÙĦØ§Ø± Ø¶
Ùħ Ø§Ùħ
ÙĪÙĨ Ø©
ĠØ¥ÙĨ Ø³Ø§ÙĨ
Ġe t
ĠÙĪ Ø§Ø³
ĠÙħ Ø¤
ÙĤ Ø¨
Ø¨ÙĬ Ø¹Ø©
ĠØ§ØŃ Ø¨
ĠØ§Ø¹ Ø·
ÙĪ ØŃ
Øª ÙĦ
ĠÙħ ØŃØ¨
ĠÙĨ ØŃÙĥ
ĠØ± Ø¨ØŃ
ĠØ§ÙĦØ´ Ø¹
ĠØ§ÙĦ Ø¢
ĠÙĪ ÙĥÙĬ
ØŃ ÙĦÙĤØ©
ĠÙĨ ÙĪØ¹
Ø§Øª ÙĥÙħ
ĠØ§Ø® ØªÙĬ
ĠÙħ Ø§Ùģ
ĠÙĥØ§ÙĨ ÙĪØ§
ØªØ± Ùħ
ĠØªØ¨ Ø§ÙĨ
ĠÙĦ ÙĬÙĨØ§
ĠØµ ÙĪØª
Ø§Ø¬ ØŃ
ĠÙĪÙĩ ÙĬ
ĠÙĤØª ÙĦ
Ġ B
ĠØµ ÙĨ
ĠØ¨ÙĦ Ø§Ùĥ
ĠØ² Ø§Ø¯
Ø§Ø· Ø©
ÙĤ ÙĤ
ĠÙĨ ÙĦÙĤ
ĠØ§Ø ¶
ĠØ¯ Ø¹Ùħ
ĠØ§ÙĦØª ØµÙĪÙĬØ±
ĠØ§ÙĦÙģ ÙĨ
ĠØ²Ø¹ Ùģ
ÙĬ Ø§Ùħ
ØŃ ÙĦ
ĠÙģ Ùī
ĠÙĦ ÙĦÙĤ
ÙĬÙĨ Ø§Ø±ÙĬ
ĠØŃ Ø±Ø§Ùħ
ĠÙĦÙĦ Ø¬
ĠØ§ÙĦØ¯ Ø¹Ùħ
ĠØŃÙĬ Ø«
ĠÙĪ Ø«
ĠÙĬ Ø¯ÙĬ
ĠØ´ Ùĥ
ĠØ³ Ø§Ø¹Ø©
ĠØ¨Ø§Ø³ ÙĥÙĪ
ÙĪ Ø§Ùĩ
ĠÙģ ÙĥØ±
ĠØ¬ Ø§ÙĪ
ĠØ¬Ø²Ø§Ø¦ Ø±
ĠÙĬØ´ÙģÙĬ Ùĩ
ĠØª ÙħØ«ÙĬÙĦ
ĠØ¬ ÙĬØ¨
ĠØ§ÙĦÙĪ Ø§ÙĦ
ÙĤ Ø§
ĠÙĥ Ø§Ø¹
Ø§Ùģ Ùĩ
ĠØ¨ÙĦ Ø§ÙĦ
ĠØ¨ÙĦ Ø§ØµØ©
ĠÙĪ Ø¥
Ùģ ÙĦØ©
Ø³ ÙĥØ±
ĠØ¹ Ø§ÙĪØ¯
ĠØ§ÙĦØ´ Ø±Ùĥ
ĠØ§ÙĬ Ø§Ùħ
ÙĪ ÙĦÙĩØ§
ÙĩÙħ Ø´
ĠØ§ÙĦØ¨ Ø§Ø·ÙĦ
ÙĬØ¹ Ø·ÙĬÙĥÙħ
h e
ĠÙĬ ÙĩØ¯
ĠÙĦ ÙĤÙĬØª
ĠØ¹ ÙĬØ¨
ĠÙĨ Ø¬Ø§ØŃ
ĠÙĤ Ø¹Ø¯
Ø¯ÙĪ Ø©
ĠØ£Ø³Øª ØºÙģØ±
Ùħ ÙĨÙĬ
ĠÙĨ Ø¯ÙĬ
ĠØ± Ø§Ø¬ÙĦ
ÙĩØ§ ÙĬØ©
Ø§Ø¹ Ùĩ
ÙĨ Ø³ÙĬ
Ùĥ ÙĨØª
Ø§Ø³ Ùģ
Ø·ÙĬ ØŃ
ĠØ« ÙĦØ§Ø«
Ùĥ Ø§Ø±
ĠÙħÙĨ ÙĪ
ĠÙħØ¹ Ø±ÙĪÙģ
ĠØªØŃ Ø·
ĠØ« ÙĨØ§Ø¦ÙĬ
ĠÙħ ØªÙĪ
ĠÙĬ ÙħØ«ÙĦ
ĠÙĨ Ø³ÙĬ
ĠÙĥ Ø«
ĠØ® Ø®
ĠØ§ÙĦØ³ ÙĬØ¯
ĠØ¶ Ø±Ø¨
ĠØªØ¬ ÙĬØ¨
Ùĥ Ø´
Ùģ ÙĥØ±
ĠØ¹ Ùģ
ĠÙħØ± Ø¶
Ġ M
ĠÙħÙĨ ÙĬÙĨ
Ùģ ÙĪÙĨ
ĠÙĪØ§ÙĦ Ø³ÙĦØ§Ùħ
Ġc om
ĠÙĨØªØ§Ø¹ Ùĥ
Ø¬ ÙĪ
ĠÙĤ Ø§ÙĦÙĬ
Ø±Ø¬ ÙħØ©
Ø±Øª Ø´
Ø± Ø§ÙĨØ§
Ø¨ Ø²
ĠÙħÙĨ Øª
ĠØ´ÙĬ Ø¦
ĠÙĨØ¨ ÙĬÙĨØ§
ĠØªØµÙĪ ÙĬØ±
Ø¨ ÙĪÙĦ
ĠÙĪ Ø²ÙĬØ¯
ĠÙĨ Ø¯Ø®ÙĦ
ĠØ§ÙĨØª Ùħ
i c
Ø± Ø§ØŃ
ĠÙĨ Ø¶
Ø² Ùħ
Ø§Øª Ø´
ĠØ´ ÙĪ
ĠØŃ ÙĥÙħ
ĠÙĦÙĬ ÙĪÙħ
Ø§Ø¶ ÙĬ
ĠÙĨØ³ ÙħØ¹
Ø£Ø³ Ùģ
ĠÙģ Ø±ÙĬ
ĠÙĦ Ø§ÙĦØ§
Ø±ÙĬ ÙĬÙĨ
ÙĩÙĩ ÙĩÙĩ
ĠÙĩØ§Ø¯ Ø§
ĠØ§ÙĦ ÙĬÙĩ
Ø£ Ø©
ÙĪØ±ÙĬ Ø§
ĠÙħÙĬ Ø²Ø§ÙĨ
ĠÙĬØ® ÙĦÙĬÙĥ
Ø¨ ÙĨ
ĠÙĪ Ø§Øµ
ĠÙĦ Ø³
ĠØ§ÙĦÙħ ÙĦÙĥ
Øº Ø±Ø§Ùħ
ĠØ§ÙĦØ¹ ÙĬÙĨ
ÙĨØª Ø§
ou t
Ġt r
ĠÙĪ Ø§Ø±
ĠÙĨ ØªÙĬ
Ø® Ø¯Ùħ
ÙĪÙĨ Ø³ÙĬ
ĠØ· Ø±ÙĬÙĤØ©
ĠØ§ÙĦØª ÙĦÙģ
ĠÙĪØª Ø¹
ĠÙĨØŃ Ø³
ØŃ Ø³ÙĨ
ĠÙģ Ø³ÙĬØŃ
ĠÙĨ ÙĨ
ĠÙħØ¹ Ø§ÙĩÙħ
ĠÙĬØ´ÙģÙĬ Ùĥ
ĠØ£Ø¬ ÙħØ¹ÙĬÙĨ
ĠØ§ÙĦ ÙĪÙĦ
ĠØ§ÙĦ Ø§Øº
ĠÙĬ ÙģØ±Ø¬
ĠØ¹ Ø§ÙĦ
ĠÙģÙĬ ÙĦÙħ
Ø² ÙĪÙħ
ĠØ¯ ÙĪÙĦØ©
Ø§Ø³ Ø¨
ĠØ· ÙĪÙĬ
Ġ D
ÙĬÙĨ Ùĥ
ĠÙħØ¹ Ø§
ĠÙĬØ¹ Ø·
ĠÙĨØ´ÙĪÙģ Ùĥ
ĠÙĪ Ø§Ø¯
ĠØ¨ Ø¶ØŃÙĥ
ĠØ§Ø «
ĠØµ Ø¯
ĠØ§ÙĦØ£ Ø±Ø¶
ĠØŃØ¨ Ø³
ĠØ§ÙĦÙĦ ØºØ©
Ø§Ø¸ Ø±
Ø£ Ùĥ
Ø« Ø©
ĠØ§ÙĦØ° ÙĬÙĨ
ĠØ¹ÙĬØ¯ ÙĥÙħ
lo g
ÙĪ ÙĪ
ÙĤ Ø³ÙĬ
Ø§Ø¨ Ùĩ
Ø¬ Ø§ÙĨ
Ø±ÙĪ Ø´
ĠØ§ÙĦØ´ Ø±
Ùĥ Øª
ĠØª ÙĤØ¯
ĠØ³ Ø¹ÙĬØ¯
ĠÙĪÙħ Øª
ĠÙĨØ¹ ÙħØ©
ĠØ¯ÙĪÙĦ Ø§Ø±
a h
Ø¯ ÙĤÙĬÙĪØ³
Ùģ ÙĤ
Ø§Ø¦ ÙĤ
Ø³Øª Ø§ÙĩÙĦ
Ġp l
Ø¹ Ø§Ø¯Ø©
Ø§Ùħ Ø§Øª
ØªÙĪ Ø¨Ø±
Ġc on
ĠÙĤØ³ÙĨØ· ÙĬÙĨØ©
u t
Ùĥ ÙĪØ±
Ø¨ ÙĤ
ĠÙĪ ÙħØ¹
ĠØ¹ Ø§Ø±Ùģ
Ø® Ø©
ĠØ¬ Ø§ÙĦ
ĠØ§ÙĨ Ø´
ĠØ§Ø± ØŃÙħ
Ùħ ÙĪÙĨ
Ø± ÙħØ¶Ø§ÙĨ
Ùĩ Ø§ÙĨ
ĠÙĥ Ø´
ĠÙħØª Ø¹
ĠÙĬØ´ Ø§ÙģÙĬÙĩ
ĠÙģØ§ÙĦ ÙĤ
Ġv o
ĠÙħØ±ÙĬ Ø¶
Ġ T
ĠØ¨ Ø§Ø±
ĠØ§Ø® ÙĪÙĥ
Ø¹Ø¨ Ø©
ĠØ¨Ø§ÙĦÙĨ Ø³Ø¨Ø©
ĠØ§ÙĦ ÙĪØ§ÙĤØ¹
Ùĩ Ø§Ø°
Øª ÙĦÙģ
ĠØª ÙĦ
Ø® ÙĦÙĬ
Ø§ÙĬ ÙĬÙĨ
Ø§Ø¨ Ø¹Ø©
ĠØ§ÙĦØ¯ Ø±
Ø·ÙĪØ± Ø©
ĠÙģÙĩÙħ Øª
i r
ĠØ¨ Ø§Øª
ĠØ¨ ÙĥÙħ
ĠÙĩØ° ÙĬÙĥ
ĠØ§ÙĦÙĨ Ø³
ĠØ§ØŃ Ø¯
ĠÙħØ§Ùĥ Ø´
i e
ĠØª Ø±Ø¬Ø¹
ĠÙĦ Ø§Øª
ĠØ® Ø±
Ø±ÙĬÙĤ ÙĬØ§
ĠÙħ Ø³ÙĦÙħ
Ø¹ Ø§Ø´ÙĪØ±
ĠØ¨ ÙĪÙĨ
ĠØ¨ ÙĬØª
Ø· Ùĩ
ĠØ® ÙģÙĬ
ĠØµ Ø¯ÙĤ
ĠØ¨Ø§ÙĦ Øª
ĠÙĪØ¹ ÙĨØ¯
ØµØ± Ø§ØŃØ©
ĠÙĩØ¯ Ø§Ùĥ
ĠØ§ÙĦØ¹ Øµ
ÙĪØ¬ Ùĩ
ĠØ£ÙĨ Ùĩ
Ø³Ùħ Ùī
ĠØµØ± Ø§ØŃØ©
ÙĦ ÙĦ
ĠÙĬ ÙĦØ¹Ø¨
Ø¬ Ùĩ
Ø² ÙĬÙĨ
ĠØ¬ Ø²Ø§ÙĬØ±
Ø±ÙĪ Ø¨
ĠÙĩØ° ÙĪ
Ø·ÙĬ Ø¹
ĠØ§Øµ ÙĦØ§
ĠÙģ Ø§ÙĬ
ĠØ± Ùħ
ĠØ¬ ÙĨØ©
ĠØ§ÙĦÙħØ³ ØªÙĪÙī
at ion
Ø¹ Ø§Ø±
ĠØª ÙħÙĨ
ĠÙĨ Ø²ÙĬØ¯
ĠÙĩ Ø¯ÙĬ
ĠØ£ ØªÙĪØ¨
ĠØªØ§Ø¹ ÙĥÙħ
ĠØ§ÙĬ Ùĩ
ĠØ§Ø³Ùħ ÙĩØ§
ĠÙħ ÙĦØ§
ĠÙħ ÙĪØª
ĠÙĥÙĪÙħ ÙĬØ¯ÙĬ
ĠØ£Ø¬ ÙħÙĦ
ĠÙĦ ÙĬØ§
Ø§ÙĬ Ùģ
Ø§ØŃ Ø¨
o o
Øª Ø³
ĠÙĪ Ø§ÙĤ
ĠÙħ Ø±Øª
ĠÙĬ ÙĪÙĦÙĬ
ĠØ§ÙĦÙģ Ø¯ÙĬÙĪ
ĠÙĦÙĦ Ø´
Ø¤ ÙħÙĨ
ĠÙħÙĪÙĦ Ø§ÙĬ
ÙĬ ÙĬÙĨ
Ø¯ Ø§Ø¹
ĠØ® ÙħØ³
Ø§Ùĩ Ø©
ĠØ§ÙĦØµØŃ Ùĩ
ĠØ§ÙĦÙĪ Ø·ÙĨ
Ġt u
c t
ĠÙģ ÙĨ
ĠØ§ÙĦØŃ Ùĥ
ĠØ¯ÙĪÙĨ Ùĥ
Ø³Øª Ø±
ĠØ§ÙĦØª ÙħØ«ÙĬÙĦ
Ġc h
ĠÙĨØªÙģØ±Ø¬ ÙĪ
ĠØ§ÙĦØŃØ± Ø§Ø´ÙĬ
Ùĩ Ø´Ø§Ùħ
Ùģ Ø§Ø¯
ĠÙħÙĨ ÙĥÙħ
ĠÙĤ ÙĦÙĬ
ĠØ±ÙħØ¶Ø§ÙĨ ÙĥÙħ
ĠÙĤØ§ÙĦ Øª
Ø§Ø¶ Ø¹
ĠØ¹Ø±Ùģ Øª
Ùħ Ø§Øª
ĠÙĨ Ø²ÙĪØ±
ĠÙĪØ§ÙĦ Ø£
ÙĨÙĬ Ùĩ
ĠÙĪÙĬ Ø¬Ø¹
ĠØ§ Ø§
ĠØ§ ÙĪØ±
ÙĤ Ø§Ø¯Ø©
ĠØ§Ø ²
ĠØ¯ Ø±Ùĥ
ÙĨØª Ø¬
ĠØªØŃ ÙĪØ³
ĠÙĦÙĦ Ø¬Ø²Ø§Ø¦Ø±
ØŃ ØªÙī
ĠØªØ§Ø¹ ÙĩÙħ
ĠØ§ÙĦÙĨ Øµ
ĠØµØŃ ÙĬØŃ
ĠØ§ÙĦØ§ÙĪ ÙĦÙī
Ġ il
Ø± Ø§Ø³Øª
ĠØ§ÙĦ Ø§Ùģ
Ø§Ùħ Ø¬
Ġd on
ĠÙĨÙģØ³ Ùĥ
ĠÙĩØ§ÙĬ ÙĦØ©
ĠØ±ØŃ ÙĦØ©
Ùĩ ÙĦØ§
ĠÙģ ÙĤ
Ø´ Ø©
ĠØ§ÙĦÙħ ÙĥØ§ÙĨ
ĠÙĦÙĬ Ùĩ
i en
ÙĬ Ø²
ØŃ Ø³
ĠØ¹ Ø´Ø±
ĠØ¯ ÙĬÙĥ
Ø° ÙĥØ±
Ø§Ùģ Ø¸
ĠØ§ÙĦØŃ Ø§ÙĦ
ÙĬÙĨØ§Ø±ÙĬ ÙĪ
ĠÙĪ Ø§Øª
ĠÙĪ Øº
ĠÙģ Ø§ÙĩÙħ
ĠÙĥ ÙĪ
ĠÙħØ¹ ÙĨÙī
ØªÙĪ ÙħØ§
ĠØ±Ø§Ùĥ ÙĬ
ĠÙĬØ¬ Ø¹
ĠØ¨Ø§Ø¨ Ø§
ĠØ¨ Ø®
ĠÙĦ Ø§Ùħ
ĠÙĤ ÙĦÙĪØ¨
ĠØ¯ Ø®
ĠØ§ÙĦØ¹ ÙĤ
ÙĪÙĬ Ùĩ
ĠÙĬØ· ÙĪÙĦ
ĠØ£Ùĥ Ø¨Ø±
ĠÙģØ¹ ÙĦØ§
ĠÙģ Ø§ÙħÙĬ
Ú¨ Ø±ÙĪØª
ĠÙħØ³ ØªÙĪÙī
ĠÙĨ Ø±
Øµ Ø¯
ĠÙĦÙĬ Ø³Øª
Ø±Ø¬ Ø©
ĠØ´Ø§Ø¡ Ø§ÙĦÙĦÙĩ
ÙħÙĪ Ùĩ
ĠØ§ÙĦ Ø¢ÙĨ
ĠÙħ ØµØ±
ÙĪØ±ÙĬ Ø©
ĠØ§ÙĬ Ø§
ĠØ±ÙĪØŃ ÙĪ
ĠØ§Ø¯ Ø¹
ĠÙĬÙĩ Ø¯ÙĬÙĥ
o s
ĠØ§ÙĦ Ø®ÙĦ
Ùĩ ÙĪØ±
Ø¨ Ø§ÙĨ
ĠÙħ Ø§Ø¨
ĠÙħ Ø§Ø°Ø§
ĠØ§ÙĦØ¯ ÙĪÙĦ
ĠØ§ÙĦÙħØ´ ÙĥÙĦ
ĠØ§ÙĦ Ø±ÙĬ
ĠÙĪ ÙĦÙħ
Ø´ ØŃØ§ÙĦ
Ø§Ø¬ ÙħÙĦ
ĠÙĬÙģ ØªØŃ
ĠØ§ÙĦØ±Ø¬ Ø§ÙĦ
ĠØª ÙĬÙĨØ§
ĠÙĦ ÙĪÙĦ
Ø§Øª ÙĨØ§
ĠØŃ ØªØ§
ĠØ§ÙĦÙħ Ø®
ĠØ¥ ÙĬ
ĠÙĥÙĦ Ø´ÙĬ
ĠØ§ÙĦØª Ø§Ø±ÙĬØ®
ĠÙĤÙĨ Ø¯ÙĬÙĦ
ĠØ§ÙĦ Ø§Ø´
ĠØ¨ Ø¯Ø§
ĠØ¹ ÙĨØ§
Ø§Ø¯ Ùĩ
ĠØ³ ÙĨÙĪØ§Øª
ĠØµ ÙĪØ±
ĠÙħØ¹ ÙĨØ¯
ĠØ§ÙĦÙģ ÙĨØ§ÙĨ
ĠÙĪØŃ Ø¯Ùĥ
ĠÙĤØ§ÙĦ Ùĥ
ĠØªØª ÙģØ±Ø¬
ĠØ§ÙĦØ±Ø³ ÙĪÙĦ
ÙĤØ³ ÙĬÙĥ
ĠÙĬ Ø£
ĠØ³ Ø±
ĠØ§ÙĦØ¬ ÙĦÙģØ©
ĠÙĤÙĨ Ø§ØªÙĬ
ĠØ®Ø±Ø¬ Øª
ĠÙĥ Ø±Ùĩ
ĠÙĥ ÙĪØ±ÙĪÙĨØ§
ĠØ´ Ø±Ùģ
ĠØ® ØªÙĬ
ĠØ¥ Ø®
ĠØ² ÙħØ§ÙĨ
ĠØªØŃ ÙĥÙĬ
Ø¨ ÙĪÙĨ
ĠÙħ ÙĪØ¬
ĠØ¹ Ø§Ø´
ĠØ± Ø§Ø¬
ĠØ£ ÙĦÙģ
ØªÙĬ Ùĥ
ĠØ§ÙĦØ® Ø·
ĠØªØ¨ ÙĤÙī
ĠØªØ³Øª ØŃÙĤ
ĠÙħØ§Ùĥ Ø§ÙĨ
ĠØ¬Ùħ Ø§Ø¹Ø©
ĠÙħÙĨ ÙĬ
Ø¶ Ø§Ø¡
ĠØ§ÙĦÙħ ÙĦÙĬÙĪÙĨ
ĠØ§ÙĦÙħ ÙĪØ±Ø§ÙĦ
ĠÙĥØ±ÙĬ ÙħÙĪ
Ø¹ ÙĨØ§
ĠÙĪØ§ÙĦ Ø´
ĠØº Ø§ÙĦØ·
ĠÙĦÙĥ ÙĬ
ĠØ§ÙĦÙĪ Ø§ØŃØ¯
ĠÙĦØ§ÙĨ ÙĪ
ĠÙĬÙĩ Ø¯ÙĬ
ĠØ¯Ø§Ø® ÙĦ
ĠØ§ÙĦÙĨ ÙĩØ§Ø±
ĠØ¯ÙĬ Ø§ÙĦ
ĠØ®Ø§ÙĪ Ø©
ĠØ§ÙĦØ´ÙĬ Ø®
ĠØ±Ø¬ Ø§ÙĦ
ĠÙĦ Ø§Ùģ
ĠØ± Ø¬ÙĦ
ĠØ§ÙĦÙħ ÙĤ
ĠØµ Ø¨Ø§ØŃ
ĠØ¢ ÙħÙĬÙĨ
ĠÙĪÙĬØ± ØŃÙħ
i f
ĠÙĬ ÙĨØª
ĠØª Ø§ÙĥÙĦ
ĠØ¹ Ø²
ĠÙĤ Ø·
ĠÙħØ« Ø§ÙĦ
ĠØ¯Ø§ÙĬ ÙħØ§
ĠØ¹ Ø±Ø¨ÙĬØ©
ĠÙĥ ØªØ±
ĠØ§ÙĦÙĥ ÙĦØ§Ùħ
ĠÙĬÙĤÙĪÙĦ Ùĥ
ĠØ¹Ùħ Ø±Ùĥ
Ġun e
Ùħ Ø§Ø±
Øª Øµ
Ø¨ Ø§Ø¯
Ø¯ ÙĨØ§
ĠÙĬØ¹ Ø¬Ø¨
Ø§ Ø§
Ùħ Ø³ÙĦØ³ÙĦ
ĠÙħ ÙĬÙħ
ĠØ§ÙĦØª Ø£ÙĦÙĤ
Ø³Ø¨ Ùĩ
ĠÙħ ÙĪÙģÙĤ
ĠØ± Ø²ÙĤ
Ø£ ÙĦ
ĠØ² ÙħÙĨ
ĠÙħØ´ Ø±ÙĪØ¹
Ø§Ø· Ø±
ĠØ¨Ø§Øº ÙĬ
ÙĪ ØªÙĪØ¨
Ùĩ Ø¨
Ùĩ ÙĦÙĥ
Øª ÙĬÙĨ
Ùģ ÙĪØ±
ĠÙĦÙĬ ÙĩØ§
ØŃÙħØ¯ Ùĩ
ĠÙħ Ø§ÙĨÙĬØ´
ĠÙĪØ§ÙĦ ØŃÙħØ¯
ĠÙĦÙĬ ÙĥÙħ
ÙĨÙĬ Øª
ÙģØ¸ Ùĥ
t a
Ø§ÙĨ Ø³
ĠÙĥ ÙĦÙĬ
Ø· ÙĪÙĦ
Ø§Øª ÙĩÙħ
ĠØ® Ø§Ø±Ø¬
Ø§Ø® Ø±
ĠØ§ÙĪ ÙĥÙĬ
ĠÙĦÙĩ Ø°Ø§
ĠØªÙģ ÙĥØ±
ï º
Ùģ Ø§Ø¡
ĠÙĦ Ø¨ÙĦ
ĠØ¹ ÙĬØ´
ÙĬØ± ÙĪ
Ø· Ø¨
ĠØ¯ÙĬØ± ÙĦÙĨØ§
ĠØ¶ØŃÙĥ Øª
ĠÙĦÙĨ Ø§Ø³
ĠÙĪÙĬØ´ ÙģÙĬ
ĠØªØ§ÙĪ Ø¹Ùĥ
ĠØ§ÙĦ ÙĦÙĤ
ĠÙħ ÙĬØª
ĠÙĦ Ø¯ÙĬ
ÙĩÙħ Ø§
ĠØ§ÙĦØ® Ø¯Ùħ
ØªØ´ Ùģ
Ġa l
ĠÙĤÙĦØ¨ Ùĥ
ĠÙĥÙĦØ§Ùħ Ùĥ
g e
ĠØ± Ø§Ø¨
Ø§Ø± Ø¹
ĠØ¬ Ø²ÙĬ
Ø§ØŃ Ùĩ
ĠØµ ØŃØ¨
ĠØ¹ÙĦØ§Ø¨ Ø§ÙĦÙĬ
Ø¹ Ø§Ùħ
Ø¹ ÙħØ§ÙĦ
ĠØ¨ Ø§ÙĨ
ĠØª ÙĤØ¯Ùħ
ĠØ§ÙĦÙħ Ùĩ
ĠØµØŃ Ø§Ø¨
ĠÙĪØ¨ Ø±Ùĥ
Ġe x
ĠØµÙĪ Ø§ÙĦØŃ
ĠØ¹Ø³ ÙĦÙĬ
ÙĨ Øµ
ĠÙĬ ØŃÙħ
Ø¬ ÙĬØ¨
ĠÙĥ ÙĦÙĩØ§
Ø³ÙĬ ÙĪÙĨ
ĠÙĪØŃ ÙĨØ§
ĠÙĬÙĤÙĪÙĦ ÙĦÙĥ
ĠØ®Ø· Ø±Ø©
ĠØ§ÙĦØ±ØŃÙħ ÙĨ
ĠØ®Ø³ Ø§Ø±Ø©
ĠÙĬØ¹Ø§ÙĪÙĨ Ùĥ
m e
ÙĨ Ø¨
ĠØ¨ ÙĪØ¯ÙĥØ§Ø³Øª
ĠÙħÙĨ Ø·ÙĤØ©
ĠØº Ø§Ø¯ÙĬ
ĠÙĨØª ÙħÙĨ
ĠØ²Ø¹Ùģ Ø§ÙĨ
t e
ĠÙĬ Ø§ÙĪ
ĠÙĦ ØŃÙħ
Ø§Ø³ Ø·
ĠÙĬØ¹ Ø§ÙĪØ¯
ĠØ§Ø¬ ÙħØ¹ÙĬÙĨ
ĠØ´Ø§Ø¨ ÙĬÙĨ
ĠØŃÙĪ Ø§ÙĬØ¬
Ġ č
ĠØª Ø¯ÙĬ
Ø§Ø± ØŃ
ĠØ§ØŃ Ø¨Ùĥ
ĠØ§ÙĦÙĦÙĬ ÙĦ
Ġp r
ĠÙĤØª ÙĦØªÙĨÙĬ
ĠØµØ¯ÙĬ ÙĤÙĬ
Ø§ÙĦ Ø§Øª
ĠØ§ÙĦØª Ùģ
Ø§Ø° ÙĨ
ĠØªÙħ Ø´ÙĬ
ĠØ§Øµ Ø¨ØŃ
ĠÙĪØµ ÙĦØª
Ø¨ØµØŃ ØªÙĥ
ĠØ§ÙĦÙħØ³ÙĦØ³ÙĦ Ø§Øª
Ø§ÙĦ Ø¬
Ùħ ÙĦÙĥ
ĠØ¨ ÙħØ§
ĠÙĨ Ø§Ø¬ØŃ
Ø§Ùħ ÙĬÙĨ
ĠÙĪØ§ÙĦ Ùģ
Ø®ÙĦ Ø·
ĠØ¯Ø§Ø± ÙĪ
ĠÙĨØµ ÙĬØŃØ©
ØŃ Ø§Ø¨
ĠÙģÙĬ Ø§
ĠØ± Ø¢
Ø² ÙĨ
ĠØ§ÙĦØ¬ Ùħ
ĠÙħØ¹ Ùĩ
Ø§ÙĪ ÙĬØ©
ÙĬÙĥ Ø§ÙĨ
Ø¨Ø± Ø©
ĠÙĪØŃ Ø¯ÙĪ
ĠÙħØ± Ø§Ø¯
ÙĥÙĨ Ùĩ
Ø§ÙĤ ÙĦ
ĠØª ÙħØ±
ĠÙĦ Ø§Ø´
ĠØ¹ Ø¨ÙĦØ©
Ø§Ùħ Ùĥ
ĠØº Ø±ÙĬØ¨
Ø±Ùģ Ø©
ĠÙĩØ§Ø¯ ÙĪ
Ø¯ Ø§Ø¯
ĠÙĬ Ø¶
Ø§Ø± Øª
ĠØ³ Ø¤Ø§ÙĦ
ĠÙħØ¹ ÙĩÙħ
ĠÙĬØ¹ Ø¬Ø¨ÙĨÙĬ
ĠØ§ÙĦÙĨ Ø§Ø±
ĠØªÙĤ ÙĪÙĦÙĬ
Ø±Ø¯ Ø§ÙĬØ©
ĠÙĬØ§Ø± Ø¨ÙĬ
ĠÙħ Ø¶
ĠÙĦ Øµ
ĠÙĤ Ø¯Ø±
ĠØ¨Ø§ÙĦ Ùģ
ÙĪÙĬ Ø³
ĠØ§ÙĦØ¯ ÙĪÙĦØ©
ĠØ§ÙĦÙħØ¬ ØªÙħØ¹
ĠØª Ø®ÙĦØµ
Ø´ ÙĦ
ĠÙĨ ÙĪÙĦÙĬ
Ø±ÙĬ Ùĩ
ÙĩØ¯ Ø§Ø¡
ĠÙĦÙħ Ø§Ø°Ø§
ÙħØŃ ØªÙĪÙī
Ø¹ ÙĨØ¯ÙĬ
ĠÙĬ Ø§Ø¬
ĠØª ÙĨØª
Ø§ÙĬ Ø³
ÙģÙĬ Ùĩ
ĠÙĨ ÙĤØ¯
ĠØ³ Ø·ÙĬÙģ
Ø§Ø¦ ØŃ
ĠØ§ÙĦÙĥ ÙĦÙħØ©
ĠÙĬØ´ Ø§ÙģÙĬÙĥ
ĠØ¯ÙĬ Ø¬Ø§
ĠØ£Ø® Ø±Ùī
Ùģ Ùī
ĠÙĦ Ø§ØŃ
ĠÙĤ ÙĦÙĬÙĦ
ÙĦÙĪ ÙĥØ§ÙĨ
Ø±ÙĪ Ø¬
ĠØ§ÙĦØŃ Ø¨
ĠØ§ ÙĬÙĨ
ĠØ¹Ø¨ Ø§Ø¯
ĠÙĦ ØºØ©
ĠÙĩ Ø¯Ø±
ĠÙĤ ÙĪÙĦÙĬ
ĠØ£ Ø±ÙĪØ¹
ĠØ§ÙĨ ÙĩØ§
Ø§Ø³ Ø±
ĠØ§ÙĦØŃ ÙĦÙĤØ§Øª
ĠØ¨Ø§Ùĥ Ø³ØªØ§ÙĨ
Ġ o
ĠÙģ ÙĦØ§
Ø§Ùħ ØŃ
ĠØ§ÙĦÙħ Ø·
ĠØµ Ø§ÙģÙĬ
ĠØ´Ùģ ØªÙĪ
i re
Ġ S
Ø¯ÙĬ ÙĪØ§
ĠØ§ÙĦÙħ Ø§ÙĦ
ĠØ§ÙĦØ¬ Ø¯ÙĬØ¯
ĠÙĬØŃ ÙĥÙĬ
ĠØ¨Øº ÙĬØª
Ùģ ÙĬØ±
ĠØ¨ ØªÙĪÙģÙĬÙĤ
ĠØ³ Ø¨ÙĬ
ĠØ² ÙĬÙĨ
ĠÙĨÙģ Ø³ÙĬ
Ø¯ ÙĪØ¯
ĠÙĦ ÙħÙĨ
ĠØ§ÙĦØ³ Ø¹ÙĪ
Ø§Ø±Ø¨ Ø©
ĠÙĪØ± Ø§ÙĨÙĬ
ĠØ¬ÙĬ Ø¬ÙĦ
e t
ĠØ§ÙĦ ÙĦÙĪ
ĠØ¨ Ø³Ø¨Ø¨
ÙĪÙĦ ÙĦÙĩ
ĠØ§ÙĦØ¬ Ø§Ùħ
ÙĤÙĬ ÙĤÙĬ
ĠØ§ÙĦØ¨ ØŃØ±
ÙĪÙĦÙĬ ÙĨ
ra v
ĠØ²ÙĬ Ø§ÙĨ
Øª Ø¨Ø±
ÙĬØ± Ø§ÙĨ
Ø§Ùħ ÙĨ
ĠØ® ÙĦÙĪ
ĠØ¥ Ø³Ùħ
ĠØªØ¹ ÙĦÙĬ
ÙĤÙĬ ÙĦ
ĠØ¨ÙĬ ÙĩÙħ
ĠÙĨØ® Ø±Ø¬
Ġ _
ØŃ ÙĪ
ĠØª Ø¨Ø¯
ĠØ§ÙĦÙĥ ÙĪØ±ÙĪÙĨØ§
ĠÙĬØ¬ ÙĪØ²
ĠÙĨØ¯ÙĬØ± ÙĪ
ĠÙĥØ¨ÙĬØ± Ùĩ
ĠØªØ±Ùĥ ÙĬØ§
ĠÙĪ Ø¯ÙĬ
Ø¯ Ø¯
ĠØª ÙĦØŃÙĤ
ĠÙĨ Ùħ
ĠÙĨ Ø§ÙĤ
Ø£ ÙĨØª
ØªÙĪ ØŃØ´
ĠÙĦÙĦ Ø£Ø³Ùģ
ĠØ§ÙĦÙĥ Ø¨ÙĬØ±
ĠÙĬØ±ØŃÙħ ÙĩØ§
ĠØ¨Ø§ÙĬÙĨ Ø©
a y
ÙĪ Ø¡
Ùĥ Ø±ÙĬ
ĠÙĨ Ø¨ÙĬÙĦ
ĠØ§ÙĦÙħ ÙħØ«ÙĦ
ĠÙħØ¹ Ø³ÙĥØ±
ĠÙĨØª Ø¹
ĠØµÙĦ Ø§Ø©
Ø¹ Ø¬Ø¨ÙĨÙĬ
ĠÙĬ Ø±Ø¬Ø¹
ĠÙĬ ÙģØ±ØŃ
ĠØ± Ùĥ
Ø§Ø± ÙĬØ©
Ø® Ø§Øµ
ĠÙĪØ§ÙĦ Ø¯ÙĬÙĥ
ĠØ§ÙĦØŃ Ø³
ĠØ² Ø±Øª
ĠØ±ÙĪ ÙĪØ¹Ø©
ĠÙĪÙĦ Ø§Øª
ĠØ§ÙĬ Ø¶Ø§
ĠØ¯ÙĬØ± ÙĨØ§
ĠØ£ØŃ Ø¯
ĠÙħØ¨ Ø±ÙĪÙĥ
ĠØ· ÙĦØ¨
ĠÙĦÙĦ Ø§Ø³Ùģ
ĠÙĬØ³ ÙħØ¹
ĠÙĬØ³Øª Ø§ÙĩÙĦ
ÙĪØ§ÙĨ ÙĨØ§
ĠÙĪ Ø§Ø®
ĠÙĬ ÙĪØªÙĬÙĪØ¨
ĠØª ØªØŃ
Ø§ÙĨ Ø¨
ĠØ§ÙĦÙĥ Ø§Ùħ
ĠØ±Ø§ØŃ Øª
ĠÙĬØ¬ Ø¹ÙĦ
ĠÙĬÙĤÙĪÙĦ ÙĪ
ĠÙħØº Ø§Ùħ
Ø¨Ø§ÙĦ ØªÙĪÙģÙĬÙĤ
ĠØ¬ÙĨ Ø§ØªÙĩ
Øµ ÙĪØ±
ĠØŃ ØµØ©
ÙĪÙĨ ØªØ§Ø±
Ø±Ùĥ Ø©
ĠØ§Ø¨ ÙĪ
ĠÙģØ± ØŃØª
ĠØ´ÙĬ Ø®
ĠØµØº ÙĬØ±Ø©
Ø± Ø§Ø±
Ø´ ÙĤ
Ø® Ø±Ø©
ĠÙħÙĨ Ø°
ĠØŃ Ø§ÙĦØ©
ĠÙĤ Ø¯Ùħ
ĠÙĪØ§ÙĦ ØŃ
ØµØŃ Ø§
ĠØ§ÙĦØ± Ø§Ø¦Ø¹
ĠÙĦÙĩ ÙĨØ§
ĠÙĬØ¨ ÙĤÙī
ĠØ£ÙĬ Ø¶Ø§
ĠÙģ Ø¹ÙĦ
ĠØ´ Ø§
ĠØ§ÙĦÙħ ÙħØ«ÙĦÙĬÙĨ
Ø§Ùĥ Øª
ĠØµ Ùģ
ÙĦÙĪ Ø´
ĠÙĥÙĬ ÙģÙĬ
ĠÙħØ´ Ø§ÙĩØ¯Ø©
ĠÙĪØŃ Ø¯ÙĬ
ĠÙĨØ³ ÙĤØ³ÙĬÙĥ
ĠØ§ÙĦØ² ÙĪ
ĠÙĪÙĥ Ø§ÙĬÙĨ
ĠØ§ÙĦØ¬ÙħÙĬ ÙĦØ©
Ġdon c
Ø± Ø¹
ĠÙĬ ÙĦ
ĠØ¹ Ø±Ø¨
Ø§Ø± ÙĤ
ĠÙĪØ§ÙĦ Ø³
Ø³Øª ØºØ±Ø§Ùħ
ĠÙĪÙĬ ÙĪØ³Ø¹
ØªØ± Ø§Ùħ
ĠÙĤØ§ÙĦ ÙĩØ§
ĠÙħØ¬ ÙĩÙĪØ¯
ĠØ¨Ø¬ Ø§ÙĬØ©
ĠØªÙħÙĨ Ø±Ø§Ø³Øª
ĠÙĥ ÙĪØ±
Ø¶ ØŃ
ĠØ§ÙĦØ¹ Ùħ
ĠØ· Ø§ØŃ
ĠØ§Ø¹ ÙĦÙħ
Ø¹Ø±Ùģ Ø´
ÙĬØ§Ø® ÙĪÙĬØ§
Øª ÙĤ
Ø¨ ÙĦÙĬ
ĠØ¨ ÙĪÙĥ
ĠÙĨ ÙģØ±ØŃ
ĠØ§ÙĦÙħ ÙĦ
ÙĬØ§ Ùĩ
Ø±ÙĪ ÙĨØ§
ÙĨØª Ø§Ø±
ĠØ§ÙĦØ£ ÙĪÙĦ
ĠÙģØ± ØŃ
ĠØ¢ ÙĦ
ĠÙĦØŃ ÙĤ
Ġpl us
n e
ÙĪ Øµ
ĠØ§ÙĦ Ø±ÙĪ
ĠÙĬ Ø±Ùģ
an t
Ġf r
ĠÙĪÙģ ÙĤÙĥ
ĠÙħØ§Ø¹ ÙĨØ¯
ĠØ§ÙĦØ¨ÙĬ Øª
ÙĬ Ø§Ø±
ĠØ£ Ø¯
Ø§Ø¹ Ø±
Ø§Ø¦ Ø¹Ø©
ĠØ° ÙĥØ±
ĠØ§ÙĪÙĦ Ø§Ø¯
Ø§Ø³ÙĬ ÙĪÙĨ
ĠØ³ ÙĪØ±
ĠÙħØ¹ ÙĨØ§
ĠÙĨØª ÙĦØ§ÙĤ
ÙħÙĬ ÙĦ
Ø§Ø² Ø©
ĠØµØŃ Ø±Ø§Ø¡
ĠÙĨØŃØ¨ ÙĥÙħ
ĠÙĬØ¯ ÙĪÙħ
ĠÙħØº Ø±Ø¨ÙĬ
ĠØ¨Ø¥ Ø°ÙĨ
ĠØ«ÙĤ Ø§ÙģØ©
ĠÙħ ÙģÙĬ
ĠÙħ ÙģÙĩÙħ
ĠÙģ ØªØŃ
ĠØ§ÙĦÙħ ÙĪØª
Ø§Ø¬ Ø¨
ĠØ§ÙĦØµ Ø§ÙĦØŃ
Ø±ÙĬØ¨ Ø§
ĠÙĬØ§Ø® ÙĬ
ÙĪ Ø§Ø¡
ĠØ§ÙĦÙħ Ø±Ø©
ÙĬØ§ ÙĪ
ÙĦÙĪ Ùĩ
ÙĦÙħ Ø§Øª
ĠØ§ÙĦØª Ø³
ĠØªÙĨ Ø¬ØŃ
ĠÙĪ ÙĬØ¯
ĠÙħÙĨ Ø§Ø²
Ø§ÙĬ Øµ
Ø§Ùĩ ÙĬØ©
ÙĦÙĪ Ùĥ
ĠÙĬØŃ ÙĪØ³
ÙĨØ¯ ÙĤ
ĠÙĤÙĨ ÙĪØ§Øª
ĠÙĪ ØªÙĪ
ĠÙĨ ÙĥØ±Ùĩ
Ø¯ÙĬ Ø«
ĠÙĨØª Ø¹ÙĦÙħ
ĠØ§ÙĦØ¯ Ø¹
ĠØ¨ÙĦØ§Ø¯ ÙĥÙħ
ĠÙĩØ§Ø¯ ÙĬÙĥ
Ġp ro
ÙĬÙģ Ø©
ĠØ§ÙĦØ¥ÙĨ Ø³Ø§ÙĨ
ĠØ§ÙĦØ®Ø¯Ùħ Ùĩ
ØŃ ÙĬÙĦ
ĠØª ÙĦÙģ
ĠØ¹ Ø§ÙĪÙĨ
ĠØ± Ø¯
ĠÙĩ Ø§ÙĩØ§
ĠØŃ ÙĦÙĤØ§Øª
ĠØ³ Ùĩ
ĠØ§ÙĦØ¹ ÙĦÙĬ
ĠØªØ¹ Ø·
ĠØ¨ÙĨ Ø§Øª
ĠÙĬÙĨ Ø¬ØŃ
ĠØ§ÙĦØŃØ§Ø¬ Ùĩ
ĠÙģ Ø¶ÙĦ
Ø§Ùģ ÙĤ
ĠØ§ÙĦØ¨ ÙĪØ¯ÙĥØ§Ø³Øª
ĠØ±ÙĪ Ø§ØŃ
ĠØ®ÙĦ Ø§ÙĦ
ĠØ±ØŃÙħ Ø©
Ø¯ ÙĨ
ĠØ§ÙĦÙħ Ø§Ø¡
ĠØ§ÙĦØ³ ÙģØ±
ĠÙĬØ¨ Ø¯Ø§
ĠÙĨØ¨ Ø¯Ø§
ĠØ¨Ø§Ø¨ Ø§Ùĥ
ĠÙĪØ¨Ø±Ùĥ Ø§ØªÙĩ
Ġ in
ĠÙĪ Ø±ØŃÙħØ©
ÙĤ Ø§ÙģØ©
Ø³ ÙĪÙĨ
ĠØ¨ Ø§Ø°ÙĨ
Ø´ ÙĪ
ĠØ¯ ÙĨÙĬØ§
Øº Ø·
ĠØµ Ø§ÙĬ
ÙĨÙĬ Ùĥ
ĠØ§ÙĦØ¹ Ø§Ø¯Ø©
ØªÙĪ ÙĩØ§
ĠØ§ÙĦØŃ ÙĤÙĬÙĤØ©
ĠÙĦÙĦ Ø£
ÙĬØª Ø´
ĠØ¯Ø± ÙĨØ§
ĠÙĤØ§Ø¯ Ø±
ĠÙĪ Ø§Ø¨
ĠÙĬ ØªÙĥÙĦÙħ
ĠÙģ Ø§Ø´
ĠÙĦ ÙĤÙĬ
ĠÙĨØª ÙħÙĨØ§
ĠÙĩÙĥ Ø¯Ø§
a u
ĠØ§ÙĦ ÙĬØ¯
Ø´ Ùħ
ĠØŃ Ø§ÙĪÙĦ
ĠØ£ ÙĤ
ĠØ§ÙĦÙĨ Ø¸
ÙħÙĪ ØŃ
ĠØ§ÙĦØ· ÙĬØ¨
ĠÙħØ® Ø±Ø¬
ĠÙĬÙĤØ¯ Ø±Ùĥ
ĠÙħÙĦØ§ ÙĬÙĨ
ĠØ¬Ø²ÙĬ ÙĦØ§
Øª ÙĨ
ĠÙĪ Ø§Ùĥ
ĠØ± Ø§Ø³ÙĬ
Øµ Ø¯ÙĤ
ĠØŃ ÙĤÙĬÙĤØ©
ĠØ§ÙĦÙħ Ø³ÙĦÙħ
ĠØ¥ ÙĦÙĬ
Ø¹Ø¯ Ùĥ
ĠÙħØ« ÙĪØ§Ùĩ
ĠÙĬØ³ ÙĩÙĦ
ĠÙĬÙħ Ø´ÙĬ
ĠÙĩ ÙĪØ§
ĠØ´ Ø±ÙĬ
ĠØº Ø±Ø¯Ø§ÙĬØ©
ĠØ§Ùĥ Ø³
ĠÙĦÙĩ Ø¬
ĠØŃÙĤ Ø§
Ġma is
Ø³ Ùĩ
ĠÙĦ Ø§Ø®
Ø® Ø°
ĠØ¹ÙĨ Ùĩ
ÙģÙĬ Ùĥ
ÙĥØ± Ùħ
ĠØ§ÙĦÙĤ Ø¨
ĠØ§ÙĦØ¨ Ø±ÙĪ
ĠØ§ÙĦØ³ Ø±
ĠØ±ÙĬ Ø§Ø¶
Ø¹ÙĨØ¯ Ùĥ
ĠØ¨ ÙĬÙĨØ§
ĠØª ÙĪÙĥ
ĠØªØ§Ø¹ ÙĩØ§
ĠÙĪÙĬ ÙĪÙģÙĤÙĥ
ĠØ¨ØµØŃ ØªÙĥÙħ
ĠÙĪÙĨ Ø¹
ĠÙĪØ¨ Ø§ÙĦ
ĠÙĨØ´ Ø±ÙĬ
ĠØ³Ø¨ Ø¨
Ġ on
ĠØª Ø²
ĠØª Ø«
ÙĬØ± Ùĩ
ĠØ§ÙĦÙĦÙĩ Ø¬Ø©
Ø§ØŃ ÙĬ
ÙĨÙĬ Ø´
ØµØŃ Ø©
ÙĦÙĤ Ùĩ
ĠÙĪÙĬ ØºÙģØ±
ĠØ§ÙĦØ£ Ø³
ĠØ§ÙĦØ³ Ùħ
Ø§ÙĦØŃ ÙĦÙĤØ©
Ø®Ø± ÙĬÙĨ
ĠØ§ÙĦØ² ÙĬÙĨ
ĠØ¨Ùĩ Ø°Ø§
ĠØ®Ø¯Ùħ Ùĩ
ĠÙĨØŃÙĥ ÙĬ
ĠÙħØ§Ùģ ÙĩÙħ
ĠØ¨ Ø³Ùħ
Ø· Ø§Ø¡
Ø³Ùħ ØŃ
Ġv log
ĠØ§ÙĦØ§Ø® Ø±
ĠÙĥÙħ ÙĦÙĪ
ĠØ¬ÙħÙĬØ¹ Ø§
ĠÙģÙĦÙĪ Ú¨
ĠØ§ÙĦÙĩØ¯ Ø±Ø©
ĠÙħ ÙĪØ³
Ùģ Ø±ÙĬ
ĠÙĬ ÙģØ±
Ø® Ø³
ĠØ§ÙĦÙħ ÙĬ
ĠØ§ÙĦÙħ Ø§Ùĥ
ÙĬØ´ Ø©
ĠØ¨ÙĨ Ø§Ø¯Ùħ
ĠÙĬØ§Ø® ÙĪ
ÙĬ Ø§Ø¡
Ø§ÙĦ Ø¬Ø²Ø§Ø¦Ø±
ĠÙĪ Ø¯ÙĬØ±
Ø¹ ÙĪÙĨ
Ø° Ø±
ĠØ³ ÙĥØ§ÙĨ
Ø§Ø¨ Ø§Øª
ĠØ§ÙĦØ¹ Ø§Ø¦ÙĦØ©
Ġt o
an s
ĠÙĨØ¨ ØºÙĬ
ĠØª ØªÙĥÙĦÙħ
ĠÙĥ Ø°ÙĦÙĥ
ĠØ¬ Ø§Ø¡
ĠÙĦÙĦ ÙĨØ§Ø³
ÙħÙĪ ÙĩØ§
ĠØ§ÙĦØ® Ø¯ÙħØ©
ĠØ±ÙħØ¶Ø§ÙĨ Ùĥ
ĠÙħØ± Ùĩ
ÙĪØª ÙĨØ§
Ġm o
ĠØªØµ ÙĪØ±
ĠØ±Ø§Ø³ Ùĥ
ĠØ§ÙĦØ¨ÙĦØ¯ Ø§ÙĨ
ĠØ§ÙĦØŃØ¨ÙĬØ¨ Ø©
ÙĦ Ø§Ø²Ùħ
Øª Ø³ØªØ§ÙĩÙĦ
ĠÙĬ ÙĤØªÙĦ
ĠØª Ø²ÙĪØ¬
Ø¬ Ø§Ùħ
ÙĪÙĨ Ø§ÙĦ
ĠÙĤ ÙĬÙħ
Ø³Øª Ø§
ÙĦÙħ ÙĪ
ĠØ¥ Ø³Øª
ĠØ· Ø§ÙĤØ©
Ø§Ø² ÙĬÙĥ
ĠØ§ÙĦØ´ ÙĩØ±
ĠØ§ÙĦØ¨ Ø¯
Ø¨Ø¯ Ø§Ø¹
ĠÙģØ± ØŃØ§ÙĨ
Ø¨ ÙĪÙĨÙĬ
ĠÙħ Ø³ÙĦÙħÙĬÙĨ
ĠØŃ Ø§Ø¨Ø©
ĠÙĤ Ø¹
ĠØ§ÙĦØ¬ Ø§ÙĬØ©
ĠØ§ÙĦÙħØ´ Ø§ÙĩØ¯
ĠØ¨Ø· Ø±ÙĬÙĤØ©
ĠØ§ÙĦØ±ØŃ ÙĬÙħ
ĠØ§ÙĦØ¬ÙħÙĬ ÙĦ
a k
i g
ĠØ§ÙĦ ÙĪÙĥ
ĠÙħ ÙĦÙĥ
ĠÙĬ Ø¨Ø¯
ĠØª Ø¶
Ø§Ùĩ Ø±
ĠØ£ÙĨ Ùĥ
ĠÙģØ§ÙĦ Ø¬Ø²Ø§Ø¦Ø±
ÙĨØ³ Ø§Ø´
ĠØ¹Ø´ ÙĪØ±
Ø°Ùĩ Ø¨
ĠØ¨ Ø§ÙĬ
ĠØª ÙĪØ¨
ĠÙĨ Ø´Ø§Ø¡
ĠÙĤ Ø§Øª
ĠÙħØ´ Ø§ÙĥÙĦ
Ø§Ø· Ø¹
ĠÙĪØ§ØŃØ¯ Ø©
ĠÙĪÙħ Ø±
ĠÙĪÙĨ Ø´
ĠÙĥÙĬÙģ Ùĥ
ĠÙĨØŃ Ø·
ĠØªÙĤ Ø±ÙĬØ¨Ø§
ĠØŃØ¨ Ø©
ĠØ´Ø®Øµ ÙĬØ©
Ø¬Ø² Ø¡
ĠØªÙĪØŃØ´ ÙĨØ§Ùĥ
ÙĩØ§ÙĩØ§ ÙĩØ§
ĠÙĬØ±Ø²ÙĤ Ùĥ
Ø§Ø²ÙĬØº ÙĬØ©
ĠÙĤÙĬ ÙħØ©
ĠØ§ÙĦÙĪØ§ÙĦ Ø¯ÙĬÙĨ
ĠØ¨ ÙħØ¹
ĠØ¨ Ø£ÙĨ
ĠØ¹ Ø¨Ø±
Øµ Øµ
Ø§Ùħ Ùĩ
ĠØ¨Ø§ÙĦ ØŃ
ÙĦÙĥ ÙĨ
ĠØ¨Ø± ÙĩØ§ÙĨ
ĠÙĨÙĤ Ø±Ø§
ĠØªØ³ ÙħØ¹
ĠØ£Ø¨ ÙĪÙĨÙĬ
ĠØ§ÙĦØ±ØŃ ÙĦØ©
ÙĦ Ø§ÙĨ
ÙĪ Ø·
Ø¯ Ø«
ĠØª ÙĦÙĥ
ĠØ¹ ÙĦØ¨
Ø° Ø§Ø¨
Ø§ÙĬ Ø¨
ĠØ§ÙĦÙģ Ø±Ø¯
ĠØ§ÙĦØ¯ Ø±Ø§ÙĩÙħ
ÙĬØ§Øª ÙĨØ§
ĠØ¯ÙĬØ± ÙĪÙĦÙĨØ§
ĠÙħÙĬ Ø³
handpinkwavinghandpinkwaving handpinkwavinghandpinkwaving
ĠØµÙĨ Ø§Ø¹
ĠØªØ¹ÙĦÙĬ ÙĤÙĬ
ĠÙħÙĨØ§Ø² Ø¹
ÙĨ ØŃØ¨
Ø± Ùħ
ĠØ¨ Ø±ÙĬ
ĠØª ÙĦØ§
ĠØ£ Øº
ĠØ§ÙĦØŃ Ø§Ø¬Ø©
ĠØªØ¹ ÙħÙĦ
ĠØ§Ø® ÙĪÙĬØ§
ÙĪÙĬ ÙĪØ±Ùĥ
ĠØ§ÙĦØµ Ø¨Ø±
ĠØ¨ÙĦÙĬ Ø²
ou s
ĠØ§Ø¬ ÙĦ
ĠØªØ´ Ø±ÙĬ
ĠÙĬØ³Øª Ø±Ùĥ
ĠÙħÙĦÙĬØŃ Ùĩ
ĠØ¹ÙĤ ÙĦÙĥ
ĠØµØ¹ ÙĬØ¨
ĠØª ÙĪØ¬
ĠØ§ÙĦØ¬ ÙĨÙĩ
ÙħÙĬ Ùĩ
ĠØ§ÙĦØª Ø±Ùĥ
Ġt out
ĠØ¨Ø§Øª ÙĨØ©
ĠÙĪ Ø§Ø¶
ĠÙħ ÙĤØ¯
ĠÙħ Ø¯ÙĬØ±
ĠÙģ ÙĦÙħ
ÙĦÙĬ Ø¨
ĠØŃ Øª
Ø¯ÙĬ Ø¯Ø©
ÙĪÙĦ Ø¯
ĠÙĪØ§ÙĦ Ø¯
ĠÙĪØ§ÙĦ Ø¯ÙĬ
ØªÙĪ Ø¬
ÙĪÙħ ÙĬ
ĠØ¥ÙĨ Ùĩ
ÙĪÙĤ Ø¹
ÙĪÙĤ Ùģ
ĠØ§Ø¯ Ø§
ĠØ¯Ø¹ ÙĪØ©
ĠÙĪ Ø¹Ø¯
ĠÙģ Ø§Ø±Ø³
ĠØŃ Ø³ÙĬØª
ĠØ§ÙĦÙħ ÙĪØ³Ùħ
Ø§ÙĬ ØŃ
Ø§ÙĪ Ø´
ĠÙĬØª Ø¨Ø¹
ĠØªØ´ Ø¨Ùĩ
Ġj ai
ĠØ¨ ÙĬØ§
ĠØŃ Ø´
ĠÙĤ ØµØ©
ĠØ³ ÙĤ
Ø§Ø¨ Ø·
ĠÙĪØ§ÙĦ ÙĬ
ĠÙĩØ° ÙĪÙĥ
ĠØ§ÙĦÙģ ÙĤ
Ġt he
ĠÙĤØ¯ Ø§Ùħ
ĠØ§ÙĦØ¬Ø²Ø§Ø¡ Ø±
i a
ÙĨ Ùĥ
ĠØ§ÙĦ Ø§ÙĨØª
ĠÙħ Ø§Ø³
ĠÙĬ Ø¶Ø±Ø¨
ĠÙħØ¹ ÙĬ
ÙĤÙĬ Ùħ
ĠØ§Ùħ Ø±
ĠØ§ÙĦØµ Ø¨Ø§ØŃ
ĠÙĨÙģØ³ Ùĩ
ĠÙĩØ¯ Ø±Øª
ĠØ§ÙĤ Ø³Ùħ
ĠÙĪ ÙĦÙĩ
ÙĦÙĬ ÙħØ§
Øµ ÙĬ
ĠØ§ÙĦÙħ Ø±Ø¶
ØµØŃ Ùĥ
Ø§Ø¬ Ø±
Ø§Ø² Ø§ÙĦ
ĠØ§ÙĦÙĬ ÙĪØªÙĪØ¨
ĠÙĪØ´ ÙĨÙĪ
ĠÙħØ¬ Ø±Ø¯
ĠØ§ÙĦÙħÙĪ Ø¶ÙĪØ¹
Ø¬Ø§Ø¨ ÙĬ
ĠØ¨Ø§ÙĦÙĨ Ø³Ø¨Ùĩ
ĠØŃÙĦÙħ ÙĬ
ĠØºÙĦ Ø·
Ø± Ø§ÙĪ
ĠØ¹ ÙĬØ·
Ø§Ø¯ ÙĤ
ÙĪÙĨ Ø¯
ÙĬØ¯ Ø©
ĠØ¨ÙĦ Ø¯ÙĬ
ĠØ§ÙĦÙģ ÙĥØ±Ø©
ØŃØ¨ Ø³
ĠÙĪÙĨ Ø§Ø³
ĠØªØ¨ Ø¯Ø§
ĠØ§Ø³Øª ÙħØ±
ĠÙĤØ§Ø¹ Ø¯
Ø§ÙĦØ¹ Ø§Ø¯Ø©
ĠÙĥØª Ø§Ø¨
ĠØªØ· ÙĦØ¹
ĠØ§ÙĦØ³ÙĦ Ø·Ø§ÙĨ
ĠØ¬ÙħØ¹ ÙĬ
ĠÙħ ÙĪÙĩ
ØŃ Ø·
ĠØ¨ Ùģ
ĠÙĦ ÙĦÙĬ
ĠÙĪØ§ÙĦ Ø¬
Ø±ÙĪ Ø¶
ĠÙĪÙĦ Ø§ÙĬ
Ø®ÙĦ Ùģ
ĠØ§ÙĦØ® Ø§Ø±Ø¬
ĠÙĬØ´ Ø¨Ùĩ
es s
ĠØªÙĤ Ø¨ÙĦ
ĠØªÙĤ Ø¹Ø¯
ĠÙĬÙĤÙĪÙĦ ÙĪØ§
ĠØ³Ø¨ØŃØ§ÙĨ Ùĩ
ĠÙĪØ§ÙĨØª Ùħ
ĠØ®ÙģÙĬ Ùģ
Ø¨ Ø±Ùĥ
ĠÙĪ ØºÙĬØ±
ĠÙģ Ø§ÙĨ
ĠÙĨ ÙĩØ¯Ø±
ĠÙĥ Ø¨Ø±
ĠØ§ÙĦÙħ Ø®Ø±Ø¬
ĠØº Ø²
ĠØ§ÙĦØª ÙĨ
ĠØ§ÙĦØª Ø´
ĠØ§ÙĦØ´ Ø±ÙĤ
Ø¨Ø± Ø§ÙģÙĪ
ĠÙĬØª Ø¹
ĠÙħØ± Ø§Øª
Ġb on
ĠØ§ÙĦÙħØ³Øª ÙĤØ¨ÙĦ
ĠØ±Ø¬Ø¹ Øª
ÙĥÙĬÙģ Ø§Ø´
Ø§ÙĦ ÙĥÙħ
Ùħ ÙĬØ±
ĠÙĬ Ø¨ÙĬØ¹
ĠÙģ Ø³
ĠØª Ø§ÙĨ
Ø§Øª ÙĩØ§
Øº Ùģ
ĠØ§ÙĦØ¬ ÙħÙĬØ¹
ĠØ¹ÙĦ ÛĮ
ĠØ±Ø¢ Ùĩ
Ø§ ÙĤÙĬ
Ø§ÙĦ Ø¯
Ùĩ Ø§Ø¨
ĠÙħ Ø¯Ø±
ĠÙģ Ø®
ÙĪÙĨ Ùĥ
ĠØ³ Ø®
ĠØµ ÙĪØ±Ø©
ĠÙħØ¹ ÙĥÙħ
ĠØ§ØŃ ÙĦÙī
ĠÙĨØŃ ÙĬ
ÙģØª Ø®Ø±
ĠØ§ÙĦÙħÙĨ Ø·ÙĤØ©
ĠÙĬÙĪ ØªÙĪØ¨
ĠØ¹ÙĦØ§ ÙĤØ©
ĠÙħÙĩÙħ Ø§
Ø¯ Ø§Ø¡
Ø¯ ÙĪØ§
ÙĨØ§ ÙĪ
ĠØ£ ÙħØ§
ĠØ³ Ø£
Ø§ÙĬ Ø¯
Ø§Ø¦ ÙĬØ©
ĠØ§ÙĦØ¨ Ø·
ĠÙħØª Øª
ĠÙĨÙĤ Øµ
ĠØ§ÙĦØ¨Ø± ÙĨØ§ÙħØ¬
i k
Ġ ou
ĠØ§ÙĦ ÙĥÙĪÙĨ
ĠÙĬ ÙĦØŃÙĤ
Ø§ÙĨ ÙĪÙĨ
ÙĦÙĬ ÙģÙĪÙĨ
ĠØ§ÙĦØ¬ ÙĨ
ĠÙĬØ¹ Ø·ÙĬ
ĠÙĦÙĥ Ø§ÙĨ
ÙħÙĪ Ø¹
ĠØ§ÙĦÙĬ ÙħÙĨ
ĠØªÙĤ ÙĪÙħ
Ø¨ÙĦØ§Ø¯ ÙĨØ§
ĠÙħÙĦ Ø§ÙĬÙĬÙĨ
ĠØ¬Ø² Ø§Ùĥ
ĠØ®Ø¯Ùħ Øª
em ent
ĠØ§ÙĦÙĨØ³ Ø§Ø¡
ĠÙĩØ§ÙĩØ§ ÙĩØ§ÙĩØ§ÙĩØ§
Ùĩ Ø°ÙĬ
Ø¯ ÙĦ
ĠÙħ Ø¯Ø©
ĠÙĬ ÙħØ¯
Ø· ÙĤ
ÙĪÙĬ Ø³Ø©
Ø¹Ø¨ Ø§Ø³
ĠØ¹Ùħ Ø±ÙĪ
ĠÙĪØ§ÙĦÙĨ Ø¬Ø§ØŃ
ĠØ£Øª ÙħÙĨÙī
c i
ÙĨ ÙĤ
Ùħ ÙĦÙĬ
ĠÙģ ÙĦÙĬ
Ø¬ Ø§Ø±
ĠÙĥ ÙĦÙĩ
ĠØ´ Ø§Ùħ
Ø¯ÙĬ ÙħØ©
ĠØº Ø§ÙĦÙĬ
ĠØ§ ÙĤØª
ĠØ§ÙĦØ³ Ø¨
ĠØªØ³ ÙĦÙĬÙħØ§
ĠØ§ÙĦÙħØº Ø§Ùħ
ĠØŃÙĬ Ø§Ø©
ĠØ§ÙĦÙĪÙĥ ÙĬÙĦ
a w
a is
ĠÙĬ Ø±ÙĬØ¯
ĠÙģ ÙĤØ¯
ĠØª Ø±ÙĬ
ĠÙĦ ÙĤØ·Ø©
Ø¬ ØŃÙĥ
Ø§ØŃ Ø¨ÙĬ
Ø« ÙħØ±
ĠÙħØ³ÙĦØ³ÙĦ Ø§Øª
ĠÙģ Ø§Ø±
Øµ Ø§
Øµ Ø§ÙĦØŃ
Ø£ Ø®ÙĬ
ĠÙħØ¹ ÙĦÙĪÙħØ©
ĠÙģÙĬØ¯ÙĬÙĪ Ø§Øª
Ø¨Ø¹ Ø¶
ĠÙĬØ³Øª ØŃÙĤ
ĠØ¯Ø§ÙĬ ÙħÙĨ
Ġy ou
ÙĪ Ùī
Ø¨ Ø´
ĠÙĪ Ø¥ÙĨ
ĠÙħ Ø§ÙģÙĬÙĩ
ĠØª ÙħÙĪØª
ĠØª ÙĥÙħÙĦ
ĠÙĨ Ø³ÙĬØª
ĠÙĥ ÙĪÙĦ
Ø· Ø§ÙĦ
ĠØ¬ ÙĦ
ĠÙĤ Ø¨Ø±
ĠØ§ÙĦÙħ ÙĪÙĨØªØ§Ø¬
ĠØªØ¹ Ø¬Ø¨
ĠØ¨ÙĦ Ø¹
ÙĬØª ÙĩØ§
Ø¨Ø¹ Ø«
Ø§Ø¶ Ø±
ĠØ§Ø¹ Ø±Ùģ
ĠØ±Ø§ ÙĩØ§
ĠÙĬÙĪ ØªÙĪØ¨Ø±
ĠØªÙĩ Ø¨ÙĦ
ĠØ£Øµ Ø¨ØŃ
ĠÙħØŃØªÙĪ Ø§Ùĥ
ĠØ§ÙĦÙģØ±Ø¯ ÙĪØ³
a b
Ø§Ø ¤
Ùĩ Ø°Ùĩ
ĠØ§ÙĦØ¹ Ø¶
ĠØ¨Ø§ÙĦ ÙĦ
ĠØ§ÙĦÙĨ ÙĪØ¹
Ø¨ÙĦ Ø§ÙĦ
Ø³ÙĬ Ø§ØŃØ©
ĠØ§ÙĦÙĥ ÙĦ
ĠØ§ÙĦØ¯ Ùħ
ĠÙħØŃ ØªØ§Ø¬
ĠØ§ÙĦØ· Ø¨ÙĬØ¹Ø©
ĠÙĬØ¬ Ø§Ø²ÙĬÙĥ
ĠÙĨØ¨ Øº
ĠØ§ÙĦÙħØ¬ ÙĩÙĪØ¯
ĠØŃØ¨ÙĬØ¨ ÙĨØ§
ĠØ¹Ø§ÙĦ ÙħÙĬ
ĠÙģØ§ÙĦÙĤ ÙħØ©
ĠÙĪ Ø³Ø·
ÙĤ ÙĪØ¨Ø©
ĠØ´ ÙĥØ±
ĠØ¬ Ø¨Øª
ĠØ¯ Ø§Ùĥ
ĠØ§ÙĦÙħ Ùģ
ĠØ§ÙĦÙģ Øª
ĠØ§ÙĦØ¨ Ø§Ø¨
ĠØ§ÙĦØ¯ ÙĤÙĬÙĤØ©
ĠÙģØ·ÙĪØ± Ùĥ
ĠØ·ÙĬØ¨ Ø©
ĠÙĪÙĨØª Ø§
ĠØ§ÙĨØ´ Ø§ÙĦÙĦÙĩ
ÙĬ ÙĤ
ĠÙħ Ø§ÙħØ§
ĠØ¹ Ø±Ø¶
Ø® Ø®
ĠØ· Ø±Ùģ
ĠØ§ÙĦØ´ÙĬ Ø¡
Ġ L
Ùħ Ø§Ø¬
Øª Ø±Ùģ
ÙĤ ÙĦØ©
ĠÙĬ Ø«
ĠØ¨ ÙĩÙħ
Ø§Ùĩ ÙĦÙĪ
ĠÙĦÙĬ ÙĦØ©
ĠØ¨Ø§ÙĦ Ø¯
ĠØ· ÙģÙĦØ©
ĠØ§ÙĦØ´ ÙĥÙĦ
ĠØ§Ø± Ø¶
in e
ĠÙĪØ± Ø§Ùĥ
ĠÙĨØ· ÙĦØ¹
ĠÙĨØªÙħÙĨ Ø§ÙĦÙĥ
ĠØ§ÙĦ Ø§Øµ
ĠØª ÙĦØ¹Ø¨
ĠÙĨ Ø²
Ø® Ø·
ĠØ¬ Ø§ÙĬØ©
ĠØ³ Ø§ÙħØ·
ÙĪÙĦ Ø§Ø¯
Ø£ Øª
Ø±Ø¨ Øª
ĠØ§ÙĦØ³ ÙĨØ©
Ø¬ÙĬ Ø¹
ĠØ§ÙĦØ¹Ø§ÙĦÙħ ÙĬØ©
ĠÙħØ¬ Ø§ÙĦ
ĠØŃØ§Ø¨ ÙĬÙĨ
p r
u x
Ùħ ÙĪØ±
ĠØ§ÙĦ Ø§Ø¯
ĠÙĬ Ø±Ø¶
ĠØª ÙħØ«ÙĦ
ĠÙĦ Ø§Ùĥ
ÙĪÙĦ ÙĪØ¬
ØµØŃ Ùī
ĠØ§ÙĦÙģ ÙĦ
ĠÙĦÙĦ Øª
ĠØ§ÙĦØ¨ Ø§Ø³Ø·
Ø§Ø¶ ÙĬØ¹
ĠÙħÙĪ Ø³ÙĬÙĤÙī
ha m
Ø±Ø§Ùĩ ÙĬÙħ
ĠØŃØ³ÙĨ Ø§ØªÙĥ
ĠØ³ÙħØ¹ Øª
o l
Ġ R
Ø§ÙĦ Ø£
Ø¨ Øº
Ø¨ ÙĨÙĬ
ĠÙħ Ø§Ø®
ĠÙĬ ÙĥÙħÙĦ
ĠÙĨ ÙĥÙħÙĦ
ĠØ´ ÙħØ§ÙĦ
ĠØ³ Ø¯ÙĬÙħ
ĠØªØ® ÙĦÙĬ
ĠØ¨ÙĨ ÙģØ³
ĠØ§Ø³Øª ØºÙģØ±
Ġqu i
ĠÙĬØµ ÙĦØŃ
ĠØ§ÙĦÙĪØŃÙĬØ¯ Ø©
Ġ ï»
Ø§ÙĦ Ø³
Ø§ÙĦ Ø´
Ø§ÙĦ ÙĦÙĬ
Ùģ Ø²
ĠØ´ Ø¦
ĠØ£ ÙĪÙĤ
Ø§Ùĥ Ø´
Ø§Ùĩ ÙĬÙħ
ĠÙĬØ¹ ÙĦÙħ
ÙĨØª Ø´
ĠØ· ÙĬ
ĠØ¶ Ø¹
ÙĦØ¨ Ø³
ĠØªØª Ø¹ÙĦÙħ
ĠØ¨Ø¯ ÙĦ
ĠØ±Ø¨ ÙħØ§
ĠØ®Ø¯ Ø§Ùħ
ĠØ£ØŃØ¨ Ùĥ
Ø§ÙĦ ÙĨØ§
ÙĤ ÙĨ
ĠØª Ø§
ĠÙĦ Ø¥
ĠØ´ ÙģÙĬ
ÙĥÙħ ÙĦÙĪ
ØªÙĪ ÙĬ
Ø§ÙĪ Ø¯ÙĪ
ØªÙĬ ÙĦ
ĠØªØ¹ Ø¨
ĠØªØŃ Ø¯ÙĬ
ÙħØ¹ ÙĬ
ĠØ§ ÙĪÙĨ
ĠÙĨØ¹ Ø§ÙĪÙĨ
ĠØ§Ùģ Ø±ÙĬÙĤÙĬØ§
ĠØ§ÙĦØ§Ø® ÙĬØ±
ĠØªÙĥ ØªØ¨
ĠØªØ¹ÙĦÙħ Øª
ĠØµØŃØ¨ Ùĩ
Ø± ÙĪÙĨ
Ùģ ÙĨ
ĠÙĬ ÙĦÙĤ
ĠØª Ø±Ø¨ØŃ
ĠÙģÙĬ Ø²Ø§
ĠØŃ ØªÙĬ
Ø±ÙĪ ÙĤ
Ø±ÙĪ Ø§ØŃ
ĠØ§Ø¨ Ø±Ø§ÙĩÙĬÙħ
Ø§Ø¨Ø¹ Ùĥ
ĠØ¨Ø§ ÙĤÙĬ
Ùħ ÙħÙĥÙĨ
ĠØ§ÙĦ ÙĦØŃ
ĠÙĪ Ø§Ùĩ
Ùģ Ø§
ĠÙģ Ø£
ĠØ¹ Øµ
ĠØ± Ùĩ
ÙĬØ± Ø§Øª
ĠØ´ Ø±ÙĬÙĥ
ĠØ³ Ø§Ø¹
ĠØ¨Ø§ÙĦ Ø£
ÙĪØ³ Ø·
ØªØ± ÙĪÙĨ
ĠØªÙĤ Ø±Ø§
Ø§Ø±ÙĬ Ø³
ĠÙĩØ§Ø° ÙĪ
ĠØ¶ØŃÙĥ ØªÙĨÙĬ
ĠØ§ÙĦØªÙĦÙģ Ø²ÙĬÙĪÙĨ
ÙĬ Ø§Ø±Ø¨
ØŃ Ø¨ÙĬØª
ĠÙģ Ø¯
ĠÙĨ ÙĩØ§ÙĬØ©
ÙĪØ± Øª
ĠØ§ÙĦÙĤ ÙĨÙĪØ§Øª
ĠÙĥØ¨ Ø§Ø±
ĠØ¨Ø¯ Ø§ÙĬØ©
ĠÙĪØ£ ÙĨØ§
Ġb e
ĠØ´ÙģØª ÙĩØ§
ÙĨ Ø¹Ùħ
ÙĤ Ø§Ùħ
Ø¬ ÙĬØª
ĠÙĤ Ø¶
Ø§ØŃ Ø´
ĠØµ ÙĨØ¹
Ø§Ø¦ Ùĥ
ĠØ®ÙĪ ÙĬ
ĠØ¨ÙĦ Ø¹Ø¨Ø§Ø³
ĠØ§ÙĦØ¨ ØŃ
ĠØ§Ùĥ ÙĬØ¯
ÙģØ³ Ø©
ĠÙĪÙĦÙĬ Ø¯ÙĬ
ĠØ¨Ø¯ Ø§Øª
ĠØ§ÙĦÙħØ´ Ø§ÙĥÙĦ
ĠÙħÙĪ Ø¶ÙĪØ¹
ØªÙħ Ø§Ø¹
ĠØ§ÙĦÙĤØ± Ø§ÙĨ
ĠÙĪØ¬Ùĩ Ùĥ
Ùħ ÙĥØ§ÙĨ
ĠÙħ ÙĪÙĨØªØ§Ø¬
ØŃ Ùĩ
ĠÙĬ Ø®ÙĦØµ
ĠØ¨ ÙĨØ§
ĠØª Ø¨Ø±
Ø§ÙĨ Ø³Ø§ÙĨ
ĠÙĥ Ø¹
ĠÙħÙĨ Ø§Ø·ÙĤ
ĠØŃ ÙĦØ§ÙĦ
Ø§Ø¦ Ø±
Ø£ ØŃØ³ÙĨ
ĠÙħØ¹ Ø§ÙĨØ§
ĠØ§Ø® ÙĪÙĥÙħ
ĠÙĪØ§ØŃØ¯ Ùĩ
Ø§ÙĦÙħ ÙĬÙĨ
ĠÙĪÙĨ Øµ
ĠÙĪØŃ ØªÙī
ĠØ¹ÙĦ Ø§Ø¬
ĠÙģØ§ÙĦ Ø¹
ĠÙĪØ¬ Ø²
ĠÙĪØ¨ Ø¹Ø¯
ĠÙĨØŃØ¨ ÙĪ
ĠØ¹Ø§Ùħ ÙĬÙĨ
qu e
ĠÙħØ³Øª Ø±
ĠØ¯Ø§ÙĬØ± ÙĬÙĨ
ĠÙĪÙĬØŃ ÙģØ¸
ĠÙģØ¶ÙĦ ÙĥÙħ
Ġ est
Ø¨ Ø³Ùħ
Ùģ Ø§Øª
Ø³ ÙĬØ§
ĠÙģ Ø§
ĠØ¹ Ø±Ø´
Ø² Ø§Ùģ
ĠØ® Ø¨Ø±
ĠÙĤ Ø±ÙĬØª
ĠØ¯ Ùħ
Ø« ÙħØ§ÙĨ
ĠØ¥ Ø´
ĠÙĪÙĨ Ø¹Ùħ
Ø§Ø¨Ø¹ ÙĬÙĨ
ĠÙĬØŃØ¨ ÙĪ
ĠØ§ÙĦ Ø§Ø·
ĠÙĪ Ø¢
ĠÙĬ ÙħÙĪØª
ĠØª ÙĩØ¯
ĠØ® ÙĦØ§
Ø±Ø¨ Ùĩ
ĠØµØŃ Ø¨ÙĬ
ĠØ§ÙĦØ³ Ø§Ø¹Ø©
ĠÙĪÙħ ØŃ
ĠÙĪØ¬ ÙĪØ¯
ĠØ³ÙĬ Ø§ØŃØ©
ĠØ¨Ø³ Ùĥ
ĠÙĨÙĬ ÙĪÙĬÙĪØ±Ùĥ
ĠÙĤÙĦÙĪØ¨ ÙĨØ§
i v
Ġ C
ÙĪ Ø§Ø·
ĠØ§ÙĦ Ø§Ùĥ
Øª ÙĪØ±
ĠÙĪ Ø±Ø§
ĠÙģ ÙĩÙĪ
ĠÙĦ ÙĦÙĪ
Ø´ Ø§
Ø¬ Ø§Ø¨Ø©
ÙĬÙĨ Ùĩ
ĠØ£ ÙĬÙĨ
ĠØ§ÙĨ ÙĩÙħ
ĠØ§ÙĦÙħ Ø«
Ø¸ ÙĬ
ĠØ§ÙĦØŃ Ø¯ÙĪØ¯
ĠØ· ÙĬØŃ
ĠØ§ÙĦØµ ÙĪØª
Ø¨ØŃ Ø«
ĠÙĪØ± Ø§ØŃ
ĠÙĨÙĤÙĪÙĦ ÙĪ
ĠØ§Ø³Ùħ Ùĩ
ĠÙĪØ® Ø§ØµØ©
ĠÙĪÙħØ± ØŃØ¨Ø§
Ġ ra
Ùħ Ø¨
Øª ÙĤØ¯
ĠØ± ÙĬØŃ
ĠØ® ØµÙĪ
ÙĪÙĨ Ùĩ
ÙħÙĬ Ùħ
ĠØ§ÙĦØª ÙĤ
ĠØ§ØŃ Ø³
ĠÙħØ± ØŃ
Ø§ÙĤ Ø³Ùħ
ĠÙĬÙĤ Ø±Ø§
ĠØªÙħ Ø¯
ÙĨÙĪ Ø§ÙĨ
ØºÙĦ Ø·
ĠÙĦØ£ÙĨ Ùĩ
ĠØ¨ÙĦØ¯ Ø§ÙĨ
u l
ĠÙĪ Ø±ÙĬ
ĠÙĦ Ø·
Ø® ÙĪØªÙĬ
ĠØŃ Ø§Ø³
Ø§ÙĨÙĬ ÙĬÙĨ
ĠØ§ÙĦØ¨ Ø³
ÙģÙĬØ¯ÙĬÙĪ ÙĩØ§Øª
ĠØ§ÙĦÙĪ Ø·
ĠÙħØ§Øª Øª
ĠØ¬Ø²Ø§Ø¦Ø±ÙĬ ÙĬÙĨ
ĠØ§ÙĦÙħØ´ Ø±ÙĪØ¹
ĠÙĪØŃØ¯ ÙĩØ§
ĠØ§ÙĦÙĥÙĪÙħ ÙĬØ¯ÙĬØ§
ÙĦ Ø§Ø¡
ĠÙĪ Ø³ÙĬ
ĠØª ÙĬÙĥ
ĠÙĦ ÙĦÙĥ
ĠÙĦ ÙħØ¹
Øµ ÙĪÙĦ
Ø§Ø¹ Ùħ
ĠÙħØ¹ Ø±Ùģ
ĠÙĬØ¹ ÙħÙĦ
ÙĬØª ÙĨØ§
ĠÙĩÙĨØ§ ÙĬØ§
Ø¨Ø¹ Øª
Ġd z
ØºÙĬ ÙĬØ±
ĠØªÙĤØ¯Ø± Ø´
ĠÙĥÙģ Ø§Ø´
ĠÙĤØªÙĦ ÙĨÙĬ
Ġcom m
ĠØ§ÙĦØ³Ø¹ÙĪ Ø¯ÙĬØ©
ÙĪ ÙĦÙĩÙħ
Ø¨ Ø§Øª
ĠÙħ Ø±Ø§
Ø¬ ÙĬÙĨ
Ø® ÙĪ
Ø§Ø´ Ø©
Ø§Ø¨ ÙĪÙĨÙĬ
ĠØµ Ø§ÙħØ·
ĠÙĬØŃ ÙĥÙħ
Ø¨Ø¹ Ø§
ĠØ§ÙĦØ² ÙĪØ¬
ĠØªÙĥ ÙĦÙħ
ĠØ´Ø®Øµ ÙĬØ§
ĠØ¹ÙĬØ¯ Ùĥ
ĠÙĪÙĬØ± Ø²ÙĤ
ĠØ§ÙĦÙģØ± ÙĨØ³ÙĬØ©
ĠØ§ÙĦ Ø§ÙģØ¶ÙĦ
Ø¯ ÙĪÙĬ
ÙĤ Ø§Øª
Ø¬ ÙħÙĦ
ĠÙĩ Ø¯ÙĬÙĥ
ĠØ´ Øº
ÙĦÙĪ Ú¨
ĠĠ ĠĠĠ
ĠØªØ¹ Ø§ÙĪÙĨ
ĠØªØŃ ÙĥÙħ
ÙħÙĨ Ø´
ĠØ§ÙĦØ¯ ÙĪØ±
ĠÙĬØ® Ø¯ÙħÙĪ
Ġc e
ĠØªØ¬ Ø±Ø¨Ø©
Ġs u
ĠÙħØ§ÙĦ Ø§
ĠØ§ÙĦÙģÙĬ ÙĦÙħ
ĠØªÙģØ±Ø¬ Øª
Ø§Ø £
Ø³ ÙĪØ±
ĠÙĬ Ø²
ĠØª Ø±Ø¬ÙħØ©
Ø® Ùģ
ĠØŃ Ø¶
Øº Ø±Ø¨Ø©
Ø§Ø¦ Ùħ
Ø³ÙĦ Ø§ÙĬÙĥ
ĠØªØŃ Ø³Ø¨
ĠØ§ÙĦØ´ ÙĩØ¯Ø§Ø¡
ĠØ§Ø³ ÙħØ¹
Ø§ÙĦÙħ ÙĩÙħ
ĠØ£ÙĨ ÙĪ
Ø³Ùħ ÙĬØ±
Ø¦ ÙĬØ³
ĠÙĥØ§ÙĬÙĨ Ø©
ØµÙĦ Ø§Ø©
ĠÙĬÙĥ ØªØ¨
ĠØ±Ø§ÙĬØŃ ÙĬÙĨ
Ø§ Ùī
ÙĪ Ø§Ø³
ĠÙĪ ÙĨØ§
ĠÙĪ Ø®ÙĦØ§Øµ
ĠØ¹ ØªØ±ÙĪØ³
Ø· Ø§Ø¬
ĠØ´ ÙĪÙģÙĬ
ĠØ£ ÙĦ
ĠÙĦÙĬ ÙģÙĬØ¯ÙĬÙĪ
ÙĪÙģ Ø±
ĠØ§ÙĦØ¬ ÙĬ
ØµØŃ Ø§Ø¨
Ø§ÙĨÙĬ Ùĩ
ĠØ§ÙĦÙģ ÙĦÙĪÙĤ
ÙĪØ³ Ùģ
ĠØ§ÙĦÙĥ ÙĦÙħØ§Øª
ĠÙĬØ±ØŃÙħ ÙĪØ§
ĠØ§ÙĦØº Ø§ÙĦÙĬ
ĠØ±ØŃÙħ Ùĩ
ĠØ§ÙĦØªØ¹ÙĦÙĬÙĤ Ø§Øª
ĠØ¹ Ø¯Ùħ
Ø® Ø§Ùģ
Ø¨ÙĬ ÙĬÙĨ
ĠØ§ÙĦÙħ ÙĨØªØ¬
ĠØµ Ø¹Ø¨
ÙĨØª ÙħÙĨÙī
ĠÙħØ´ ÙĥÙĪØ±
ĠØ§ÙĦØ¨ ÙĤ
ĠÙĦÙĬÙĥ ÙĬØ¨
ĠØµØ¯ÙĬ ÙĤ
ĠÙĨØ§ÙĤ Øµ
Ùĩ Ø±Ø©
ĠÙĪ Ø¶Ø¹
ĠÙħ Ø§Ø±Ùĥ
ĠØª ØŃÙħ
ĠØª ÙģØ±
ĠØª Ø¨Ø¯ÙĦ
ĠØ§ÙĦÙħ Ø¯ÙĬÙĨØ©
Ø§Ùģ Ø§Øª
ĠÙħØ¹ Ø§ÙĩØ§
ĠØ§ÙĦØŃ Ø¬Ø±
ĠÙħØª ØŃ
ĠÙĬÙĤ Ø¹Ø¯
ĠÙĦØŃ ÙĤØª
ĠØ³ÙĨ Ùĩ
ĠØ´Ùģ Ø§Ø¡
ĠÙĦØ§Ø¨ Ø§Ø³
ĠÙĥØ§Ùħ ÙĬØ±Ø§
Ġ G
ĠÙħ ÙħÙĨ
Ø· ÙĦØ¹
ÙĪÙĨ Øª
ĠØ£ Ø±
ĠØ£ Ùĩ
ĠØ³ ÙĪÙĤ
Øº Ùĩ
ĠØ§ÙĦØ¬ ÙĨÙĪØ¨
Ø§Ø¬ Ø¯
ĠØªØ§Ø¹ Ùĩ
ĠØ§ÙĦØ£ ÙĪ
Ġc ar
ĠÙĨÙĤ Ø¹Ø¯
ĠÙĤÙĦØª ÙĦÙĥ
ĠØŃØ§ÙĦ ÙĬØ§
ĠØ®Ø§ÙĦ Ø¯
Ġ z
Ø§ÙĦ ÙĬØ´
Ùħ Ø§Ø¹
Ø± Ø§Ø³
ĠØ§ÙĦ Ø§ÙĤÙĦ
ĠÙħ ÙħØ«ÙĦÙĬÙĨ
Ø¹ ÙĪØ¯
Ùģ ØªØŃ
ĠÙģ Ø´
ĠÙĥ Ø£ÙĨ
ĠØ¬ ÙĪØ²
ĠØ³ Ø§Ùħ
Øº Ø§ÙĨ
ØµØŃ ÙĬØŃ
Ø¸ ÙĨ
ĠØ¥ ÙĨÙĬ
ĠØ§ÙĦØŃ ÙĤÙĬÙĤÙĬ
ĠÙĦÙĦ ØŃ
ĠØ§ÙĦÙĥ ÙĪ
ĠØ§ÙĦØ¯ Ø§Ø®
ĠØµØŃ Ùĩ
ĠÙĦØ§ÙĨ Ùĥ
ĠÙĦØŃ Ø¯
Ġb ien
ĠÙħØ§Ø¯ ÙĬØ±
ĠÙĨØ³ØªÙĨØ§ ÙĪ
ĠØ§ÙĪØ± ÙĪØ¨Ø§
Ùĩ Ø¯Ø§
Ø¨ ÙĩØ§
ĠÙĪ Ø¹ÙĦØ§Ø´
Ùģ ÙĬØ©
ĠØª Ø§Ø¨Ø¹
Ø±ÙĬ Ø³
Ø§ÙĪ Ø²
ĠÙħØ´ ÙĩÙĪØ±
ĠÙĪÙĨ Ø¨
Ġp e
ĠÙĨØ³ ÙĥÙĨ
ĠÙħÙĥ ØªÙĪØ¨
ĠØ±Ø³ Ø§ÙĦØ©
ĠÙĬÙĥ Ø«Ø±
ĠØ§ÙĦÙħØ¬ Ø§ÙĦ
ĠØ²ÙĬ Ø§Ø±Ø©
ĠØ´Ùĩ ÙĬØ¯
ĠÙħÙĪØ¬ ÙĪØ¯
Ø§Ø± ÙĬÙĥØ§ÙĨ
ĠØŃ ÙģØ¸
Ø§Ø´ Ø±Ø©
ĠÙĦÙĬ Ø²ÙĪÙħ
ÙĦÙħ ÙĬ
ĠØªØ¹ ÙĪØ¯
ÙĤÙĬ ÙĤÙĩ
ĠÙĪØª ÙĤ
ĠØ¶ Ø¯
ĠØ§Ø¨ Ø¯Ø§
Ø¹ÙĦ Ø§Ùħ
ĠØ±ÙĪØŃ Ùĩ
Ø§Ø³Øª ØºÙģØ±
er s
ĠÙĨØ³Øª ÙĨÙī
Ø¬Ùħ Ø§Ø¹Ø©
ĠØ§ØŃØªØ± Ø§Ùħ
o t
ĠØ¹ ÙĥØ³
ĠØ± Ø¤
Ø¨ÙĬ Ùĥ
ĠØ£ ÙĨÙĬ
Ø§ÙĬ ÙĤ
ØªÙĪ Ùĩ
Ø§ÙĪ Ø©
Ø¨ÙĦ Øº
ĠÙħØ´ Ø§ÙĩØ¯
Ø¯ÙĬØ± ÙĪ
ĠØ§ÙĦØµ ÙĬÙģ
ĠÙĪØ¹ ÙĦÙĬ
ĠØ§ÙĦØ§Ùħ ÙĪØ±
ĠØ§ÙĦÙħÙĨ Ø§Ø·ÙĤ
ĠÙĪØªØŃ ÙĬØ©
ĠÙĥÙĦÙħ Ø§Øª
ĠÙħÙħØª Ø¹Ø©
ĠÙĥØ§Ø± Ø«Ø©
ĠØ§ÙĦÙĥØ§Ùħ ÙĬØ±Ø§
Ġ re
Ø± Ø§Ø¨
Ùĥ ÙĦØ©
ĠÙĪ Ø§ÙĬ
ĠÙħ Ø§ØŃ
ĠÙĬ ØºÙģØ±
ĠØª Ø§Ùĥ
ĠÙĦ ÙĪÙĨ
ĠÙĨ Ø±Ø¬Ø¹
ĠÙĨ ÙĪØ¶
ĠØ£ Ø¹ÙĦÙħ
ĠØ¯ ÙĬØ¯
ĠØ§ÙĦÙħ ÙħÙĦÙĥ
ĠØ³ ÙĪØ±ÙĬØ§
Ø§Ø¹ Ø¯Ø©
ĠÙĪØ§ÙĦ Ø¥
ĠØ§ÙĦØ¬ ÙĪ
Ø±ÙĪ ÙĬ
ĠØªØ¹ ÙĬ
ĠØ§Ø³ Ø¨
ĠØ£ÙĨ Ø³
ĠØ¨Ùĥ ÙĬØª
ØŃØª Ø§Ø¬
ÙĨØ¯ÙĬ Ø´
ĠÙĨÙĪØ±ÙħØ§ÙĦ ÙħÙĪ
ØŃØ¯ Ø«
ĠÙĬÙĩØ¯ ÙĬÙĨØ§
Ġ ïº
ÙĨ ÙĪØ±ÙĬ
Ø³ ÙħØ¹
ĠÙĬ ÙĦØ§
ĠÙĥ Ø§Ø´ÙĬ
ĠØŃ ÙĪÙħ
Ø¶ Ùī
Ø¶ Ø¨Ø·
ĠÙĤ Ø±ÙĬ
ĠØ§ÙĦØ¹ Ø´
ÙĪÙħ ÙĪ
ĠØ§ÙĦØŃ ÙĦ
ĠØªØ¹ Ø·ÙĬ
ÙħÙĬ Øª
Ø¨Ø± Ø§
ÙĬØª Ùĩ
ĠØ§Ùħ Ø«
ĠÙħØŃ ØªØ±Ùħ
ĠÙħÙĦÙĬ Ø§Ø±
ĠÙĨÙĤ ÙĦÙĥ
ĠÙĨØ¨ ÙĥÙĬ
ĠÙĬÙĪ ØµÙĦ
ĠØªÙĪØŃØ´ ÙĨØ§
ĠÙħÙģ Ùĩ
ĠÙħ Ø§Ø¬
ĠÙĨ Ø§
ĠØ§ÙĦÙħ Ø¤
ÙĦÙĤ Øª
ĠÙĦÙĦ Ø¨ÙĦØ§Ø¯
ĠØ§ÙĦÙĤ Ø§Ø¯
ĠØ§ÙĦØ± Ø§Ø¦Ø¹Ø©
ĠØ§Ùĥ ØªØ´
ĠØ§ÙĦØ· ÙģÙĦ
Ø±Ø§Ùħ Ø§
Ø¯ÙĤ Ø§Ø¡
ĠØ§ÙĦÙĦÙĤ Ø·Ø©
Ġ x
ĠØ§ÙĦ ÙĪØ±
ĠÙĦ Ø®Ø±
ĠØ± Ø§ÙĬÙĥ
Ø§Ø¯ Ø§
ĠÙĪØ§ÙĦ ÙĤ
ĠĠ ĠĠ
Ø¸ ÙĩØ±
ĠØ®ÙĪ ÙĥÙħ
ĠÙĪÙĦ Ø¯ÙĬ
ÙĪÙĬ ÙĤ
Ø¹Ø¨ Ø¯
ĠØ¨ÙĦØ§Ø¯ ÙĩÙħ
ĠØ° Ø§Ùĥ
ĠØªÙĨ ØŃÙĬ
ĠØ§ÙĦØ² ÙĬØª
ĠØ´Ø§Ø¨ Ùĩ
ĠØŃØ¯ ÙĪØ¯
ĠØ³ÙĬØ± ØªÙĪ
ĠØ±Ùħ Ø²ÙĬ
Ø³ ÙĬÙĨ
ĠØ¹ ÙĬÙĨÙĬ
ĠÙĨ ÙħÙĪ
Ø² ÙĬØ±ÙĬ
Ø§Ø¨ ÙĤ
ĠØ· ÙģÙĦ
ĠØ§ÙĪ Ú¨Ø±ÙĪØª
ĠÙĬØª Ø¹ÙĦÙħ
ĠÙģØ± ØŃØ©
ĠÙĪØ¬ ÙħÙĬØ¹
ĠÙĦØ¹ Ø§Ùħ
ĠÙĨØµ Ùģ
ĠØ§ÙĦÙħØ³ Ø¤
ĠØ£ÙĬ Ø§Ùħ
ĠØªØŃØ¨ ÙĪ
Øª ÙģØ±Ø¬
ĠÙĪ Ø§ÙĪ
ĠÙĬ Ø§ÙĥÙĦ
ĠØ¨ ÙĪÙħ
ĠÙģÙĬ Ø³Ø¨ÙĪÙĥ
Ø² Ø§Ø¡
ĠØ´ Ø§ÙĩØ¯
ĠØŃ ÙħØ¯
ĠÙĪØ§ÙĦ Ùĥ
ĠØ§ÙĦØ¬ Ø¯ÙĬØ¯Ø©
Ø³ÙĦ Ùĥ
ĠØ¨Ø§ÙĦ Ø¬
ĠØ¨Ø§ÙĦ Ø·
ĠØ§ÙĦÙĨ ÙĤ
Ø±Ø¨ ÙĪ
Ø±Ùĥ Ø²
Ø§Ø· ÙĬ
ĠØ¬Ø¯ÙĬ Ø¯Ùĩ
ĠØ§ÙĦØ§Ø® ÙĬØ±Ø©
ÙħØªØ¹ Øª
y a
Ġ H
ÙĨ ÙģØ³
Ø± Ø£
ĠÙĪ Ø³Ùħ
ĠÙģ Ø§ÙĦØŃ
ĠÙģ Ø®Ø±
ĠØª Ø±Ø¬
ĠÙĦ Ø§Ùĩ
ĠÙĨ Ø§ÙĥÙĦ
ĠÙĥ Ø§
ĠØ® ÙĪÙģ
ĠØ£ Ø±Ø¶
Ø§Ùģ Ø¹
ĠØ§ÙĦØ¹ Ø±Ø§ÙĤ
Ø±Ø¨ÙĬ Ø¬Ø§ÙĨ
ĠØ² ÙĬØª
ÙĪØ¬ ÙĬ
ĠØ·ÙĪÙĦ Øª
ĠÙĪÙĬØ³ ÙĥÙĨÙĩ
ĠØ§ÙĦØ´Ø¹ ÙĪØ¨
i b
Ġ an
Ùħ ØŃÙħØ¯
Ùĥ Ø«Ø±
ĠÙĪ ÙĩÙħ
ĠØ¬ Ø§Ø²
ĠØ³ ÙħØ§ÙĨ
Øº Ø§Ùħ
ĠÙĪØ§ÙĦ Ø¨
ĠØ¨Ø§ÙĦ Ø´
ĠØº Ø¯ÙĪØ©
ĠØ§ÙĦØ¨ Ø§Ø¬ÙĬ
ĠØ§Ø± ÙĬØ¯
ĠØ§Ø³Øª Ø§Ø°
Ġs o
ĠÙĦØ¨ Ø³
ĠØ´Ùģ ØªÙĥ
ĠÙĩÙħ Ùħ
ĠØ®ÙĦÙĤ Ùĩ
ĠØ§ÙĦ ÙĩÙħ
Ùĩ Ø§Ø¯ÙĬ
Ø¹ ÙħÙĬ
ĠÙĬ Ø§ÙĦ
ĠØ¨ Ø±Ø¬
ĠØª Ø¨ÙĬØ¹
ĠÙĥ Ø§ÙĦØ¹Ø§Ø¯Ø©
ĠØ± Ø²Ø§ÙĨ
Ø±ÙĬ ÙĦ
ĠØ³ ÙĬÙĨØ§Ø±ÙĬÙĪ
ÙĪØ± ÙĥÙħ
ĠØµ Ø¹Ø¨Ø©
ĠØ¨Ø§ÙĦ Ø³
ĠØ§ÙĦÙĨ ÙģØ³
ĠØ§ÙĦØª Ø¹Ø¨
ĠØ¯ÙĬØ± ÙĬ
ĠÙĩØ§Ø¯ Ø§Ùĥ
ĠØ§ÙĦÙģÙĬØ¯ÙĬÙĪ Ø§Øª
ĠØªØ¬ Ø¯
ĠØ§ÙĦØŃÙħØ¯ ÙĦÙĦÙĩ
ĠØ£Ùħ ÙĬÙĨ
ĠÙħØ³Øª ÙĤØ¨ÙĦ
ÙĦØ§ÙĦ Ø§
ĠÙĪØ§Ø¹ Ø±Ø©
ÙĬØ§Ø® ÙĪ
ĠØ§ÙĦÙħØ± Ø£Ø©
ĠØ§ÙĦØ´Ø±Ùĥ Ùĩ
Ġ K
Ġ N
Ø³ ÙĢÙĢ
ĠØ¨ Ø±ØŃÙħ
ĠÙĥ Ø§Ø³
Øµ Ùĩ
Ø±ÙĬ ÙĥØ§ÙĨ
ÙĦØ§ ÙĪÙĬ
ĠØ§ÙĦØŃ ØµØ©
ĠØ§ÙĦØª Ø±Ø¨ÙĬØ©
ĠØ§ÙĦØ´ Ø§Ø¨
ĠØ§Ø³ ÙħÙĪ
ÙĬØ´ Ø§Ùħ
ĠÙĪÙħ Ø²Ø§ÙĦ
Ø§ÙĦÙĬ ÙĪÙħ
ĠÙģØ§ÙĦ Øª
ĠØ³ÙĦ Ø·Ø§ÙĨ
ĠÙħØ® ØªÙĦÙģ
ĠÙĥÙħÙĦ Øª
ĠÙĨØ¯ Ø¹Ùħ
ĠØ§ÙĦØ±Ø¬ ÙĦ
ĠØ¹ÙĬ Ø§ÙĨ
ĠØ·ÙĪÙĬ ÙĦ
ĠØ§ÙĦØ²ÙĪ Ø§Ø¬
Ġ Ú¤
Ø± ÙģÙĬ
Ùĩ ÙĪØ©
Ø¹ Ø§Øª
ĠØ¨ ÙĬØ¯
ĠÙĦ Ø§Ø³
Ø¬ Ø§Øª
ĠÙĨ ÙĨØ³
ĠØŃ ÙĪØ³
ĠØ¯ ØŃÙħ
ĠØ¯ ÙĦÙĬÙĦ
ĠÙħØ¹ ÙĬØ§
ĠØº Ø§ÙĬØ©
ĠÙĥÙĦ ÙĨØ§
ĠØ§ÙĦØ¨ Ø¹
ĠÙħØª Ø¹Ø©
ĠØ§ ÙĤÙĦ
ĠØ§ÙĦØ³ Ø¤Ø§ÙĦ
ĠØ§ØŃ ÙħØ¯
ĠØ§ÙĦØµØŃ ÙĬ
ĠØ§ÙĦØ± Ø§Ø¨Ø¹
ĠØªÙħ ÙĨÙĬØª
ĠØ§ÙĦÙĩ ÙĨØ¯
ĠÙĪØ² ÙĬØ±
ĠØ¨Ø§ÙĦØ¹ ÙĥØ³
ĠØ¯ÙĤ ÙĦØ©
ĠØ§ÙĦÙĪÙĦ Ø§ÙĬØ§Øª
Ø¯ Ø§Ùħ
ĠÙĦ Ø§Ø¹
Ø§Ø± ÙĪØ§ØŃ
ĠÙħÙĨ ÙĨØ§
ĠØ¬ Ø¨Ø§ÙĦ
ĠÙĤ ÙĦÙĨØ§
ĠØ¨Ø§ÙĦ ÙĤ
ĠØªØ¹ ÙĨØ§
ĠÙĪÙĨ ØŃØ¨
ĠÙĬØ® Øµ
Ø¹ÙĦ Ø§Ø¨
ĠÙģØ± ÙĤ
ÙĦÙĪÙħ Ùĩ
ĠÙĪØ§Ø¹ Ø±
ĠÙħØ§ÙĥØ§ÙĨ Ø´
ĠÙĬÙģØ± ØŃÙĥ
g er
ĠØ§ÙĦ ÙĥÙħ
Ùĩ ÙĨØ§
Ùĩ Ø°
Øª ÙĦÙĥ
ĠÙħ Ø§ÙĨÙĬ
ĠÙħ Ø§ÙĦÙĥ
Ùģ ÙĬÙĨ
ĠØ¨ ÙĪØ±
ĠØª Ø±Ø¨ÙĬØ©
Ø¬ Ø§Ø²
ÙĪÙĨ Ø¯ÙĬ
ĠÙĤ Ø¯ÙĪØ©
ĠØ³ Ø·
ĠÙĪØ§ÙĦ Ø·
ĠØ¹ÙĨ ÙĩØ§
ĠØªØ¹ Ùĥ
ÙĦÙĤ ÙħØ§ÙĨ
ÙħÙĬ Ø³
Ø¯ÙĬØ± ÙĪÙĦÙĨØ§
ĠÙĪØª Ø´
ĠÙĪÙħ Ø´
ĠÙĪÙħ Ø§Øª
Ø¨ÙĬØ¨ ÙĨØ§
Ø§ÙĦØŃ Ø§Ø¬Ø©
ĠØ§Ø¨ ÙĬ
Ø¨ØŃ Ø±
ĠÙħØ§Ø´Ø§Ø¡ Ø§ÙĦÙĦÙĩ
Ġfa it
ĠØ´Ø±Ùĥ Ùĩ
ĠØ¬Ø²Ø§ÙĬØ± ÙĬ
ĠØ¨ÙħØ¹ ÙĨÙī
i ve
ĠÙĪ Ø°
ĠÙĬ ÙĤØª
ĠØª ØºÙĬØ±
ĠÙĦ Ø¯Ø§Ø±
ĠØ¹ Ø§Ø´Ø±
ĠØ¬ ÙĪØ±
ĠØ¯ Ø§
ĠØ§ÙĦØ¨ ÙĦÙĬ
ĠÙĬØª ÙĤØ¨ÙĦ
ĠÙħØ« ÙĦÙĥ
Ġd u
ĠÙĨØ³Øª Ø¹Ø±Ùģ
Ø¬Ø²Ø§Ø¦ Ø±ÙĬÙĬÙĨ
ĠÙħØªØ§Ø¨Ø¹ Ùĥ
Ø±ÙĬÙĥ ÙĬØ©
ĠÙĪØªØŃ ÙĬØ§
Ø§ÙĦÙĨ ÙĪØ±ÙĬ
ĠØ§Ø¯Ø¹ ÙĪÙĦÙĬ
ĠØ´Ø§Ùħ ÙĪØªÙĬ
ĠØ£ÙĪÙĤ Ø±ÙĪØª
ÙĪ Ø§ÙĨÙĬ
Ø¨ ÙĪØ±
ĠÙĬ ÙĪØ³Ùģ
Ø¬ ÙĪØ²
ĠØ± ÙĨÙĬ
Ø² Ø§Ùħ
Ø® ÙĬÙĦ
ĠÙħÙĨ Ø§Ø¸Ø±
ĠØ£ Ø¬ÙĦ
Ø§Ø¦ Ø¯
ÙĪÙħ ÙĬØ¯ÙĬØ§
ÙĥØ± Ùĥ
ĠØªØ¹ Ø§ÙĪØ¯
ÙĨØª ÙĩØ§
ĠØªØŃ Ø±
ĠØ§ÙĦØª ÙħØ±
ĠÙĥØ§ÙĬÙĨ ÙĬÙĨ
ĠØ³ÙĬ Ø§Ø±Ø©
ĠÙĪØ¨ ØŃÙħØ¯Ùĩ
Ø¯ÙĬÙĨ Ùĩ
ØªÙĩ Ø§Ø´
ĠÙĦÙĦÙħ ÙĦÙĬÙĪÙĨ
ĠÙĦØ£ÙĨ Ùĥ
ĠØ¹Ø¯ ÙĨØ§
ĠØ§ÙĦØºØ±Ø¨ Ùĩ
ĠÙĪØ¨Ø§ÙĦ ØªÙĪÙģÙĬÙĤ
Ġ Ã
ÙĪ Ø§ØµÙĦ
Ø§ÙĦ ÙħÙĪ
ĠÙĦ Ø§ÙĨÙĬ
ĠÙĨ Ø±Ø¨ØŃ
Ø¨ÙĬ Ø¹ÙĬ
ĠØ¬ Ùĩ
ĠØ¯ ÙĪØ±Ø©
ĠØ§ÙĦÙħ Ùĥ
ÙĪØ± Ùĩ
ĠØ¨Ø§ÙĦ Ø§Ùĥ
ĠØ¨ÙĦ Ø§ÙĬØµ
ĠÙĬØ¹ ÙĬØ·
ĠØ§Ø® ÙĪØªÙĬ
ĠØ§Ø¨ Ø§Ø±Ùĥ
ĠÙĬÙĨ Ø¬ØŃÙĥ
ĠÙĬØ³Øª Ø±
ĠÙħØ³Øª ØŃÙĬÙĦ
ĠÙĨØ¹Ø±Ùģ ÙĪ
ĠØ§ÙĦØ¨Ø± Ø§ÙħØ¬
ĠØ¨Ø§ÙĦØ¹ Ø±Ø¨ÙĬØ©
ĠØ¨Ø¬ Ø§Ùħ
ĠÙĤØ§Ø¯ Ø§
ĠØ§ÙĦØ§Ø¹ ÙħØ§ÙĦ
ØµÙĦÙĪ Ø³ÙĢÙĢ
o om
ĠØ§ÙĦ Ø§Øª
ĠÙħ Ø£
ĠÙħ ÙħØªØ¹
ĠÙĬ Ø§ÙĨ
ĠÙģ Ø¥ÙĨ
Øµ ÙĦÙĬ
Ø· Ø§Øª
Ø§Ùħ ØŃÙħØ¯
ĠØ´ Ø§Ø±Ùĥ
Ø£ ÙĪÙĦ
ĠÙĪØª ÙĨ
Ø¨Ø¹ ÙĬÙĨ
Ø¬Ø¹ ÙģØ±
ĠÙĪØµØŃ Ø§
Ã© r
ĠÙħÙħØª Ø§Ø²
ÙĨ ÙĪÙĨ
ĠØ§ÙĦ ÙĤØ¯ÙĬØ±
Ø¨ Ø§Ø¹
Ø¯ ÙĪÙĨÙĬ
ĠØª Ø·ÙĪØ±
ĠØ¬ Ø±
Ø§Ø¯ ÙĪ
ĠØ£ Ùģ
Ø§ÙĬ ÙĦÙĬ
Ø¸ Ø±ÙĪØ§
ĠØ¥ ÙĨØª
ØŃØ¨ Ø©
ÙħÙĪ Ø´
ĠØ¥ÙĨ Ùĥ
ĠÙĩØ§Ø° ÙĬÙĥ
ĠØ§Ø¹ ÙħØ§ÙĦ
Ø±Ø§Ùĥ Ùħ
ØªØ¹ ÙĦÙĬÙĤ
or t
ĠÙĪ Ø§Ùħ
ĠÙĪ ÙĤØ¯
ĠÙĬ ÙĥØ±Ùĩ
ĠØª ÙĪØ¹
ĠØª ÙģØ±ØŃ
ĠØ§ÙĨ ØªÙĬ
ĠØ³ ÙģÙĬØ±
ÙĪØ± ÙĨØ§
Ø« Ùħ
ÙĤÙĬ ÙĦØ§
ĠØ§ÙĦÙĥ Øª
Ø±Ø§ ÙĤÙĬ
ÙĪØ¨ Ø§Ø¡
ÙĪÙĩ Ø§Ø´
ĠÙĦÙĩ Ø¬Ø©
ĠØ³ÙĬ ÙĤ
Ġt h
ĠÙĬØ¯ ÙĪØ±
ĠÙĬØªÙģØ±Ø¬ ÙĪ
ĠØ§ÙĦØ§Ùħ Ø§ÙĥÙĨ
Ø±ØŃ ÙĦØ©
ĠØ§ÙĤ Ø±ÙĪØª
ĠÙģÙĥØ± ØªÙĨÙĬ
ĠØ·ÙĪÙĬ ÙĦØ©
ÙĨ ØŃ
ĠØ¨ Ø¯ÙĬ
ĠØ¨ ÙĦÙĪ
ĠØ¹ Ø§Ø¦
ĠØ¹ ÙĪØ¯
ĠØ¹ Ø§Ø¦ÙĦ
ĠÙĥ ÙĦØ§
ĠØŃ ÙĬÙĨ
ĠØ¯ ÙĪÙħ
Ø§Ø¦ ÙĨØ§
ĠÙĪØ§ÙĦ Ø«
Ø£ ÙĬ
ĠØº ÙĨÙĬ
ĠØ§ÙĦØŃ ÙĦØ§ÙĦ
ĠØ§ÙĦÙģ Ùĥ
ĠØ§ÙĦØ³ ÙĪÙĤ
Ø±Øª ÙĩØ§
ĠÙģØ§ÙĦ Ø¯
Ø¦ ÙĦØ©
ĠØªØ¨ ÙĪÙĨ
ĠÙĦÙĪ Ø§ØŃØ¯
ĠÙħØ§Ùĩ ÙĪØ´
ĠÙĬÙĩØ¯ Ø±ÙĪ
Ø§ÙĦ ÙĬÙĩ
Ùħ Ø´ÙĬ
ĠØ§ÙĦ ÙĤØ¯
ĠÙĬ Ø·ÙĬØŃ
ĠÙģ Ø§ÙĦÙĬ
ĠÙĥ Ø§ÙĦ
Ø§Ø¯ Ø¹
ĠÙĤ Ø§Ø±
Ø§ÙĬ Ø¹
ÙĥÙħ Ø§
ÙĨÙĬ ØªÙĬ
ĠÙħØ¹ ÙĨØ§ÙĩØ§
Ø³ÙĬ Ø§ÙĦ
Ø¨Ø§Ø±Ùĥ Ø¹ÙĦÙī
Ø¨Ø± ÙĨØ§ÙħØ¬
ĠØ§ÙĦÙģ ÙĤØ±
ÙĤÙĪÙĦ Ùĥ
ĠÙħØª Ø§Ø¨Ø¹Ø©
ĠØ§ÙĦÙĥ Ø¨
ĠØ§ÙĦØ£ Ø¹ÙħØ§ÙĦ
ĠÙĪÙĨ ØŃÙĨ
Ø²ÙĬØ¯ Ø´
ĠØ§Ø± Ø¬
Ø¤ ÙĦØ§Ø¡
ĠÙĪØ¨ ÙĬÙĨ
ĠÙĬØ³ ÙĩÙĦÙĥ
ÙĬØ¹ ÙĨÙĬ
ĠÙĪÙĤ Ø§ÙĦ
ĠØ§ÙĦØ§Ùħ Ø±
ĠÙĪÙĤØª Ø§Ø´
ĠØ±Ø§ ÙĤÙĬ
ĠÙĪØ§ÙĦØ¹ Ø§ÙģÙĬØ©
ĠÙħÙģÙĬ Ø¯Ø©
Ġ u
ÙĨ Ø¨ÙĬÙĨ
Ùħ ÙĬØ©
ĠÙĪ ÙģØ±
ĠÙĬ Ø³ÙĦÙħ
ĠØ¨ ØŃÙħØ¯Ùĩ
ĠÙĦ ÙģØ±
ĠÙĥ Ø°Ø§
ĠØ³ ØŃ
ĠØ¥ ØŃ
ĠØ§ÙĦØŃ Ø§ÙĦØ©
ĠØ· Ø¨ÙĬØ¹
ĠÙħØ« ÙĤÙģ
ĠØ§ÙĦØº ÙĨÙĬØ©
Ġc ou
Ø´ÙĬ Ø§Ø¡
ĠÙĨØ³ Ø§Ø¡
ĠØ¹ÙĤ ÙĦÙĬ
ĠØŃØ· ÙĬØª
Ġk h
ÙĤÙĬÙĤ ÙĬØ©
ĠØµØº Ø§Ø±
ĠÙĥØ« ÙĬØ±Ø©
rav o
ĠØºØ² Ø§ÙĦÙĬ
ÙĨØ¨ÙĬÙĨ ÙĢÙĢ
ĠØ§ÙĦ Ø±ÙĪØŃ
ĠÙĩ ÙĨ
ÙĬØ± ØŃÙħ
Øµ ÙĪÙĬÙĦØŃ
ĠÙĤ Ø¯ÙĬÙħ
ĠØ£ ÙħØ±
Ø§ÙĬ ÙĦØ©
Ø§Ø³ ÙĬØ©
ĠÙħØ§ ÙĤ
ĠØ¹ÙĨ Ø§Ø¨Ø©
ĠØ¨ÙĦ Ø¯ÙĬØ©
ĠÙĪÙĬ Øª
ĠÙĪÙĬ Ø¨Ø§Ø±Ùĥ
ĠÙħØª Ø´
ĠØ§ÙĦØ³ Ø¹Ø§Ø¯Ø©
ĠØ§ÙĬ Ø¬Ø§Ø¨ÙĬØ©
ĠØ§ÙĦØµ Øº
ĠØ§Ùĥ ØªØ±
ĠØ§ÙĦØ· Ø±ÙĬÙĤØ©
Ġs e
ĠØ§ÙĦÙħØ¹ ÙĦÙĪÙħØ©
ĠØªÙģ ØªØŃ
ĠØ§ÙĦÙĦ ØŃÙħ
ĠØ¹Ø´ Øª
ĠÙĪÙĬØ¹ Ø·ÙĬÙĥ
ĠØ¨Ø³ÙĬ Ø·
Ġcon t
ÙĪÙĦÙĪØ¬ ÙĬØ§
Ã ¨
ÙĪ Ø§ÙĪ
ĠØ§ÙĦ ÙĨÙĬ
ĠØ§ÙĦ ÙĬÙĥ
Ø¯ ÙĦÙĬ
ĠØ¨ Ø§Ùħ
ĠØª ÙĤØªÙĦ
ĠÙĥ Ø§Ø¨
ÙĦÙĬ Ø³
Ø· ÙģÙī
ĠÙĦÙĬ Ø§Ùħ
ĠÙĩÙĩ ÙĩÙĩ
ĠÙĥØ§ÙĨ Ø´
ĠØ§ÙĦØ¯ Ø®
ÙĦØª Ùĩ
ĠØ£ÙĨ ÙĩØ§
ĠÙĬØ® ÙĬ
ĠØ« Ø§ÙĨÙĬØ©
ĠØªØª Ø¹
ĠØ´ÙĥØ±Ø§ Ø§
en d
ĠØ³Ø¨ØŃØ§ÙĨ Ùĥ
ĠÙĬØŃØ¨ Ø³
ĠØ³Ùħ ØŃÙĦÙĬ
ĠÙĦØ¨ ÙĨØ§ÙĨ
ĠÙĬÙĪ ÙħØ§
ØªØ¹ Ø¬Ø¨ÙĨÙĬ
ĠØ§ÙĦÙģÙĬ Ø²Ø§
ĠØ£Ø¹ Ø·
ĠØ³ÙĪ Ø§Ø¡
ĠÙĨÙĥ ØªØ¨
ĠØ³Ø¹ÙĬØ¯ Ø©
p p
ÙĦ ÙĪÙĨ
ĠÙĪ Ø¶
ĠÙĪ Ø£ÙĨ
ĠØª ÙĪØ¬Ø¯
ÙĦÙĬ Øª
Ø¨ÙĬ ÙĤ
ĠØ¬ Ø¯Ùĥ
Ø§Ø¯ Ø§Øª
ĠØ£ ÙĪØ±
ĠØ§ÙĦÙħ Ø¨
ĠÙħØ¹ ÙĩØ§
ÙģÙĬ Ø²
ĠØ¥ ÙĦÙĬÙĥ
ĠØªØŃ ØªØ§Ø¬
ĠØ§ÙĦØ´ ÙħØ³
ĠØ§Ùħ ÙĬ
ĠÙĬÙĥÙĪÙĨ ÙĪØ§
Ġv id
ĠØµÙĦ Ø§ØŃ
ĠÙħÙĬØ³ Ø§Ø¬
ĠØ§ÙĦÙĤØ§Ø¯ ÙħØ©
t er
ÙĨ Ø¨ÙĬÙĦ
Ø¯ ÙĪÙĩ
ĠÙħ ÙģÙĬØ¯
ĠÙĬ ÙĤØ¯Ùħ
ĠØª Ø±Ùģ
ĠØª ÙĥÙĨ
ĠØª Ø³ÙħÙī
ĠØ¹ Ø¸ÙĬÙħ
ĠÙģÙĬ ÙħØ§
Øµ Ø¨ØŃ
ĠØ´ ÙĥÙĦ
ÙĪÙĨ ÙĪ
ĠÙĤ Ø±Ø§
ÙĤÙĬ ØªØ´
ÙħØ¹ ÙĦÙĪÙħØ§Øª
ĠØ§ÙĦØ£ Ø®ÙĬØ±
ĠØ§ÙĦØµ ØºÙĬØ±
ĠÙħØŃÙħØ¯ Ø§ÙĦÙĦÙĩÙħ
ĠÙħØ³ Ø¤
ĠØ®ÙĦ Øµ
ĠØ¯Ø± ØªÙĪ
ĠØ¯ÙĬÙĨ Ø§Ø±
ĠØ§ÙĦØ±ØŃÙħ Ø§ÙĨ
ĠØ´Ø±Ùĥ Ø©
ĠØ±Ø£ ÙĬ
ĠÙĪØ§ÙĤ Ø¹
ĠÙħÙģÙĩÙħ ØªØ´
ÙĦÙħÙĪ Ø¨Ø§Ø±ÙĥØ¹ÙĦÙī
ØµÙĦÙĪØ³ÙĢÙĢ ÙĦÙħÙĪØ¨Ø§Ø±ÙĥØ¹ÙĦÙī
ÙĨØ¨ÙĬÙĨÙĢÙĢ Ø§ÙħØŃÙħØ¯
ØµÙĦÙĪØ³ÙĢÙĢÙĦÙħÙĪØ¨Ø§Ø±ÙĥØ¹ÙĦÙī ÙĨØ¨ÙĬÙĨÙĢÙĢØ§ÙħØŃÙħØ¯
Ġ I
Ġ ha
ÙĨ Ùģ
ĠØ§ÙĦ Ø§Ø³Ùħ
ĠÙģ Ùħ
ĠØª ÙĬØ¨
ĠÙĦ Ø³Øª
ĠØ¬ ÙĪØ¯Ø©
ĠÙĤ ÙĪÙĦÙĪ
ĠÙĪØ§ÙĦ Ø®
ĠÙħØ¹ ÙĦÙħ
ĠØ¨Ø§ÙĦ Ø®ÙĬØ±
ÙĪÙħ Ùĩ
ĠØ§ÙĦÙĨ Ø¹
ĠØ² Ø¯Øª
ĠØ§ÙĦØ® Ø§Øµ
ĠØ§ÙĦØ¥ Ø³Øª
ĠØªÙģ Ùĥ
ØºÙĬ Ø³
ĠØ¯Ø±Øª ÙĩØ§
ĠÙĥØ± Ùħ
ĠÙģÙĥ Ø§ÙĩÙĬ
ÙĦ Ø¬
Ø¯ ÙĪÙĨ
ĠØ¨ Ø¨
ĠÙĨ ÙĦØŃÙĤ
ĠÙĥ Ø§Øª
ĠÙĥ ÙĦÙĩÙħ
Øµ ÙĦÙĪØ§
Ø§Ùħ ÙĦØ©
ĠØ´ Øª
ĠØ¬ ÙĬÙĪ
Ø« ÙĬ
ĠÙĬØ¹ ÙĪØ¯
ĠÙĦÙĦ Ø³
ÙĦØª ÙĩØ§
ĠØ¶ Ø±Ùĥ
Ø±Øª Ø§ØŃ
ĠÙĤØ§ÙĦ ÙĪØ§
ĠÙĨØŃ ØªØ§Ø¬
Ġd ans
ĠØ° Ø§
ĠØŃØ¨ Ø³Øª
ĠÙĬØ´ÙĪÙģ ÙĪ
ĠØ¨Ø´ ÙĥÙĦ
ĠØ³ÙĪ Ø¡
ĠØµØ¹ ÙĬØ¨Ø©
ĠÙĨØ± ÙĤØ¯
o d
ÙĪ Ø®
ĠÙħ ÙĦØŃ
ĠÙĬ Ø³Ø¨
ĠÙĬ ÙĥÙĨ
ĠØª ÙĪÙģÙĬÙĤ
ĠØª Ø±Ø¯
ĠÙĦ Ø§Ø²
ĠÙĦ Ø§ÙĥÙĨ
ĠØ¹ Ø²ÙĬØ²
ĠÙĩ Ø§Ø±Ø¨
ÙĨØ§ Ùħ
Øµ ÙĬÙĦ
Ø· Ø¹
Ø§Ø¯ ÙĬØ©
ĠØ³ ÙĬÙĨ
ĠØ³ ÙħØ§
Ø§Ø³ Ø¹Ø©
Ø§Ùĩ Ø¯ÙĬÙĨ
ĠØ¨Ø§ÙĦ ÙģØ±
Ø§Ø±Ùĥ Ø©
ĠØ§ÙĦØŃ Ø±Ø¨
ĠØ· ÙĦØ©
ĠØ§Ø® ÙĦØ§ÙĤ
ØŃØ¨ Ø´
ĠØ§ÙĦØ¬Ø²Ø§Ø¦Ø± ÙĬÙĨ
Ø§Ø· Ø§
ĠØ§Ø³ Ø·ÙĪØ±Ø©
ĠØ§Ùħ Ø§Ùħ
Ø¹ÙĦ ÙĨØ§
ĠØ§ÙĦØ« Ø§ÙĨÙĬØ©
ĠØ§Ø¯ Ø®ÙĦ
ĠØ¨Ø§Ø¨ ÙĪØ±
ĠÙĪÙģ ÙĤ
ĠÙĨØ±ÙĪØŃ ÙĪ
ĠØ²ÙĪ Ø§Ø¬
ĠØ§ÙĦÙħØª Ø§Ø¨Ø¹ÙĬÙĨ
Ø²ÙĪ ÙĪÙħ
ĠÙĬØ¬Ø¹ ÙĦÙĩØ§
Ø§ÙĦ ÙģÙĬØ¯ÙĬÙĪ
Ø± Ø§ØŃØ©
Ùĥ Ø§ÙĦ
Ø¯ Ø¨
ĠÙħ Ø§ÙĦÙĬ
ĠÙħ ÙĤØ·Ø¹
ĠÙģ ÙħØ§
Ø§ÙĨ Ùĩ
Ø§ÙĨ Ùĥ
Ø² ÙĪÙĨ
ĠÙħÙĨ Ø¹Ø±Ùģ
ĠØ§ÙĦÙħ Ø¤ÙħÙĨ
Ø° Ùĥ
ĠÙĦÙĬ Ø´
ĠØ§ÙĦØŃ ÙĥÙħ
ØªÙĥ Ø´
ĠØ§Ùĥ ÙĦ
ĠØ¥ÙĨ ÙĩØ§
ĠÙĪØ¬ Ø¹
ĠÙĨØ´ Ø±
ĠØ´Ùģ ÙĨØ§
ĠÙĩØ§Ùĥ Ø§
ĠÙĦØ§Ø´ Ø§ÙĨ
m a
ÙĪ Ø§Ùĥ
ĠØ§ÙĦ ÙĪØ¨Ø§Ø¡
ĠÙĪ ÙĬÙĥ
ĠÙħ ÙĪÙĨ
Ø¹ Ø¬Ø¨
ĠØª ÙĥÙĦ
ĠÙĦ Ø¢
ĠÙĩ Ø¨ÙĦ
Ø· Ø±Ø©
ĠØ´ Ø¹Ø±
ĠØ´ Ø§ÙĬÙģ
ĠØ® Ùħ
ĠØ® Ø¨ÙĬ
ĠØŃ Ø§Ø´
Ø¶ ÙĬÙģ
Ø±ÙĬ ÙħØ©
ĠØ¯ Ø¬
ĠØ§ÙĦÙħ ØªÙĪ
Ø§Ø¨ ÙĦØ©
Øº ÙĨÙĬØ©
ØªÙĬ Ø´
ĠØ· Ø¨
ĠÙĪÙĬ ÙĥÙĪÙĨ
ĠØ§ÙĦÙĤ Ø¯ÙĬÙħ
ĠØ§ÙĦØ· Ø§ÙĤØ©
ĠØªØ³ ÙħØ§
ĠÙĥÙĪÙħ ÙĬØ±
ĠØ±Ø§ÙĬ ØŃØ©
ĠØ¹ÙĤ ÙĦÙĬØ©
ĠØŃÙħ ÙĬØ¯
ĠÙĬØ®Ø¯Ùħ ÙĪØ§
ĠØ·ÙĦØ¹ Øª
ĠØ§ÙĦÙĤÙĬ ÙħØ©
Ø§ÙĦÙĨ Ø¬Ø§ØŃ
ĠÙĦØ§ØŃ Ø¸
ĠÙĥÙĪØ± Ø§Ø¬
Ġ P
ĠØ ©
Ùħ Ø§Ø´ÙĬ
Øª Ø®Ø±
ĠÙħ Ø±ÙĪ
ĠÙħ ÙħÙĬØ²
ÙĤ ÙĬØ©
ĠÙĬ Ø±Ø¨ØŃ
ĠØ¨ Ø§Ø³Ùħ
ĠØ¨ ØŃÙĤ
ĠØª Ø±Ø¨
ĠØª ÙĥØ±Ùĩ
ĠÙĨ ØµØŃ
ĠÙĨ Ø¨ÙĬØ¹
ĠØ± Ùģ
Ø¨ÙĬ Ø§Ø¡
Ø¯ÙĬ Ø§
ĠØ³ ÙĦÙĬ
Ø§Ø¦ Ø¯Ø©
ĠØ§ÙĦØ¬ ÙħØ§ÙĦ
ĠÙħØ¹ Ø¬Ø¨
ØªÙĬ Ùħ
ÙĪÙħ ÙĨ
ĠØ§ÙĦØª Ø±Ø¬ÙħØ©
ĠÙĦÙĦ Ùģ
Ø´ÙĪÙģ ÙĪ
ĠØ§ÙĦØ£ ÙĨ
ÙĥÙĬ ÙħØ§
ĠØ§Ø¨ Ø¯Ø§Ø¹
ÙħØ« ÙĦØ©
ĠØªÙĤ Ø¯ÙĬÙħ
ĠÙĬØ¬ ÙĪ
ĠØªØª ÙħÙĨÙī
ĠØ§ÙĦØ¥ ÙĬ
ĠÙĬØ³ ÙĥÙĨ
Ġm on
ĠÙĬÙĪÙħ ÙĬÙĨ
ĠØ§Ø³Øª Ùģ
ĠÙĥÙĪÙĨ Øª
ÙĪØ§Ø± Ø¹
ĠØŃÙĥ Ø§ÙĬØ©
ĠØ§ÙĦØ±Ø³ Ø§ÙĦØ©
ĠØ¹ÙĦØ§Ø¨ Ø§ÙĦÙĥ
ĠØªÙĨØ³ Ùī
ĠØŃÙĦÙĪ Ø©
Ø± ØºÙħ
Ùĩ Ø¯ÙĬ
Øª Ø±ÙĬ
Ø¨ ÙĤÙī
Ø¹ Ùī
Ø³ Ø§
ĠØ± Ø®ÙĬ
ĠØ¬ ÙĩØ©
ĠØ¯ ÙĬØª
ĠØ§ÙĦØ¹ ÙĬØ´
Ø±ÙĪ Ùĩ
ĠÙĬØŃ Ø³
ĠØ² Ø±
ĠØ§ÙĨØª Ø§
Ø³ÙĨ Ø©
ĠØ¯ÙĬØ± ÙĦÙĬ
ĠÙħØ³ Ùĥ
ĠØ§Ø´ ØªØ±Ø§Ùĥ
ĠÙĥÙĪÙħ ÙĬØ¯ÙĬØ§
Ø¯Ø¹ ÙħÙĪ
ĠÙħÙĦØ§ØŃ Ø¸Ø©
ĠØ¨Ø³ÙĬ Ø·Ø©
ÙĩØ§Ø° ÙĬ
ĠØ§ÙĦØ¹ÙĤ ÙĦÙĬØ©
ĠØ§ÙĦØ±ÙĬ Ø§Ø¶
ĠØ§ÙĦØ¨ÙĦÙĬ Ø¯Ø©
Ø§ÙĦ ÙĩØ§
Øª Ø±Ø¨
Øª Ø¨Ø§Ø±Ùĥ
ĠÙħ ÙħØ§
ÙĤ Ø§ÙĪ
ĠØ¨ ÙĪØª
ĠØ¨ Ø§Ø±ÙĬØ³
ĠØ¹ Ø§ÙĦÙĬ
ĠÙĨ ÙĨØª
ĠÙĨ Ø¨Ø¯
ĠØŃ Øµ
Ø§ØŃ Ø¸
ĠØº Ø§Ø¶
Ø¸ Ø§Ø±
ĠÙĬØ§ Ø§
ĠÙĦÙĦ ÙĨ
ĠØ§ÙĨØª Ø§Ø¹
ÙĥÙĬ ÙĦ
ĠØ¨Ø¹Ø¯ ÙĩØ§
ĠØ³ÙĬ Ø§ØŃÙĬØ©
Ġm e
ĠØ¨Ùĩ Ø°Ùĩ
ĠØ®Ø· Ø£
Ø¨ØµØŃ ØªÙĥÙħ
ĠØ¹ÙħØ± ÙĩØ§
ĠÙĬØ§Ø± ÙĬØª
aw ed
b l
f f
ÙĪ ÙĤØª
Ùĩ Ø°Ø§Ùĥ
Øª Ùģ
Ø¨ Ø§ÙĬÙĨ
ĠÙĪ Ø§Ø³Øª
ĠÙĬ Ø¤
ĠØ¹ Ø§Ø¦ÙĦØ©
ĠØ± ÙĬØ³
ĠÙĩ Ø¨Ø·
Ø· ÙĦ
ĠØ£ Ø¨ÙĪ
ĠØ³ ÙĦØ§
Ø§Ø³ Ø¨Ø©
ÙĦØ§ ÙĤØ©
ĠØ· Ø¨Ø¹Ø§
Ø¨Ø± Ø§ÙĩÙĬÙħ
ĠØ§Ø³ ÙħÙĬ
ĠØ§Ø³ ÙĦØ§Ùħ
ĠØ§ÙĦØ£ ÙħØ±
ĠØ§ÙĦØ® Ø§ÙĦÙĤ
ĠÙĬØ±ØŃÙħ ÙĩÙħ
ĠØ¶ ÙĬ
ĠØ§Ùģ ÙĥØ§Ø±
ÙĬÙĪ Ø§ÙĨØ§Øª
ĠÙĩØ§ÙĬ ÙĦÙĬÙĨ
ĠØªØŃØ¨ Ø³
ĠÙĤØ± Ø¹Ø©
ĠØ§ÙĦØ¶ ÙĬÙģ
ĠØŃØ· Ø§Ø¨
ĠØ§ÙĦØªÙĪ Ø§ØµÙĦ
ĠÙĪÙĬØ´ Ø§ÙģÙĬ
ĠØ§ÙĦÙĥØ± Ùħ
ĠØ§ÙĦØ§ÙĬ Ø§Ùħ
ĠØ§ÙĦØ§ÙĬ Ø¬Ø§Ø¨ÙĬØ©
ĠA l
ĠÙĨÙĦÙĤ Ùī
ĠØ§ÙĦØ§Øº ÙĨÙĬØ©
ĠÙĤÙĦÙĬ ÙĦØ©
ĠØ§ÙĦÙĦÙĪ ØŃ
ĠØ§ÙĦÙģÙĤ Ø±Ø§Ø¡
s e
ÙĬ Ø¯ÙĬØ©
ÙĪ Ø§ÙĨØ§
Ø± Ø§Ø´ÙĬ
Ø¹ Ø§ÙĨ
ĠÙģ Ø§Ø¹
ĠØ¹ Ø¯Ø©
Ø® ÙĦÙĪØ§
Ø· Ø§
ĠØ£ Ø³Ø¨
ĠÙĦÙĬ Ùģ
ĠØ¨Ø§ÙĦ ØµØŃ
ÙĪÙħ Ø§Øª
ĠØ§ÙĦØŃ ÙĪ
ĠØ§ÙĦÙĨ ÙĩØ§ÙĬØ©
ĠØ§ÙĦØ´ ÙħØ§ÙĦ
ĠØµØŃ ÙĬ
ĠØ§Ùħ Ø§ÙĥÙĨ
ĠÙħØŃ ØªØ±Ùģ
ĠØ¯ÙĬØ± ÙĪÙĨØ§
ĠØ§ÙĦØ± Ø§Ø¬ÙĦ
ĠÙĩØ§Ø¯ ÙĪÙĥ
ĠØ§Ùģ ÙĩÙħ
ĠÙĪØ¬ ÙĪÙĩ
ĠØ¹ÙĨØ¯ÙĬ Ø´
ĠØ¨ÙĨ Ø§Ø¡
ĠØªØª Ø²ÙĪØ¬
ĠØ¨Ø¹ Ø«
an ce
ĠÙĬØ¨ ÙĬÙĨ
ĠÙĬÙĤ ÙĪÙĦÙĬ
Ø²Ø§ÙĨ ÙĬØ§
ĠÙĨØªØ¨Ø¹ Ùĥ
ĠÙģØ§ÙħÙĬ ÙĦÙĬ
ĠØ³ÙĪØ± ØªÙĪ
ĠÙħØŃÙħØ¯Ø§ÙĦÙĦÙĩÙħ ØµÙĦÙĪØ³ÙĢÙĢÙĦÙħÙĪØ¨Ø§Ø±ÙĥØ¹ÙĦÙīÙĨØ¨ÙĬÙĨÙĢÙĢØ§ÙħØŃÙħØ¯
Û ĥ
Ġ E
Ùħ Ø¨Ø±
Ùĥ ÙĦÙĩ
Ùģ ÙĦÙĬ
Ùģ Ø±Ø©
ĠÙĬ Ø§Ø³
ĠØª Ø±ÙĬØ¯
ĠØ¹ ÙĦØ§ÙĤ
ĠØ£ Ø¨ÙĬ
ĠØ§ÙĦÙħ Ø¨Ø§Ø±Ùĥ
Ø§Ø¦ Ø¨
ĠÙĪØ§ÙĦ ÙĦÙĬ
Ø³ÙĦ ÙħØ©
ĠØ¨Ø§ÙĦ Ø¬Ø²Ø§Ø¦Ø±
ÙģÙĬ ÙĤ
Ø±Ø¬ Ø¹ÙĪ
ĠØ§ÙĦÙĨ Ùģ
ĠØ· Ø¨ÙĬØ¨
ÙĤØ¯ Ø©
ĠØ§ÙĦØ¨ Ø´
ĠØ§ÙĦØ³ ÙĬÙĨØ§Ø±ÙĬÙĪ
ĠÙĬØª Ùħ
ÙĦØª ÙĨØ§
ĠÙģØ§ÙĦ Ø¬
ĠØ¯ÙĬ Ø³ÙĦØ§ÙĬÙĥ
ĠØ§Ø± Ø²ÙĤ
ĠÙĬÙĥÙĪÙĨ ÙĪ
ĠØ¯Ø§Ø± ÙĨØ§
ĠØ§ÙĦÙħØº Ø±Ø¨ÙĬ
ĠÙħØ¬ ØªÙħØ¹
ĠØ§ÙĦØ§ÙĨ Ø¬ÙĦÙĬØ²ÙĬØ©
ĠØ®ÙĦÙĬ ÙĨØ§
Ø¨ ØªÙĥ
ĠÙĪ ØŃØ¨
ĠÙħ ÙĬÙĥ
ĠÙħ Ø§ÙĨØª
Ø¹ Ø§
ĠÙĨ ÙĤÙĬ
ĠØ± ÙĨØ§
ĠØ± ÙħØ¶
Ø· ÙĦØ¨
ĠÙĤ Ø§Ø±Ø©
ĠØ§ÙĦÙħ Ø§Ø¶ÙĬ
ĠØ³ Ø±ÙĤ
ĠØ³ ÙĪÙĬØ³
ĠØ§ÙĦØ¹ Ùģ
ĠÙĥÙĦ ÙħØ§
ĠØ§ÙĦØŃ ÙĦÙĪ
ĠÙĨØª Ø§ÙĪ
Ø¨ÙĦ Ø¯
ĠØ§ÙĦØ´ Ø¹Ø±
ĠØ§ÙĦÙģ Ø±ÙĤ
ĠØ§ÙĦÙĤ Ø§Ø¯Ø±
ĠÙģØ§ÙĦ Ø´
ĠØ° ÙĩØ¨
ĠÙĪØ± Ø§ÙĨØ§
ĠØ§ÙĦØ² ÙħÙĨ
ĠÙĬØ¨ Ø¹Ø¯
ĠØ±Ø¨ ÙĨØ§
ĠØªØµ ÙĦØŃ
ĠØ§ÙĪÙĦ Ø§
ĠØªØ´ÙĪÙģ ÙĪ
ĠÙħØ§Ø± Ø³
ĠØ¯ÙĬÙĨ Ùĥ
Ø¯ÙħÙĪ Ø¹
ĠØ§ÙĦØ¯Ø¹ Ø§Ø¡
ĠØ¨Ø§ÙĦÙĦ ØºØ©
p e
Ġ ÛĮ
Ùħ Ø±Ø©
Ø± ÙĨ
ĠØ§ÙĦ Ø²ÙĬ
Ø¨ ÙĦÙĪ
Ø¨ Ø§Ø·
Ø³ ÙħØ§
ĠØ¨ ÙĦÙħ
ĠÙģ ØŃ
Ø§ÙĨ ÙĪ
Ø¬ ÙĨ
ĠÙĨ ÙĤØ·Ø©
ĠÙĪØ§ÙĦ ÙĨØ§Ø³
Ø§Ùĩ ÙĪ
Ø§ÙĪ Ùĩ
ØŃÙĥ ÙĬ
ĠØ§Ø® ÙĪØ§ÙĨÙĨØ§
ĠÙĪÙĬ Ø³Øª
ĠÙĬØŃÙģØ¸ ÙĩÙħ
ĠØ§ÙĦØº ÙħØ©
ĠÙĪØ¬ ÙĦ
ĠÙĪØ¬ Ø¯
Ø´ÙĬ Ø¡
ĠÙĨØŃØ¨ ÙĪÙĥ
ĠÙĬØ¯ Ø¹Ùħ
ĠØ¶ØŃÙĥ ÙĨÙĬ
ĠÙĬÙĨ ÙĤØµ
ĠØ¹Ø§Ùħ Ø©
ĠÙħØ§Ùĥ Ø§Ø´
ĠÙħØ³Øª Ø¬Ø§Ø¨Ø©
ĠØ£ÙĨØª Ùħ
ĠØ§ÙĨÙĬ Ø³
ĠØªÙĦÙĤ Ø§
if f
ĠØ®ØµÙĪ ØµØ§
ØºØ§ÙĨ Ùħ
Ø§ÙĦ ÙĩÙħ
Ø¨ ÙĪÙĥ
ĠÙĪ Ø§Ø°Ø§
ĠÙĪ Ø·ÙĨ
ĠÙĪ Ø¹ÙĦØ§Ùĩ
ĠÙħ Ø§ÙģÙĬ
ĠÙĬ Ø¯ÙĪ
ĠÙĦ ØªØŃ
ĠÙĨ Ø§ØŃÙĬØ©
ĠÙĥ Ø°
ĠØ± ÙĪÙħ
Ø§Ø± Ø¶
Ø±ÙĬ Ø§
ĠØ§ÙĦÙħ ÙĬØª
ĠØ³ Ø§Ùĩ
Ø§Ø¨ Ùĥ
ĠØµ Ø§Ø±
Ø±Ùĥ Ø§Øª
ĠØªØŃ ÙĬØ§ØªÙĨØ§
ĠØªØŃ ÙĪÙĬØ³Ø©
ĠØ§Ø® Ø±ÙĬÙĨ
ÙĤÙĪÙĦ ÙĪ
Ø§Ø· ÙĨ
Ø§Ø· Ø¦
ĠØ±ÙĪ Ø·Ø§Ø±
ĠÙĪÙĦ Ø§ÙĬØ§Øª
ĠØ§ÙĦØ® Ø±
ĠØ§Ùħ ÙĪØ±
ĠÙĪÙħ Ø§Ø²Ø§ÙĦ
ĠÙĪÙĨ Ø³
ĠÙĪÙĩ Ø°
ĠØ° ÙĪ
ĠÙĬØ¬ Ø±ÙĬ
Ø®Øµ ÙĪØµ
ĠØªÙĪ ÙĪØ¨
ĠÙĨØ® ÙħÙħ
Ġa u
ĠÙĪÙħÙĨ ÙĥÙħ
ĠÙģÙĪØ± Ùħ
ĠÙĬØ±Ùģ Ø¹
ĠÙħØ§ÙģÙĬÙĩ Ø§Ø´
ĠØ§ÙĦØ£ÙĪ ÙĦÙī
ĠØ¯ÙĬØ¯ ÙĬÙĨ
Ġ F
ÙĪ Ø¯ÙĬ
Ø¹ Ø´
ĠÙĬ ØªÙĪ
ĠÙĦ ÙģÙĬ
ĠÙĦ ØªÙħ
ĠØ¹ ÙħÙĪ
ĠÙĥ Ø±Ø©
ĠØ± ÙĬÙħ
ĠØ¬ Ø±Ø¨
ĠØ¬ Ø¨ÙĦ
ÙĪÙĨ ØªÙĬ
ĠÙĤ Ø¯ÙĬØ±
ĠØµ Ø±Ø§Øª
ĠØ¨Ø§ÙĦ ÙħÙĨ
ĠØ¥ Ø¨Ø±Ø§ÙĩÙĬÙħ
ĠØ¨ÙĦ Ø¯Ùĥ
ĠØ· Ø±
ĠØ· ÙħÙĪØŃ
Ø§Øµ ÙĬ
ĠØ§ÙĦØ´ Ùĩ
ĠØ§ÙĦØ´ ÙĥØ±
ĠØ§ÙĦØ£ ÙģØ¶ÙĦ
ĠØ§ÙĦÙĪ Ø²ÙĬØ±
ĠØ¯ÙĬ Ø§ÙĦÙĬ
ĠÙĪÙĩ Ø°Ùĩ
ĠØ° Ùĩ
Ø´ÙĬ Ø·
ĠØªØ¬ Ø±ÙĬ
ØŃØ§ÙĦ Ø©
ĠØ§ÙĦÙħØ´ Ø§ÙĩØ¯Ø©
Ġs ur
ĠØ§ÙĦÙħØ³ Ø¬Ø¯
il le
ĠØ§ÙĦÙģØ± ÙĨØ³ÙĬ
ĠØ§Øº ÙģØ±
ĠÙĨÙĩ Ø¶Ø±
Ø¨Ø® Ø¨Ø®
ĠØ¯ÙĤ Ø§ÙĬÙĤ
Ø¨Ø² Ø§Ùģ
ĠØµØ¯ ÙĤØ©
ĠØªÙģÙĥØ± Øª
ĠØ§ÙĦØ¨Ø¯ Ø§ÙĬØ©
ĠØ´ÙģÙĬ Ø¹ÙĨØ§
l a
t o
Ø¯ ÙĩØ§
ĠÙĬ ÙĥÙħ
ĠÙĬ Ø§Ø³Ø±
ĠÙģ ÙĩÙĬ
Ø´ ÙģØª
Ø² Ùĩ
ĠØ´ ÙĬÙĥ
ĠÙĤ Ø§Ùħ
ĠØ§ÙĦÙħ Ø¯
Ø§Ø¨ ÙĬØ©
ĠØ§ÙĦØ¹ ÙģÙĪ
ĠØ§ÙĦØ¹ Ø§Ø¬ÙĦ
Ø§ÙĨÙĬ Ø§Øª
ĠÙħØª Ùģ
ĠØ§Ø³ Ùĥ
ĠØ§ ÙĩÙħ
ÙĥÙĦ Ø§Ùħ
ĠØ£ÙĨ Ø¸Ø±ÙĪØ§
ÙĪÙĦÙĬ Ø³
ĠØ¶ Ø±Ø¨Ø©
ĠØ§ÙĦØµ ÙħØ¯
ĠØ§Ø± Ø¨Ø¹
Ġd iff
ĠØ¨Ø± Ø§ÙħØ¬
Ø´ÙĬ Ø®
ØªÙħ Ø§Ø¹ÙĬ
ØºÙĬ Ø¶
ĠØ¹Ø§ÙĬØ´ Ø©
ĠÙĥÙĨ Ø¯Ø§
Ġfa ire
Ø²ÙĬØ± ÙĬØ©
ĠÙĥØ§Ùħ ÙĦØ©
ĠÙĥÙģ Ø§Ùĩ
ĠØµØ¯ÙĤ ÙĨÙĬ
ĠØ±Ø§Ø¬ Ø¹ÙĪÙĨ
ĠÙħØ§ÙģÙĩÙħ ØªØ´
ĠØ§ÙĦÙħÙħÙĦÙĥ Ø©
Ø±ÙĪÙĬ Ø¬
ĠØ¨ ÙĩØ¯
ĠØ¹ ÙģÙĪ
ĠÙĨ Øº
ĠÙģÙĬ Ø¯ÙĬÙĪØ§
Ø® Ùħ
ĠØ´ Ø±ÙĤ
Ø£ Ø¬ÙħÙĦ
Ø« Ø±Ø©
ØµØŃ Ø±Ø§Ø¡
ĠÙĦÙĦ Ø®
ĠØ§ÙĦØ¨ Ø§Ø±ØŃ
ĠØ§ÙĦØ£ ÙĤÙĦ
ĠÙģÙĬØ¯ÙĬÙĪ Ø§ØªÙĥ
ĠØ§ÙĦØ¬Ø²Ø§Ø¦Ø±ÙĬ Ùĩ
ĠØªØ¨ ÙĥÙĬ
ÙĩØ§Ø± Ø§Øª
ĠÙĪØ£ ÙĨØª
ĠØ§Øµ ØŃØ§Ø¨
ĠØ§ÙĦØ§Ø® Ø±Ùī
Ø¬Ø²Ø§Ø¦ Ø±ÙĬ
ĠØŃÙħ Ø§Ùħ
ĠØ¬ÙĨ ÙĪØ¨
ĠØ§ÙĦÙģØ± ØŃØ©
ĠØ§ÙĦØ¸ Ø§ÙĦÙħÙĬÙĨ
ĠÙĦÙĦØ¬ ÙħÙĬØ¹
Ġvo is
ĠÙĨØ²ÙĪØ± ÙĩØ§
ĠÙħÙĬÙħ ØªÙĥ
i que
ÙĪ Ø§Ø¨
ĠØ§ÙĦ ÙĪØ§Ø¯
Ø¨ Ø±ÙĬ
ĠÙĪ Ø§Ùģ
ĠÙĪ Ø§Øº
ØŃ ÙĬÙĨ
Ùģ ÙĨØ§
ĠÙĬ ÙĪØ³Ø¹
Ø´ ÙĥÙĦ
ĠØ¹ Ø§ÙĦÙĬØ©
ĠÙĥ Ø§ÙĦÙĬ
ĠØ± Ø§ÙĨ
ÙĦÙĬ Ùģ
Øµ ÙĦØŃ
Ø· ÙģØ§ÙĦ
ĠØŃ Ø³ÙĬ
ĠØ£ Ø°
ĠØ¯ Ø²ÙĬØ±ÙĬ
ÙĪÙĦ Ø´
ØªÙĬ Ø§Ø²
Ø§Ø¬ Ùĩ
ĠØ¨ÙĦ Øº
ĠÙĬØ¹ ÙĬÙĨÙĥ
ĠØªØŃ ÙĤÙĤ
ĠØ§Ø® ØªÙĥ
ĠÙĪÙĦØ§ ÙĪ
ĠØ¨Ø¯ ÙĬÙĨØ§
Ġm ar
ĠÙĨÙĤÙĪÙĦ ÙĪØ§
ĠÙĦØ§ÙĨ ÙĩØ§
ĠÙħØ¬ ÙĬØ¯
ĠØ¬Ø² Ø§Ø¡
ĠÙħØ¨ Ø¹Ø¯
ĠÙĥØª ÙĬØ±
ĠØ§Øº ÙĦØ¨
ĠØ¯Ø¹ Ø§Ø¡
ĠØ¬ÙĬØ¯ Ø§
ĠØºÙĦ Ø·Ø©
ĠØ§Ø¹Ø· ÙĬÙĨÙĬ
ĠØ§ÙĦØ³Ùħ Ø§Ø¡
ĠÙĪÙĦØ§ÙĬ ØªÙĬ
ĠØ§ÙĦØ¹Ø¶ ÙĬÙħ
ĠØªÙĬØ¨ Ø§Ø²Ø©
ÙĬ Ø§Ø¬
ĠØ ¡
Ø§ÙĦ ÙĬØ§
ĠÙħ ÙĪØ³Ùħ
Ùģ Ø§Ùģ
ÙĤ Ø±ÙĬ
ĠØª Ø®ÙĦ
Ø§ÙĨ ÙĪØ³
ĠÙĩ ÙĬØ´Ø§Ùħ
Ø² Ø±
Ø§Ø± ÙĪØ¹
Ø· ÙĦØ§ÙĤ
ĠØ§ÙĦÙħ ØªØŃ
Ø° Ø©
ĠØ³ ÙĬØª
Ø±Ø¬ ÙĪ
ÙĪØ§ Ø§Ø¯
ĠØ§Ø± Ø¬ÙĪ
ou d
ĠØ¨Ø± ÙĪÙģÙĬ
ĠÙħØ³ Ø§ÙĥÙĨ
ĠØªØ¨ ÙĬÙĨ
ĠØ§Ø´ ÙĩØ±
Ġf o
ÙĥÙĪ Ø¨ÙĬ
ÙħØ§Ø´Ø§Ø¡ Ø§ÙĦÙĦÙĩ
ĠØ§ÙĦÙĨØ¬Ø§ØŃ Ø§Øª
ĠÙĨØªÙĪ ØŃØ´
ĠÙĦØ§Ùħ Ø±ÙĬÙĥØ§
ĠÙĨÙħ Ø´ÙĬ
ĠØ§ÙĦÙħØ´Ø§ÙĩØ¯ Ø§Øª
ĠÙħÙĪÙĩ Ø¨Ø©
ĠØ§ÙĦØ¨Ø¹ Ø¶
Ġ O
Ø§ Ø§Ùĩ
Ø§ÙĦ Ø§ÙĦ
Ùħ Ø±ÙĬÙĥØ§
Ø± ÙĨØª
ĠØ§ÙĦ ÙĤØ¯Ùħ
ØŃ ØªÙĪÙī
ÙĤ Ø¹
ÙĤ ÙĦÙĬ
ĠÙĬ ÙĦÙĬ
ĠÙĬ Ø§Ùħ
ĠÙģ ÙĦØ©
Ø§ÙĨ Ø´
Ø§ÙĨ Ø´Ø§Ø¡
ÙĬÙĨ Ø§Øª
ĠÙħÙĨ ÙĬØ´
ĠØ¯ Ø¨ÙĬ
Ø§ØŃ Ø¨Ùĥ
Øº Ø§Øª
Ø§Ø³ Ùĥ
Ø« Ø§Ø±
ĠØ§ÙĦØ¹ ÙĨÙĪØ§ÙĨ
ÙĦØ§ ÙĪØ©
ĠÙħØ¹ ÙĨØªÙĩØ§
ÙĦÙĪ ÙĩØ§
ĠØ¹ÙĨ Ùĥ
ĠØ¹ÙĨ ÙĪØ§ÙĨ
ĠØ§ÙĦÙģ Ø§ÙĬ
ĠÙĦÙĦ Ø´Ø¹Ø¨
Ø±ØŃÙħ Ùĩ
ĠØ§Ø³ ÙĥÙĪ
ĠØ§ ÙĪØ±ÙĪ
ĠÙĪØª Øª
Ø§Ø±ÙĬ Ø¹
ĠØµØ§ÙĦØŃ Ø©
ĠØªØ´ ÙĪ
ĠØ§ÙĦÙħØº Ø§Ø±Ø¨Ø©
Ġv a
Ġv ra
ĠØ§ÙĦØ§Ø® Ø±ÙĬÙĨ
ĠÙħØº Ø±Ø¨ÙĬØ©
ĠÙģÙĩÙħ ØªÙĨÙĬ
ĠÙĦØ£ÙĨ ÙĪ
ĠØ§ÙĦÙģÙĬ Ø³Ø¨ÙĪÙĥ
ĠÙĦÙĦØ¹ Ø§ÙĦÙħ
ĠÙģÙĨØ§ÙĨ ÙĬÙĨ
ĠÙĨÙĤØ¯ Ø±ÙĪ
ĠØ§ÙĦØ³Ø¨ Ø¨
Ġz oom
ĠÙħØŃÙħØ¯Ø§ÙĦÙĦÙĩÙħØµÙĦÙĪØ³ÙĢÙĢÙĦÙħÙĪØ¨Ø§Ø±ÙĥØ¹ÙĦÙīÙĨØ¨ÙĬÙĨÙĢÙĢØ§ÙħØŃÙħØ¯ Ø§ÙĦÙĦÙĩÙħ
j awed
Ú ¯
Ø§ ÙĪÙĨÙĬ
ÙĦ Ø´
Ø¹ Ø·
ÙĤ ÙĬÙĨ
ĠÙĬ Ø§Ø¨
ĠÙĬ Ø§Ùĩ
ĠÙģ Ø§Ùħ
ĠÙģ ÙĩØ§Ø¯
ĠØª ÙĨØ§
ĠØ± Ø³Ùħ
ĠØ¬ Ø§ÙĨ
ĠØ§ÙĦÙħ ÙĤØ·Ø¹
Ø§Ùĥ Ø³ÙĬ
ĠØ³ Ø¹Ø±
Ø±ÙĪ ÙĩØ§
ÙħÙĬ Ø²Ø©
ĠØ§ÙĦØ¨ ÙĨ
ĠÙĪØª ÙĥÙĪÙĨ
Ø¥ Ø°Ø§
ĠÙĪØŃ Ø¨ÙĬØ¨ÙĨØ§
ĠØ« Ø§ÙĦØ«
ĠØªØª Ø¹Ø¨
ĠØ§ÙĦØ« ÙĤ
ĠØ§ÙĦØ« ÙĤØ§ÙģØ©
ĠØ§Ø´ ØªØ±Ùĥ
ĠØ®Ø§ÙĪ ØªÙĨØ§
Ø³Ø· ÙĬÙĨÙĬ
ĠÙħØ³Øª ØºØ§ÙĨÙħ
ĠØªÙĦÙĤ Ø§Ùĩ
ĠØ§ÙĦØ¨Ø± Ø¯
ÙĩÙĬ ÙĦØ©
Ø¬Ø² Ø§Ùĥ
ĠÙħØ§Ø¹ Ø±Ùģ
ĠØ¨Ø· ÙĦ
ĠØ´Ø¹ Ø§ÙĦ
im p
ĠÙĬØ®ÙĦÙĬ ÙĥÙħ
Ø®Ø³ Ø§Ø±Ø©
ÙħØ¨ Ø±ÙĪÙĥ
c ou
Ġ V
Ġ and
ĠØ¨ ÙĪÙĦ
ĠÙĦ ÙĬØ±
Ø² ÙĬÙħ
ĠÙħÙĨ Ø´
ĠØŃ Ø¬
ÙĩØ§ ÙĬ
ĠØ¯ ÙĬØ¨
ĠØ³ Ø¹
ĠØ§ÙĦØŃ Ø¯ÙĬØ«
ĠØ· Ø¨ÙĬØ¹Ø©
Ø³ÙĬ ÙĦØ©
ĠØ§ÙĦÙĤ Ø§Ø¯Ùħ
ĠÙĪÙĦ Ø§Ø²Ùħ
ĠØ§ÙĦØ£ ÙħØ©
ÙģÙĬØ¯ÙĬÙĪ ÙĩØ§ØªÙĥ
ĠÙĬØª ØŃ
ĠÙĨØ¹ ÙĪØ¯
ĠÙĨØ¹ Ø·ÙĬÙĥ
ÙħØ± Ø¶
ĠØ« Ø§ÙĨ
ĠØ§ÙĦØ· ÙĬØ¨Ø©
ĠÙĨØ§Ø³ ÙĩØ§
ĠÙħØ§Øª Ø´
ĠØªØ¬ ÙĪØ²
ĠØªØ³ ÙĥÙĨ
ĠØ¯Ø§Ø± Øª
ØŃÙĤ ÙĤ
ra ge
ĠØ¨ÙĦØ¯ ÙĨØ§
ĠØ®Ø§Ø· Ø±ÙĬ
ĠØ·ÙĬØ¨ ÙĬÙĨ
ĠØ§ÙĦØ£Ø® ÙĬØ±Ø©
ĠØ§ÙĦØ¹Øµ Ø§Ø¨Ø©
ĠÙĨØ¨Øº ÙĬÙĥ
ĠØ§ÙĦ Ø§ÙĦÙĥ
ĠÙħ ÙĤØª
ĠÙĬ ÙħÙĨ
ĠÙģ Ø·
ĠÙģ Ø±Ø¬
ĠÙģ ÙĪØª
ĠØª ØªÙĪ
ĠØª Ø§ÙģÙĩ
ĠÙĦ Ø°ÙĦÙĥ
ĠÙĦ Ø¨Ø¹Ø¶
ĠÙĨ Ø¨ÙĬ
ĠÙĨ ÙĬÙģ
ĠÙĩ Ø¤ÙĦØ§Ø¡
Ø§Ø± Ø¯
ĠØ§ÙĦÙħ Ø¯ÙĨ
ĠØ§ÙĦØ¹ Ø±Ø´
ĠÙħØ¹ ÙħØ±
Ø±ÙĪ Ø§ÙĦ
ĠØ¨Ø§ÙĦ Ø¯ÙĬÙĨ
ĠØ¨Ø§ÙĦ Ø¶Ø¨Ø·
ĠØº Ø±Ø¨
ĠØ¥ Ùģ
ĠØ®ÙĪÙĬØ§ Ø§
ĠØ§ÙĦØ´ ÙģØ§Ø¡
Ø¹Ø¯ Ø©
ÙħÙĦ Ø§ØŃ
ĠØ§ÙĦØ³ ÙĪØ¯
ĠØ¶ ÙĬÙģ
ĠØ¨ÙĦÙĬ ÙĬØ²
ĠØªØ³Øª ÙĩÙĦ
ĠÙĨØ³ ÙĤØ³ÙĬ
ĠÙĨÙĤ ÙĪÙĦÙĩØ§
ĠØ¨Ø³ ÙĥÙĪ
ĠØªÙģ ÙĪØª
ÙħØªØ¹ ÙĨØ§
ĠÙħØªØ§Ø¨Ø¹ ÙĬÙĨ
ĠÙĪÙĬØŃ ÙģØ¸Ùĥ
Ø²Ø¹ Ùģ
ĠØ¹Ø§ÙĦÙħ ÙĬØ©
ĠØ§ÙĦÙĩØ¯ Ùģ
ĠØ¯ÙĤ Ø§Ø¦ÙĤ
ĠÙĬØ§ÙĨ ÙĪØ±ÙĬ
Ù ¾
ĠØ§ÙĦ ÙĦØ¨
ĠÙħ ÙĬØ´
ĠÙĩ Ø¯Ùĩ
ĠØ´ Ø¬Ø±Ø©
ĠØŃ Ø§ÙĬØ±
ĠÙĤ ÙĪ
Ø±ÙĬ ÙĥÙĬ
Ø§Ùĥ Ø«Ø±
ĠØ³ Ø§Ø¹Ùĩ
Ø§Ø¦ Ø¬
ĠØ§ÙĦØ¹ ÙħØ±
ĠØ§ÙĦØ¹ ÙĥØ³
ÙĪÙħ ÙĬÙĨ
Âł Ġ
ĠØ§ÙĦÙĨ ÙĪØ±
ĠØ· Ø¨ÙĬØ¹ÙĬ
Ø§Øµ Ø±
ĠÙħØª ÙħÙĨÙĬ
ÙĪÙĬ ÙĦ
ĠØ§ÙĦØ® ÙĬ
ĠÙĬØŃÙģØ¸ ÙĩØ§
ĠÙħÙĬ ÙĦ
ĠØ§ÙĦØµ Ø¯
ĠØ¯ÙĬ Ø²
ĠÙĪÙĩ ÙĨØ§
ĠÙĨØ´ÙĪÙģ ÙĩØ§
ĠÙħØ§Øª ÙĪ
ĠÙĪØ± Ø³
ĠÙĦØ¹ ÙĤÙĪØ¨Ø©
ĠØ¹ÙĨØ¯Ùĥ Ø´
ĠØªÙĤÙĪÙĦ ÙĪ
ĠÙħØ§ÙĨ Ø´ÙĪÙģ
ĠÙĬØ¹Ø±Ùģ ÙĪ
ĠØ§ÙĦØ¹Ø±Ø¨ÙĬ Ùĩ
ĠØ§ÙĦØ¥Ø³ÙĦØ§Ùħ ÙĬØ©
ĠÙĦØ¹Ø¨ Ø©
ĠÙħØ§Ùĩ ÙĪ
Ġbe au
Ġ Ú©
ÙĦ ÙĨ
ÙĨ ØŃÙĨ
Ùħ Ø§Ùĥ
Ùħ Ø§Ø·
ĠÙĪ Ø±ÙĪØŃ
ĠÙħ ÙĪØ§ÙĤØ¹
ØŃ Ø§
Ø³ Ùģ
ĠØ¨ Ø«
ĠØ± ØºÙĬØ³
ĠØ® Ø³Ø±
ĠØ£ ÙĦÙħ
Ø§Ø¨ Ø±
ĠØµ Ø±Ø§
ĠØ§ÙĦØ¹ Ø¨Ø§Ø¯
ĠØ¨Ø§ÙĦ Ø±ØŃÙħØ©
ÙģÙĬ Ø³
ĠØ®ÙĪ ØªÙĨØ§
ĠØ§ÙĦØŃ ÙĦÙħ
ĠØ§ÙĦØŃ Ø¨Ø³
ĠØªØŃ ÙĬÙĩ
ĠØ§ÙĦØª Ø±
ĠØ§ÙĦØ¨ ÙĨØ§Øª
ĠØ§ÙĦÙĥ Ø±ÙĬÙħØ©
ĠØ§Ùħ Ùĥ
ĠØªÙĨ ØµØŃ
ĠØªØ³ Ø§Ø¹Ø¯
ĠÙĨØªØ§Ø¹ ÙĬ
Ġf or
ĠØ®Ø· Ø±
ĠØ¹Ø¨ Ø§Ø±Ø©
ĠÙĪÙĬØ¹ Ø§ÙģÙĬÙĩ
ĠØŃÙĪ Ø§ÙĦÙĬ
ĠØ¨Ø±ÙĪ Ø¯ÙĪÙĬ
ĠÙĨÙĪ ØµÙĦ
ĠÙĨØŃÙĪØ³ ÙĪ
ĠÙģÙĥ Ø§ÙĩÙĬØ©
ĠØ¯ÙĪÙĥ Ø§
ĠÙĪØ§Øµ ÙĦÙĪ
ĠÙĪØ§Øª ÙĪØ¨
ÙĨØµ ÙĬØŃØ©
ÙģÙĬÙĥ ÙĪØ³
ĠØ§ÙĦÙħØ¬ÙĩÙĪØ¯ Ø§Øª
ĠØ³ÙĦØ§ Ø§Ùħ
e e
Ùħ Ø²Ø§ÙĦ
ĠÙĪ Ø§ÙģØ¶ÙĦ
Ø³ ÙĬØ¯
ĠÙĬ ÙĩÙħ
ĠÙĬ Ø±Ø¯
ĠØ¨ ÙģØ¶ÙĦ
ĠÙĨ ÙĬØ´
ĠØ® Ø´
Ø¯ÙĬ ÙħØ§
ĠØ³ Ø¨Ø¹
ĠØ³ ÙĬØ±ÙĬ
Øº ÙĪ
ĠÙĦÙĬ Ø²
Ø³ÙĬ ÙĪ
ĠÙĬØ¨Ø§Ø±Ùĥ ÙĦÙĥ
ĠØ¯ÙĬØ± ÙĩØ§
ĠØ§ÙĦØµ ÙĪØ±Ø©
ĠÙĦÙħ Ø¯Ø©
Ø³Ùħ ØŃÙĦÙĬ
ĠÙĨØ´ÙĪÙģ ÙĪØ§
ĠÙĨØ´ÙĪÙģ ÙĪÙĥ
ÙħØª Ø¹Ø©
on s
Ġt e
ĠÙĬØ¯ÙĬØ± ÙĪØ§
Ø±ÙĬÙĤ Ùĩ
ĠØªÙħ Ø§Ùĥ
ĠØ§Ø¯ Ø¹ÙĬ
ĠÙħÙĪ ØªÙī
ĠÙĤØª ÙĦÙĪ
ÙĬØ· Ø§ÙĨ
ĠØ±ØŃ ÙĦ
ĠØ¨Ø§ÙĦØ¹ ÙĤÙĦ
ĠØ¹ÙħØ± Ùĩ
ĠÙĬÙĩØ¯ÙĬ ÙĥÙħ
ĠØ§ÙĦØ·ÙĬØ¨ ÙĬÙĨ
ĠØµØ¹ÙĬØ¨ Ùĩ
ĠÙħÙħÙĨ ÙĪØ¹
ĠÙĬØ³ÙĦÙħ Ùĥ
ÙĬ ÙĩØ§
ĠØ§ÙĦ ÙĬÙħ
Ùĥ Ø§Ø´
Øª ÙĪÙĨ
Ø¨ Ø§ÙĬ
ĠÙĪ Ø³ÙĦØ§Ùħ
ÙĤ ÙĪØ©
ĠÙģ ÙĩØ°Ø§
ĠØª ÙħØ«
ĠØª Ø±Ùī
ĠÙĨ Ø§Ùĥ
ĠÙĨ Ø³Ø¨Ø©
ĠÙĥ Ø°Ø¨
ĠØ± ÙĬØª
ĠØ± Ø¦ÙĬØ³
Ø® Ø±Ø§
ĠÙĤ Ø§Ø³
ĠØ£ Ø±ÙĬØ¯
Ø§Ùĥ Ø©
ĠØ³ ÙĩÙĦ
ÙĪØ± ÙĬÙĨ
ĠÙĪØ§ÙĦ Ø§
ĠØ§ÙĦØ¹ ÙĦØ§Ùħ
ÙģÙĬ ÙģØ©
Ø¸ ÙħØ©
ĠØ§ÙĦØŃ Ø¶
ĠØªØ¹ Ø±ÙģÙĬ
ĠÙĬØ¹ ÙĪØ¶
ÙĦÙĥ Ø©
ĠØ§ÙĦÙģ ØµØŃÙī
ĠØ§ÙĦØ¨ Ø§ÙĤÙĬ
ĠØ§ÙĦØ³ ÙħØ§
ĠØ§ÙĪ Ùħ
ĠÙĪÙħ Ø²ÙĬØ¯
ÙģØ³ Ùĩ
ĠØ° ÙĨÙĪØ¨
ĠÙĬØ¬ Ø§Ø²ÙĬ
ĠØ±ÙĪØŃ Øª
ĠÙĪØ± Ø²ÙĤ
ĠØ¹Ùħ Ø§Ø±
ĠØ¹Ùħ ÙĦÙĥ
Ø§Ø´ÙĬ ÙĪÙĨØ§ÙĦ
ĠÙĨØ¬ ØŃ
ĠØ¨Ø´ Ø§Ø±
ĠÙĦØ£ÙĨ ÙĩØ§
ĠÙĨÙĩ Ø¶
ĠØŃÙĪ Ø³Øª
ĠÙģØ§Øª Øª
Ġpar ce
ĠØ´ÙĬØ¦ Ø§
ĠØ§ÙĦÙģÙĨØ§ÙĨ ÙĬÙĨ
ĠÙĬØŃÙħ ÙĬÙĥ
ĠÙħÙĪØ³ Ùī
u re
ĠÙħ Ø¶ØŃÙĥ
Ø§ÙĨ Ø¯
Ø´ Ø±Ø©
ĠØ± Ø¶Ø§
ĠØŃ ÙĨ
ĠØŃ Ø±Ø¨
Ø§Ùĥ ÙĬ
Ø§Ø¨ Ø§
ĠÙĪØ§ÙĦ Ø§Ùħ
ĠÙĪØ§ÙĦ Øº
Ø§Ùĩ Ø¨
ÙĥÙĪÙĨ Ø´
ÙĤÙĬ Ùĩ
ĠÙĨØª ÙģÙĥØ±
ĠÙĬØ§ Ø§Ø±Ø¨
ĠØ§ÙĦØ¯ Ø²Ø§ÙĬØ±
ĠØ§ÙĦØ£ ÙĬØ§Ùħ
ÙĪÙĦÙĬ Ø©
ĠÙĬØ´ Ø±ÙĬ
ĠÙĩØ§Ø¯ Ùģ
ĠØ¨ÙĬ Ø³Ùĥ
ĠØ£Ø® ÙĪÙĥ
ĠÙĨØ³ Ø§ÙģØ±
ĠÙĬØ¯ Ø¹
Ġa ve
ĠØ®Ø§Ø· Ø±Ø´
ĠØªÙĩ Ø¶Ø±
ĠÙħÙģ ÙĤ
em p
ÙĦØ§Ø¨ Ø§ÙĦÙĬØ´
ĠØ¬ÙĬØ¯ Ø©
ĠÙĪØµÙĦ ÙĨØ§
ĠØ§ÙĦÙĪØ· ÙĨÙĬ
ĠØ³ÙĦÙĬ ÙħØ§ÙĨ
Û ģ
ÙĨ ÙĩØ§
Ø§ÙĦ Ø´Ø¹Ø¨
Ø± Ø²ÙĤ
ĠØ§ÙĦ Ø±Ø¨
Øª Ø©
ĠÙħ Ø±Ø¨ÙĬ
ĠÙħ Ø§ØŃØ¨
ĠÙĬ ÙĪØªÙĬ
ĠÙĬ ØµØ±
ĠØ¹ Ø±ÙĬ
ĠØ¹ Ø±Ø³
ĠØ± Ø£Ø³
Ø² Ø¯ÙĤ
ĠØ® Ø§ÙĬÙģ
ÙĪÙĨ ÙĩØ§
ĠØ§Ø ¸
ĠØ§ÙĦÙħ Ø±ØŃ
ĠØ³ ÙģØ±
ÙĪÙĦ ÙĪØ§
Ø±ÙĪ Ø·
ĠØ¨Ø§ÙĦ Ø®
ĠØº Ø§ÙĦÙĬØ©
ÙĦÙĤ ÙĪ
Ø§Øµ ÙĬÙĦ
ĠÙĦÙĦ Ø¯Ø§Ø±
ÙħÙĦ Ø´
ĠØ§ÙĦØ£ ÙĥÙĦ
ĠØ§ÙĦØ£ Ø¹ÙĦÙī
ĠØ§ÙĦØ® ÙĦÙĬ
Ø¯Ùħ Øª
ĠÙĬØ¬ ÙħØ¹
ĠØ§ÙĦÙĩ Ø¬Ø±Ø©
ĠÙĦØ¨ Ø§Ø³
ÙĥØ±Ùĩ Ø´
Ġj us
ĠÙĤØ± Ø§ÙĬ
ĠØ§ÙĩÙĦ ÙĨØ§
ĠÙĪØ§ØŃ ÙĨØ§
ĠÙĨØ· ÙĦØ¨
ĠÙĬØº ÙĨÙĬ
ĠØ§ÙĦÙĪØ§ÙĦ Ø¯Ø©
ĠÙĤØ¹Ø¯ Øª
ĠÙĦÙĦØ´ Ø¨Ø§Ø¨
ĠÙħÙĪØ¬ ÙĪØ¯Ø©
Ġo f
ĠØ¹Ø§ÙĪÙĨ ÙĪÙĨÙĬ
Ø¯ÙĪÙĨÙĬ Ø³ÙĬØ§
ĠØ¬ÙĬÙĪ ØºØ±
n a
Ø§ÙĦ ÙĨØ§Ø³
Ø± Ø§Ø¦Ø¹
ĠØ§ÙĦ Ø±ÙĪØ¹Ø©
ĠØ¨ Ø§Ø¹
ĠØª Ø¶Ø±Ø¨
ĠØ¹ ÙĪ
Ø¬ Ø§Ø¬
ĠÙĥ Ø³
ĠØ± Ø§Ø¡
ĠØ´ Ø±ÙĬØª
ĠØŃ Ø§
ÙĬØ§ Ø§
ĠÙĪØ§ÙĦ Øµ
ĠÙĦÙĬ ÙĩÙħ
Ø§Ø¬ ØŃØ©
ĠÙĬØŃ ÙĬ
Ø§ÙĨÙĬ Ø³
ĠØ§ÙĦØª ÙħÙĪØ±
ĠÙĦÙĦ Ø·
Ø§Ø® Ø°
ĠØ§ÙĦØ¨ Ø´Ø±
ĠØ§ØŃ ÙĦØ§Ùħ
ĠØ§ÙĪ Øª
Ø§ÙĬÙĨ Ùĥ
ĠÙĬØ® Ø§Ùģ
ĠØ¯ÙĬ Ø§ÙĦÙĪ
Ġl o
in u
ĠØªØ³Øª Ø§ÙĩÙĦÙĪ
Ø¬Ø¨ÙĨÙĬ Ø´
Ø§Ø´ÙĬ Ø§Ø¡
ĠÙĪØµ Ùģ
ĠØ¬Ø² Ø§ÙĥÙħ
ĠÙħØ¯ Ø§Ùħ
ĠÙħØ¨ Ø§Ø´Ø±Ø©
Ø§Ø²ÙĬ ØºÙĬ
ĠØªØ¹ÙĬØ´ ÙĪ
ĠÙĪÙĨØª ÙħÙĨÙī
ĠØªØ¯ Ø¹Ùħ
ÙħÙĥ Ø§Ø´
ÙģÙĥ Ø§Ø±
ĠÙĪÙĬØ³ Ø¹Ø¯Ùĥ
Ø´Ùģ Ø§Ø¡
Ø£Ùĥ Ø¯
ĠÙĬÙģØ±ØŃ ÙĥÙħ
ĠÙģÙĪØ±Ùħ Ø§Ø³ÙĬÙĪÙĨ
i er
ÙĨ ÙĪØ±
Ø§ÙĦ ÙĬØ¯
ĠÙĪ ÙĥÙħ
Ø¯ Ø§Ùĥ
ĠÙħ Ø¯ÙĬ
ÙĤ Ø§Ø±
ĠÙĬ ÙĦÙĬÙĤ
ĠØ¨ Ø±Ø¨
ĠÙĨ ÙĦØ¹Ø¨
ĠÙĩ Ø¯ÙĪ
Ø² Ø§Ø²
ĠØ¬ ÙĬÙĨ
ĠØŃ Ø§ÙģØ¸
ĠØµ ÙĦÙĪ
Ø£ ÙĦÙĥ
Ø§Ùĩ Ø±Ø©
Ø§Ùĩ Ø¯Ùĩ
ĠØ§ÙĦØ¹ ÙĬ
ĠØ§ÙĦØ¬ Ø¨ÙĦ
ĠØ§ÙĦØ¬ Ø¨Ø§ÙĦ
ĠØ¨Ø§ÙĦ Ø¯ÙħÙĪØ¹
ĠÙĬØ¹ ØªØ¨Ø±
Ø±Ø¨ÙĬ Ùĩ
ĠØ§Ø® Øª
ĠØ§ÙĦÙĤ ÙĦÙĪØ¨
ĠØ§ÙĦÙĤ Ø¯ÙĬÙħØ©
ĠØ§ ÙĤÙĪÙĦ
ĠØ§ÙĦÙĬ ÙĪØªÙĬÙĪØ¨Ø±
ĠÙĪÙĨ Ø¯ÙĬØ±
ĠÙħØŃ ØªØ±
ĠØ§ÙĦØ± Ø§ØŃ
ĠØ§ÙĦØ± Ø¹Ø¨
ĠØªØ® Ø³Ø±
Ø¹Ùħ Ø§Ø±
ĠØ¨Ø¹ ÙĬÙĨ
ĠÙĬØ¨ ØºÙĬ
ĠØ§Ø³Ùħ ØŃÙĦÙĬ
al e
ĠØŃÙĬØ§Øª ÙĪ
ĠØªÙĪØŃØ´ Øª
ĠØ¨Ø§Ø³ Ùĥ
ĠÙĬØº Ø§Ø¯Ø±
ĠÙħØªÙĪ Ø§Ø¶Ø¹
ĠØ¹Ø´Ø± ÙĬÙĨ
ĠÙĤØ· Ø¹
ĠØªÙĦÙģ Ø²ÙĬÙĪÙĨ
ĠØ§ÙĦÙħØ§Ùĥ ÙĦØ©
handpinkwavinghandpinkwavinghandpinkwavinghandpinkwaving handpinkwavinghandpinkwavinghandpinkwavinghandpinkwaving
Ġcou rage
ÙģÙĦÙĬ ÙĤØ©
i ch
Ġ Ø§ÙĩØ¯
ÙĨ ÙħÙĪØª
ÙĪ Ø§ØŃØ¯
ĠÙĪ Ø±Ø¨
ĠÙħ ÙĬØ±
Ø¹ Ø§ÙĦ
ĠÙĬ Ø®ÙĦØ§Øµ
ĠØª ÙĪØ±
ĠØª Ø³Ø¨
Ø§ÙĨ ÙĪØª
ĠÙĨ Ø§Ø±
ĠÙĨ ÙħØ¯
Ø® Ø¨
ĠØ£ Ø±ÙĪØ§ØŃ
ĠØ§ÙĨ Ø³ØªØºØ±Ø§Ùħ
ĠØ¯ ÙĬÙħ
Ø§Ø¹ ÙĦ
Ø§Ø¨ ÙĤØ©
Ø§Ùģ ÙĩÙħ
ĠØ§ÙĦØ¹ Ø±Ø³
ÙģÙĬ Ùģ
ĠÙĩÙĩ ÙĩÙĩÙĩÙĩ
ĠØ· Ø±ÙĬ
ĠØ· Ø§ÙĦØ¹
ĠØ§ÙĦÙģ Ø¶
ĠØ§ÙĦÙģ ÙĨØ¯ÙĤ
ĠÙĪÙĬ Ø²ÙĬØ¯
ØŃØ¨ ÙĪØ´
ĠÙĦÙĦ Ø¯
ĠÙĦÙĦ Ø¥
ĠÙħØª Ø®
ĠÙħØª Ø²ÙĪØ¬
ĠÙĪÙĦ Ø§ÙĥÙĨ
ĠØ§Ø³ Ø§Ø³
Ø¯Ø§ ÙĬØ±
Ø³ÙĨ Ùī
ĠÙĪÙĨ ØªÙĪÙħØ§
ĠÙħÙĬ Ø³ØªØ±
ĠØ§ÙĦØµ ÙĬÙĨ
ĠØ§Ø± Ø¬Ø¹
ĠØ±Ø§ØŃ Ø©
ĠÙģØ± ÙĨØ³ÙĬØ©
in a
ĠØ¢ ÙĦÙĦÙĩ
ĠØ§Ø´ ÙĬØ§Ø¡
Ġb est
ĠØ§ÙĦØ§ÙĨ ØªØ±
ĠØ§ÙĦØ³ÙĬ Ø§Ø±Ø©
ĠÙĩØ¯ Ø±Ø©
ĠÙĪØ² Ø§Ø±Ø©
ĠÙħÙĩ Ø¨ÙĪÙĦ
ĠØªØ± Ø²ÙĤ
ĠØ´Ø¹ ÙĪØ±
ĠØ§ÙĦØ§Ø¨ Ø¯Ø§Ø¹
ĠÙĬØ·ÙĦØ¹ ÙĦÙĬ
ĠÙħØ²ÙĬØ¯ Ø§
ĠÙĨØ³ÙĬ Ùħ
ÙĦ Ø³
ÙĪ Ø£
Ø§ÙĦ ÙĦ
Ø± Ø²
Øª ÙĪÙĨÙĬ
ØŃ Ø§Ø¯
ĠÙĬ Ø®ÙĦ
ĠØ¨ ÙĪØ³
ĠØ¹ Ø¶
ĠÙĨ Ø®ÙĦØµ
ĠÙĨ ÙĬØªÙĥ
ĠØ´ ÙĨ
ĠØ´ Ø´
ĠØŃ Ø§Ø·
ĠØŃ Ø¯Ùĩ
ĠØ§ÙĦÙħ ÙĪØ¬
Ø§Ùĥ ÙĬÙĨ
ĠØ³ ÙĪØ±ÙĬ
Ø§ØŃ ÙĦÙī
Ø§Ø¦ Ø±Ø©
ØªÙĬ Ùĩ
ĠØ§ÙĦØŃ Ø§ÙĦÙĩ
ÙĬÙħ Ø§ÙĨ
ĠÙĪÙĨ Ø´ÙĪÙģ
ĠØ§ÙĦØ± Ø¯
ĠÙħØ± Ø§ÙĥØ´
ĠÙģØ§ÙĦ ÙģÙĬØ¯ÙĬÙĪ
ĠØ§ÙĦØ· Ø¨
ĠÙĪØ´ Ø¹Ø¨
ĠØ° Ø§Øª
ĠÙĬØ¬ ÙĬÙĥ
ĠØ§ÙĦØ¥ Ø¨Ø¯Ø§Ø¹
ĠÙĬÙĤ Ø§ÙĦ
Ø±ÙĤ ÙĪ
ÙĬØŃ Ùĩ
ĠÙħÙĪ Ø§Ø¶ÙĬØ¹
ĠØ£Ùħ Ø§ÙĥÙĨ
ĠÙĤØ¯ Ø±Øª
ĠØ¹Ø´ Ø±Ø©
ent re
ĠØŃÙĥ ÙĬØª
ĠØµÙĦÙĬ Øª
ĠÙģØ¯ÙĬÙĪ ÙĩØ§ØªÙĥ
ĠÙĬÙĪØªÙĬÙĪØ¨Ø± Ø²
ĠÙģØ§ÙħÙĬ ÙĦÙĬØ§
ĠÙĬØ¹Ø¬Ø¨ ÙĪÙĨÙĬ
Ġcont inu
u m
Ùħ ÙģÙĩÙħ
ĠØ§ÙĦ Ø§ÙĥÙĦ
Ùĥ Ø©
Ùĥ Ø¨Ø±
ĠÙĬ Ø§Ø¹
ĠÙĬ ØºÙĬØ±
ĠØ¹ Ø«ÙħØ§ÙĨ
Ø§Øª ÙĨÙĬ
Ø§Øª ÙħÙĨÙī
ĠØ´ ÙĪÙĥ
ĠØ® Øª
ĠØŃ ÙģØ¸Ùĥ
ÙĪÙĨ Ø¬
ĠØ§ÙĦÙħ ÙĨØª
Ø§Ø¨ ÙĪ
Ø§Ø¦ ÙħØ©
Ø§Ø³ Ùĩ
ĠØ§ÙĦØ¹ Ø¨
ĠØ§ÙĦØ¹ Ø´Ø±
ÙĬÙĥ Ø¯Ø©
ÙĦÙĤ Ø¯
ĠØ· ØŃØª
Ø³ÙĬ Ùħ
ĠÙĪÙĬ Ø·ÙĪÙĦ
ĠÙĦÙĦ ÙģÙĬØ¯ÙĬÙĪ
ĠØ§ÙĦÙĤ Ø·
ĠØ§ÙĦØ¨ ÙĪ
ĠÙħØª Ø±Ø¨ÙĬ
ÙĩØ¯ Ø§Ùĥ
ÙĩØ¯ ÙĪØ§
ĠØ§Ùĥ ØªØ¨
ĠØ±Ø§ØŃ ÙĪ
ĠØ¨ÙĬ Ø§ÙĨ
ĠØ§ÙĦØº ÙĬØ±
ĠØ£Ø® ÙĦØ§ÙĤ
Ġt rav
ĠØ±Ø¨ Ùĥ
ĠÙĦØŃ Ø¸Ø©
ĠÙħÙĤ Ø§Ø·Ø¹
ĠÙĪØ§ÙĦÙħ Ø³ÙĦÙħÙĬÙĨ
al l
ĠÙĪØ² ÙĪ
ĠÙħØ§Ø¯ Ø§Ùħ
Ġfa ut
ĠØ£Øµ ÙĦØ§
ÙĪØ³Ø¹ Ø§Ø¯Ø©
ĠØ§ÙĦÙħØ· Ø¹Ùħ
ĠØ³ÙĤ ÙħØ§
ØªÙħØ§Ø¹ ÙĬØ©
ĠØ§ÙħØ« Ø§ÙĦÙĥ
ĠØ³ÙħØ§ÙĨ Ø©
ĠØ¬ÙĪØ± Ø¬
ĠØ§ÙĦØ¥ÙĬ Ø¬Ø§Ø¨ÙĬØ©
t r
Ø± ÙĨØ§
Ø¯ Ø±Øª
ĠÙħ Ø§Øµ
Ø³ Ø³
ĠØª ÙĪØ±ÙĬ
ĠÙĨ ÙĪÙģ
ĠÙĥ ÙħØ§ÙĦ
ĠØ´ Ø¨Ùĩ
ĠØ® ÙĨØ´
ĠØ¬ ÙĬÙĩ
ĠÙĤ ÙĪÙĦÙĩ
ÙĨØª ÙģØ±Ø¬
ĠØ² ÙĨ
ĠØ² Ø¯
ĠØ² ÙĪØ±
ĠØ§ÙĦØ´ ÙĬØ·Ø§ÙĨ
ÙħØ¹ ÙĦÙĪÙħØ©
ĠÙĪÙħ Ø¯Ø§Ø¯
ÙĬØ§Øª Ùĥ
Ø¬ÙĬ Ø¬ÙĦ
Ø§ÙĤ Ùĩ
ĠÙĪØ± Ø§Ø¡
ĠØ§ÙĦØ° Ùĩ
ĠÙĨØ¯ÙĬØ± ÙĦÙĥ
ĠØ£ÙĪ Ú¨Ø±ÙĪØª
ĠÙħÙĪ Ø§ÙĦÙģ
ĠØ§ÙĦØ§Ùħ Ø§Ùħ
ĠÙĬÙĩ ÙĨÙĬÙĥ
ĠØ£ÙĬ ÙĩØ§
ĠØ¬Ø² ÙĬØ±Ø©
ĠØ£Ø¹ ÙĦÙī
Ø³Ùĥ Ø±ÙĬ
ÙĤØ§ÙĦ ÙĬØ¯
ĠØ«ÙĦØ§Ø« Ø©
ĠØªÙĪØ¬ ÙĪØ±
ĠØ§ÙĦÙħÙģ Ø±ÙĪØ¶
ĠØŃÙĪÙħ ØªÙĬ
ÙĦ Ø¨ÙĬØ©
ĠØ§ÙĦ ÙĤØ¯Ø±
ĠØ§ÙĦ ÙĪØ³Ø·
Ùĩ Ùī
Øª Ø§Ø¹
Ø¨ Ø§Ø´
ĠÙĪ ÙĥÙĬÙģ
ĠÙħ ÙĬØ¯
ĠÙħ Ø§Ø·
Ø³ Ø¯
Ø³ ÙĦÙĩ
ĠÙĬ Ø³ÙħÙī
ĠØ¨ Ø±Ø¨ÙĬ
ĠÙģ Øµ
ĠÙĦ Ø¯ÙĬÙĩ
ĠØ± ÙģØ¹
Ø® Øª
Øµ Ø¨
ĠØ¬ Ø§Ø±
ĠÙĤ Ø·Ø±
ĠØ¯ Ùĩ
ĠØ¯ ÙĬÙĨØ§
ĠØ¯ Ø±ÙĪÙĥ
ĠØ§ÙĦÙħ ÙĦÙĬ
ĠØ³ ÙħÙĬ
ÙĥÙħ Ø´
ÙĨÙĬ ÙĬÙĨ
Ø§ÙĪ Ùĥ
ĠØ¨Ø§ÙĦ ÙĬØ´
ĠÙĬØŃ ÙĤÙĤ
ÙĦÙĤ Ùī
ĠØ§ÙĦÙĨ ÙĪ
ĠØ· Ø±ÙĤ
ĠØ² ÙĬÙĨØ©
ĠØ§ÙĦØ´ Ùĥ
ĠØ§ÙĦÙĤ Ø§ÙĦØ©
ĠØ±ÙĪ Ø¹Ùĩ
ÙħØ¹ ÙĦÙĬØ´
ÙĬÙĦ ÙĨØ§
ĠÙģØ± ØµØ©
ĠÙĪØ± Ø§Ùĩ
ĠÙĨØ¯ÙĬØ± ÙĩØ§
Ġb ro
ĠØªÙĥ Ø¨Ø±
ĠØ§ÙĦÙħÙĨ ØªÙĪØ¬
ĠØ§ÙĦØ³ÙĬ Ø§ØŃÙĬØ©
ĠÙĤØª ÙĦÙĥ
ĠØŃÙĬØ§Øª Ùĩ
Ø¬Ø² Ø§Ø¡
ĠØ²ÙĬ Ø§Ø±
ĠÙħØ· Ø¹Ùħ
ÙģØ¶ Ùĥ
oo d
ĠÙĥØ±Ùĩ Øª
ĠØ®ÙĦÙĪ ÙĬ
ĠÙħØ¯Ø± Ø³Ø©
ÙħÙĥØ§ÙĨ Ø´
Ø§Ø¯Ø¹ ÙĪÙĦÙĬ
u c
Ø§ ÙĪØ±
ÙĨ Ø³Ø¨Ø©
ĠÙĪ Ø¨ÙĦ
Ø¯ Ø¹Ùħ
Ùģ ÙĥØ±Ø©
ĠØ¨ ÙĬØ¨
ĠØª ÙħØª
Ø· ÙĦÙĤ
ĠÙĤ ÙĪÙħ
Ø§Ø¨ Ø§ÙĨ
ĠØº Ø§ÙĦ
Ø³ÙĬ ØªÙĬ
ĠØ¨Ø² ÙĬ
ØŃØ¨ Ùĥ
ĠØ§ØŃ ÙĥÙĬ
ĠØ§Ø¨ ÙĨÙĬ
ÙĪÙĩ Ø´
ĠØ¨ÙĬ Ø¹
ĠØªØ® ÙħÙħ
ÙĤØ· Ùĩ
ĠØ±ÙĪØŃ ÙĩØ§
ĠØ¨ÙĨ ØªÙĬ
ĠÙĨØ´ Ø§Ø·
ĠÙĨÙģØ³ ÙĩØ§
Ġa v
ĠÙģÙĦ Ø§ÙĨ
ĠÙĪÙĤØª ÙĩØ§
ĠØ§ÙĦÙĤØ± Ø¹Ø©
ÙĦÙĬØ´ Ø©
ØŃÙĬ Ø§Ø©
ĠØ®ÙĦÙĬ Øª
Ø§Ø¨ÙĬ ÙĩØ§
ĠÙĨÙĪØ±ÙħØ§ÙĦ ÙħÙĪÙĨ
ĠØªØ· ÙĦØ¨
ĠØ§ÙĨÙĪ Ø§Ø¹
ĠØªÙģØ±Ø¬ ØªÙĪ
ĠÙĬØ±ÙĪØŃ ÙĪ
ĠØ¨Ø±ÙĪ Ø¬ÙĬ
ĠØ§ÙĦØ§ØŃ ØªØ±Ø§Ùħ
ĠØ¨ÙĦØ§Øµ ØªÙĥ
Ġh h
ĠØ®Ø§ÙĦ ØªÙĬ
ĠØ§ÙĦØ´Ø®Øµ ÙĬØ©
ĠØ¹Ùģ Ø§ÙĬØ³
ĠÙħÙĤØ¯ Ø±ØªØ´
ĠØ§ÙĦÙħØºØ§Ùħ Ø±Ø©
ØªØ±ÙĪÙĨ ÙĬØ©
ĠÙĪÙĨØ¨ ÙĬÙĨØ§
ĠØ³ÙĪÙĬØ³ Ø±Ø§
ÙĨ Ùħ
Ùħ Ø·
ĠØ§ÙĦ Ø§Ùĩ
ĠÙħ Ø±ÙĬÙħ
Ùģ ØªØ´
ÙĤ ÙĦÙĤ
Ø³ ÙĨØª
ĠØ¨ Ø³Ø¨
ĠÙģ Ø§ÙĤ
ĠÙģ ÙĨØ¯ÙĤ
Ø· Ùģ
ĠÙħÙĨ Ø·
ĠØ´ Ø§ÙĨ
ĠØ¬ ÙĬÙĨØ§
ÙĪÙĨ Ø§Ø´
ĠØ³ Ø¬
ĠØ³ ÙĪØ§
Ø§ÙĬ ÙħØ§
ĠÙĦÙĬ ÙĦ
ØªÙĪ Ø§Ùĥ
ĠØº ÙĬØ¨Ø©
ÙĬÙĥ Ø§
ĠØ· ÙĪ
ĠØ§ÙĦØª ÙĥÙĨ
ĠÙĪÙĬ ÙĤ
ĠÙĦÙĦ Ø¨
ĠÙĪÙĦ Ø§Ø¯ÙĬ
ĠØ§ÙĦØ® Ø§ØµØ©
ÙħØ± Ø§Ø¯
ĠÙĨØŃ ÙĪ
ĠØ§ÙĦØ· Ø¨Ø®
ĠØŃØ§Ø¬ Ø§
ĠÙģØ± ÙħØ¶Ø§ÙĨ
ĠÙĦÙĩ Ø°Ùĩ
ĠÙĪØ± ÙĤÙĦØ©
ĠØªÙĨ Ø¯Ùħ
ĠØªØ¬ Ø±Ø¨
ĠØ§Øª Ø¹ÙĦÙħ
ĠØ§Ø¬ Ø¹ÙĦ
Ġs a
ĠÙĤÙĦØª ÙĩØ§
ĠÙĨØ³Øª ÙħØªØ¹
ĠØ´ÙĪÙģ ÙĪ
ĠØºÙĬ Ø§Ø¨
ĠØ¨ØŃ Ø±
ĠØ£Ø¹ ÙħØ§ÙĦ
ĠØ§ÙĦÙħØ³Øª Ø¹Ø§ÙĨ
ĠØªÙĬ Ø²ÙĬ
ĠÙĨØ¹ÙĬØ´ ÙĪ
ĠØ§ÙĦØ¶ØŃÙĥ Ø©
ĠØ±Ø¨ØŃ Øª
ĠÙĪØ§Ø± ØŃÙħ
ĠØ§ÙĦØ¯Ø± ÙĪÙĨ
ĠØ¥Ø® ÙĪØ§ÙĨ
ĠÙĪØ§Ø¶ ØŃ
ĠÙĪØ¬Ø² Ø§Ùĥ
b a
v er
Ø§ Ø§Ø¹
Ø¨ Ø§Ùĩ
Ø¨ Ø§ÙĦÙĬ
ĠÙħ Ø¸
ĠÙģ ÙħÙĥ
ĠØ± Ø¨Ø¹
Ø§Ùħ ÙĬØ±Ø§
ĠØ£ Ø¹Ø±Ùģ
ĠØ§ÙĨ ÙĨÙĬ
ĠØ³ ÙĥÙĨ
Ø§Ø¨ Ø³
ÙĪØ± Ø§
ÙĨÙĬ Ø³
ĠÙħØ§ ÙĤØ¯
ĠØ¨Ø§ÙĦ Ø¨
Ø±Ø¬ Ø§ÙĦ
ÙĤÙĬ Ø³
ĠØ§ÙĦØ´ ÙĤÙĬÙĤ
ÙĤÙĪÙĦ Ø©
ĠÙĦÙĦ Ø³ÙĬØ§ØŃØ©
ÙĪØ¯ Ùĩ
ĠØ§ÙĦØ³ Ø¹Ø±
ĠÙĪÙĨ ØŃ
ÙĪÙĦÙĬ Ø´
ĠØ§ÙĦØ· ÙģÙĦØ©
ĠØ§ÙĦØº Ø§Ø¨Ø©
ĠØ§ÙĦØº Ø±Ø¨ÙĬØ©
ĠÙģØ± ÙĨØ³ÙĬ
ĠØ³ÙĬ ÙĥÙĪÙĨ
Ø§Ø³Øª Ø§Ø°
ĠØªØ³Øª Ø¹ÙħÙĦ
ĠØªÙĨ Ø²Ø§ÙĨÙĬØ§
ĠÙĬØ¨ ÙĥÙĬ
ĠØ§ÙĦØ« ÙĤØ©
ÙĩØ§Øª Ùģ
ĠØ¨ÙĬÙĨ Ø§ØªÙĨØ§
ĠØ§Ø³Øª Ùħ
ĠØ§Ø´ ÙĩØ§Ø±
ĠØµÙĦ Ø§ØªÙĥ
ĠÙĪÙĤ ØªÙĥ
ĠØ§ÙĦÙħÙĨ Ø§Ø¸Ø±
ÙģÙĪ ÙĪØ±
ĠÚ¨ Ø¹
ĠØ§ÙĦØªØ¹ ÙĦÙĬÙħ
ĠÙĤØµ Øµ
im a
ĠØ¨Ø¹ÙĬØ¯ Ø©
ĠØ¨ÙĦØ§Øµ Ùĩ
ĠÙģØ±ÙĬ Ø¯Ø©
ĠØ§ÙĦØŃÙĥ ÙĪÙħØ©
ĠÙĨØªÙĦØ§ÙĤ Ø§ÙĪ
ĠÙĪØ§Ùĥ Ø«Ø±
d e
ï ·
Ùħ ÙĪÙĦ
ĠØ§ÙĦ Ø§ÙĤ
Ùĥ ÙĦÙħ
ĠÙĪ ÙħÙĪ
Ø¯ Ùī
ĠÙħ Ø®ÙĦ
ĠÙħ Ø¨Øª
ØŃ Ø¨ÙĬ
ĠÙĬ ØµÙĦ
ĠÙĬ ÙħØ³
ĠØ¨ ÙģØ§Ø±
ÙĦÙĩ Ø§Ø´
ĠØ± Ø®
Ø® ÙĦØ©
Øµ Ø§ÙĦ
ĠØ¬ ÙĪÙĦØ©
ĠØ¬ Ø§Ø±ÙĬØ©
ĠØŃ ÙĤÙĬÙĤÙĬ
ĠÙĤ Ø§ÙĨÙĪÙĨ
ĠØ£ ØŃÙħØ¯
ĠØ¯ Ø®ÙĦÙĪ
ĠØ³ Ø¨ÙĬÙĦ
ĠØ¹ÙĨ Øµ
ĠØ¨Ø§ÙĦ ØµØŃØ©
ĠÙĬØŃ ØªØ§Ø¬
ĠØ· Ø§ÙĬØŃ
Ø±Ùģ Ùĩ
Ø±Ùģ ÙĨØ§
ĠØªØŃ ÙģØ©
ĠØ§ÙĦØª Ø·
ÙħÙĪ Ø¹Ø©
ĠØ§ÙĦØ® ÙĦÙĤ
ĠØ§ÙĦØµ Ùģ
Ø¬ÙĬ ÙĦ
ĠØ§ÙĦØ· Ø¨ÙĬØ¹
ĠØªÙħ Ø§ÙħØ§
ĠØ§Ø¯ ÙĬØ±
ĠÙĨØªØ§Ø¹ ÙĪ
ĠØ§ÙĦØ§ÙĨ Ø³ØªØºØ±Ø§Ùħ
ĠÙĨØµ Ø§Ø¦ØŃ
ĠØµØ§ØŃ Ø¨Ùĥ
ĠØŃÙĬØ§Øª ÙĩÙħ
ØªØ¹ ÙĬØ´
ĠÙĨÙģ ØªØŃ
ĠØ¬Ø¨ ØªÙĩØ§
ĠÙħØºØ§Ùħ Ø±
Ġto p
ham ed
ĠØ¹Ø±Ø´ Ùĥ
ĠØ§ÙĥØªØ´ ÙģØª
ĠÃ ł
ĠØ³Ø§Ùĩ ÙĦØ©
l i
u b
Ø§ Ø§ÙĦÙĦÙĩ
ÙĨ ÙĨ
Ø§ÙĦ Øµ
ĠØ§ÙĦ Ø¯ÙĬÙĥ
Ùĥ Ø°Ø§
Ø¨ Ø¯Ø§
ĠÙĪ Ø¯Ø§Ø±
ĠÙħ ÙĪÙģ
ØŃ Ø§Øª
ÙĤ ÙĪØ§
ĠÙĬ Ø§ÙħØ§Øª
ĠÙģ ÙĪØ§
ĠÙĦ ÙħÙĬ
ĠÙĨ ÙĦ
ĠÙĥ Ø±Ø§Ùħ
ĠÙĩ Ø§Øª
ĠØ´ Ø¯
ĠØ¬ ÙĪØ§ÙĨ
ĠÙĤ Ø¨ÙĬ
ĠÙĤ ÙĪÙĬØ©
ĠØ¯ Ø¯
ĠØ³ Ø§ÙĥÙĨ
Ø§ÙĬ Ùħ
Ø§Ø¹ Ø§Øª
Ø§Ùģ ÙĩØ©
ĠØ§ÙĦØ¹ Ø§Øµ
ĠØ§ÙĦØ¬ ÙĪØ¯Ø©
Ø¸ ÙĬÙģ
ĠØ§ÙĦØŃ Ø±Ø§Ùĥ
ĠØªØ¹ Ø±Ø¶
ÙħÙĬ ÙĬÙĨ
ĠØ¹ÙĨØ¯ ÙĪØ´
Ø§Ø® ØªÙĬ
ĠÙĬØª Ø²ÙĪØ¬
Ø¨ÙĬØ¨ Ø©
ĠØ§ÙĦØ± Ø§ÙĬ
ØªØ± ÙĪÙĦ
ĠÙĨØ´ÙĪÙģ ÙĩÙħ
ĠØªØ® Ø§Ùģ
ĠØªØ³Øª Ø·ÙĬØ¹
ĠÙĨØŃØ¨ ÙĩØ§
ĠØªØ³ Ø§ÙģØ±
ĠØ®ÙĦ Ø§Ø¨Ø©
ĠØ§Ø¯ Ø¹ÙĪ
is e
ĠØªØµ Ø±Ùģ
ĠØ§Ø³Ùħ Ùĥ
ĠÙģÙĪ Ø§ÙĦØ§
ĠØ´ÙģØª ÙĩÙħ
ĠÙħØ¤ Ø«Ø±
ĠÙĨÙĨ Ø¬ØŃ
ĠØ±Ø§Ø¨ ØŃ
ĠÙģØ§Ø´ ÙĩØ¯ÙĪØ§
ĠÙĪØ¹Ø¯ Ø¯
ĠØ¶Ø¹ ÙĬÙģ
ĠØ§ÙĦÙģÙĥ Ø§ÙĩØ©
s s
ÙĦ Ø§Ùĩ
Ø± Ø¹Ø©
ĠØ§ÙĦ Ø§Ø´ÙĬØ§Ø¡
Ø¨ ÙĦØ§
ĠÙĪ Ø¨Ø¯
ĠÙħ Ø§Ø¡
ÙĤ Ø§ÙĦÙĪ
ĠØ¨ ÙĪØ³Ø¹Ø§Ø¯Ø©
ĠÙĦ ÙĬÙĨ
ĠØ¹ ÙĨÙĬ
ĠØ¹ Ø³ÙĦ
ĠØ¹ Ø§ÙĤ
ĠÙĨ Ø§Ø´ÙĬÙĪÙĨØ§ÙĦ
ĠÙĥ Ø¨ÙĬ
ĠÙĥ Ø£Ø³
ĠØ¬ ÙĦØ§ÙĦ
ĠØ¬ ÙĪØ§Ø§Ø¯
ĠØŃ Ø§ÙĦÙĩ
Ø¶ Ø§ÙģØ©
Ø±ÙĬ ÙĪ
ÙĦÙħ Ùĩ
Ø¨Ø± Ùī
ÙĬØª ÙĨÙĬ
ĠØ§ÙĬ Ø¨Ø§Ø±Ùĥ
ÙĩØ¯ Ø±ÙĪ
ĠØ§ÙĦØµ Ø±Ø§ØŃØ©
ĠØ§Ø¨ ÙĨØ§Ø¡
Ø¶ØŃÙĥ ÙĨÙĬ
Ø³Ùħ Ø¨Ø±
ĠØ§ÙĦØ· Ø¹Ø§Ùħ
Ø¯Ø± Ø§Øª
ĠØªØµ ÙĦÙĬ
ĠÙĩÙĥ Ø§Ùĥ
Ø±Ø§Ø¡ Ø©
ĠÙĦØ¨ ÙĨØ§Øª
ÙħÙĩ ÙĪØ±
ĠÙĪÙĦÙĥ ÙĦ
ĠÙħØ²Ø§ÙĦ ÙĨÙĬ
ĠÙĬØµ ÙĦÙĬ
ĠÙĪØ® ÙĦÙĬ
ĠØ·Ø±ÙĬÙĤ Ùĥ
ĠÙĪØ§ØŃ Ø³ÙĨ
Ø·Ø§ÙĨ ÙĬØ§
ĠØ¬Ø§Øª ÙĨÙĬ
ĠÙĬÙħÙĥÙĨ Ùĥ
ĠØ§ÙĦØ¹ÙĦÙħ Ø§Ø¡
ĠÙħØ§Ùĩ ÙĬØ´
ĠÙĪÙĥØ§ÙĨ Øª
ØªÙĦ Ø§Ùģ
ĠØ¨ÙĬØª Ø²Ø§
ØªØ³ Ø§ÙħØ©
ĠØ§ÙĦÙĨØµ Ø§Ø¦ØŃ
ĠØ¥ÙĬ Ø¬Ø§Ø¨ÙĬØ©
ĠØ§ÙĦÙĨØ¸ Ø§Ùħ
ĠØ¹ÙĦØ§Ø¬ Ø§ÙĦ
ĠØ¨ÙĪØª ÙģÙĦÙĬÙĤØ©
n es
Ġ Y
ÙĦ Ø¨ÙĬ
ÙĪ ÙħØ§
Ø§ÙĦ Ø§Ø®
Ø± Ø§ÙĬ
ĠÙĪ Ø§Ø¯ÙĬ
ĠÙħ Ø±Ùĥ
Ø¹ ÙĦÙĩ
ØŃ Ø§Ø¬Ø©
ĠØª ÙĥÙħ
ĠØª ÙĪÙģ
ĠØª Ø®ÙĦØ·
Ø´ Øª
ĠØ¹ ÙĩØ¯
ĠØ¹ ÙģØ³Ø©
ĠØ± Ø§Ùħ
ĠØ± ÙĪØ³
ĠØ± ÙĤØ§Ø¯
ĠØŃ Ø°
ĠØ§ÙĦÙħ Ø²
ĠØ³ Ø§ÙĦ
ĠØ³ ÙĪØ±Ø©
ĠØ³ Ø§Ø¹Ø¯
ĠØ¨Ø§ÙĦ Ùĩ
ĠÙĥÙĬ ÙĥÙĪÙĨ
ĠØªØ¹ ÙĨÙĬ
ØŃÙĥ Ø§ÙĬØ©
ĠØ§ÙĦÙģ Ø±ÙĬÙĤ
ĠØ§ÙĦÙģ Ø¶Ø§Ø¡
ĠØ§ÙĦØ¨ Ø§ÙĦ
Ø¯ÙĬØ± ÙĦÙĨØ§
ĠÙħØª Ø£
ĠÙħØª ÙģØ±Ø¬
ÙģØ± ÙĤ
ĠØ§ÙĦØ³ Ø§ØŃ
ĠØ§ØŃ Øª
ĠØ§Ùħ ÙĨÙĬØªÙĬ
ĠØ¶ ØŃ
ĠØ¯ÙĬØ± Ø§ÙĥØª
ĠØ§ÙĦÙĪ Ø§Ø³Ø¹Ø©
ĠÙħØ± Ø§Ùĩ
ĠØ¯ÙĬ Ø³
ĠÙĤØ§ÙĦ Ùĩ
ĠÙĪØ¹ ÙĨØ¯ÙĬ
ĠØ§Ùģ Ø±ÙĬÙĦ
an k
Ø®Ø± Ùī
ĠØ§Ø³Øª ÙħØªØ¹Øª
ØªÙħ Ø§Ùħ
ĠÙĥÙĪÙħ ÙĨØªØ§Ø±
ÙĬÙĪ Ø§ÙĨ
Ø§Ø« Ø±
ĠÙģÙĩÙħ ØªØ´
ĠØŃØ³ ÙĨÙĬ
ĠÙĪÙģÙĬ ÙĩØ§
Ø¯Ø¹ Ø§Ø¡
ĠÙĬÙħ Ø§Ùĥ
ĠØ§ÙĦØ¨ÙĬ Ø¶
Ġg r
ĠØµØ§ÙĨ Ø¹ÙĬ
ĠØŃÙĥ Ø§ÙĬ
ĠØŃØ³ÙĨ Ø§ØªÙĥÙħ
ĠØ£Ø¨ Ø¯Ø§
ĠÙģØ¯ÙĬÙĪ ÙĩØ§Øª
ĠØ§ÙĦÙĤÙĬ Ø§ÙħØ©
ĠØ®Ø§Øµ Ùĩ
ĠÙĥÙĪÙĥ Ø¨
ĠÙħÙĨØª Ø¬
ĠÙħÙĪØª ÙĪØ±
ĠØ®ÙħØ³ Ø©
ĠØ§ÙĦÙĨØµ ÙĬØŃØ©
ØªÙĪØŃØ´ ÙĨØ§Ùĥ
ĠÙħØºØ§Ùħ Ø±Ø©
ĠÙĪØ§ÙĦØ¯ÙĬ ÙĥÙħ
ĠÙĪØ§ÙĦÙĬ ÙĪÙħ
ĠØ¥Ùģ Ø±ÙĬÙĤÙĬØ§
ÙħÙģÙĩÙħ ØªØ´
ĠØ¨ÙģØ§Ø± Øº
o w
ÙĪ Ø®Ø©
ĠØ§ÙĦ ÙĪØ¬
Ùĩ ÙĨØ§Ùĥ
ĠÙĪ ÙĬØ§
ĠÙħ ÙĩØ¯
ÙĤ ÙĦØª
ĠÙĬ Ø³ÙħØŃ
ĠØ¨ Ø°
ĠØ¨ ÙħÙĨ
ĠØª Ø§ÙĦÙĬ
Ø´ Ø±Ùģ
ĠØ¹ Ø¬
ĠØ¹ Ø§Ø±
Ø¬ Ø§ÙĬØ©
ĠØ± ÙĤ
ĠØ± ÙĬÙģ
ÙĦÙĬ ÙĬÙĨ
ĠØ¬ ÙĪØ¬
ĠØŃ Ø±Ùģ
Ø±ÙĬ Ø§Øª
ĠØ§ÙĨ ØµØ±
ĠØ¯ Ø¨
Ø§Ø¡ Ø©
ĠÙħØ§ ÙĬÙĨ
ĠÙĥÙĬ ÙĦÙĪ
ĠØº Ø±
Ø§Ø¬ Ø§Øª
Ø±Ø¬ Ùħ
ÙĪÙħ ÙĪÙĨØªØ§Ø±
Ø³ÙĬ Ø³
ĠÙĪÙĬ Ø®
ĠÙħØ´ ÙĪ
ĠÙĪØª Ø³Øª
ĠØ¨ÙĦØ§Ø¯ ÙĪ
ÙĪÙĦÙĬ Ø¯
ĠØ§ÙĦØ± Ø²ÙĤ
ØªØ± Ø§ÙģÙĬØ©
ĠÙĤØ§ÙĦ ÙĦÙĬ
ĠØ§ÙĦØ· Ø±ÙĤ
ĠØªÙĤ ÙĦÙĬ
ĠÙģØ± Ø¶
ĠÙĪØ¬ Ø¯Øª
on t
ĠÙĬØ³ Ø§Ø¹Ø¯
ĠÙĬÙĨ ÙģØ¹
ĠØ§ÙĦÙħØ¹ ÙĬØ´Ø©
ĠÙĪÙĥ ÙĨØª
ĠØªÙĥ Ø°Ø¨
Ø§Ø³Ùħ ÙĬÙĨ
ĠÙħØ® Øª
ĠØ²ÙĪØ¬ Ø©
ÙĪØ§ÙĨ ÙĬÙĨ
ĠØ§ÙĤ Ø±Ø¨
ĠÙĬÙģ ÙĪØª
ĠÙĤØ±ÙĬØ¨ Ø§
ĠÙĤØ±ÙĬØ¨ Ø©
ĠØ§Øº ÙĨÙĬØ©
ĠØŃØ³Ø¨ ÙĨØ§
ĠØ¯ÙĪ Ø§Ø¡
ĠØ±Ø£ ÙĬØª
ĠØ¨Ø±Ø§ Ø§ÙģÙĪ
ĠØ«ÙĦØ§Ø« Ùĩ
ĠÙħØ¹Ø±ÙĪÙģ Ø©
ĠÙĥØ« Ø±Ø©
Ø§ÙģÙĤ ÙĨÙĬ
c c
m ent
ÙĨ ØªÙĪÙħØ§
Øª Ø³Øª
ĠÙĪ ÙħÙĬ
Ø¹ ÙĬØ©
ØŃ Ø³Ø¨
ÙĤ Ø§Ø´
ĠÙĬ ÙĨØ³
ĠØ¨ ØºÙĬ
ĠØª Ø³Ùħ
ĠØª ØµÙĦ
ĠØª ÙĦØ§ÙĤ
ĠÙĦ Ø§Ø±
ĠÙĦ Ø®ÙĬØ±
ĠØ´ Ø§Ùĥ
ĠØ´ Ø¨Ø¹
ĠØ£ ÙĤÙĦ
Ø±ÙĬ Ø¹Ø©
ĠØ§ÙĦÙħ Ø¯ÙĬØ±
ĠØ§ÙĦÙħ Ø¯Ø±
ĠØ§ÙĦÙħ ÙĪÙĤØ¹
ĠØ³ Ø§ØŃ
ĠØ³ ÙĨØª
ĠØµ ÙĬØ§Ùħ
Ø£ Ø³Øª
ĠØ§ÙĦØ¹ Ø³ÙĦ
ĠØ§ÙĦØ¹ Ø§ÙģÙĬØ©
Ø±Ø¬ Ø§Øª
ÙĦÙħ Ø³Ø§ÙĨ
ĠØ§Ø® Ø¯Ùħ
ĠØ´Ø§Ø¡ ÙĦÙĦÙĩ
ĠØ§ÙĦÙĤ ØµØ©
ĠØ§ÙĦØ³ Ø®
ĠØ§Ùħ Ø§Ø²ÙĬØº
ĠØ£ÙĨ ÙĩÙħ
ĠØ§ÙĬ Ø¬Ø§Ø¨ÙĬ
ÙĩØ¯ Ø±Ø©
ĠØ« ÙħÙĨ
ĠÙĦÙħ Ø³
ĠÙĨØŃ Ø³Ø¨
Ø¦ Ùĩ
ÙĢ Ùħ
ĠØªÙĨ Ø´Ø±
ĠÙĬÙĤ ÙĪÙħ
ĠÙĤÙĦØª ÙĦÙĪ
ĠÙĨØµ ÙĬØ¨
ĠÙĥÙĪÙħ ÙĬØ¯ÙĬØ©
Ø¬Ø² Ø©
Ø¥ÙĨ Ø³Ø§ÙĨ
ĠØªÙĩ ÙĦØ§
ĠØ´ÙĩØ± ÙĬÙĨ
ÙĤÙĪ Ùī
ĠØ±ÙĪØ§ØŃ ÙĥÙħ
ĠØ§ÙĦÙħØºØ§Ùħ Ø±Ø§Øª
ĠÙĤØ¨Ø± Ùĩ
ĠØ§ÙĦÙģØª ÙĨØ©
ĠØ§ÙĦØ§Ø· ÙģØ§ÙĦ
ĠÙħÙģÙĩ ÙĪÙħØ©
ĠÙĨØªØ§ÙĪ Ø¹Ùĥ
Ġave c
ĠØ§ÙĦØ±Ø§ØŃ ÙħÙĬÙĨ
t h
Ġ Ø§Ø¯ÙĬ
ĠÙ ±
Ø§ÙĦ Ø®
Ùħ Ø²
ĠÙĪ ØªÙĥ
ĠÙĪ ÙĥÙĬÙģØ§Ø´
Ùģ Ø§ÙĩÙħ
ĠÙĬ Ø³Ùħ
ĠØ¨ ÙĤÙĬ
ĠÙģ Ø§Ø³
ĠØª ÙĪØ³
ĠØ¹ Ø°Ø§Ø¨
ĠÙĨ Ø¯ÙĪ
ĠØ± Ø§ÙĪ
Øµ ÙĦÙī
Ø· ÙĦØŃ
ĠÙħÙĨ Ø´ÙĪÙģ
ĠØ´ ÙĥÙĪØ¨ÙĬ
ĠØ£ ÙĦÙĬ
ĠØ³ Ø¹ÙĪ
Øº Ø±ÙĬ
ĠÙĪØ§ÙĦ Ùĩ
ĠÙĪØ§ÙĦ ÙĪØ§
ĠÙħØ¹ ÙĨØ¯ÙĬØ´
ĠØ¨Ø§ÙĦ Ø¥
ĠØ®ÙĪ Ùĩ
ĠØ§ÙĦØŃ ÙĦÙĤÙĩ
ĠØ² Ùĩ
Ø¨Ø± Ø¯
ĠÙħØª Ø±
ĠØ§ÙĦØ¯ Ø±Ø§ÙħØ§
ĠØµØŃ Ø§Ø¨ÙĬ
ĠÙĬØª Ø´
ĠÙĬØŃÙģØ¸ ÙĪ
ÙĥÙĦ Ø´
Ø§ÙĦÙĬ Ø³ØªØ§
Ø¨Ø¹ Ø´
ĠØªÙĤ ÙĦ
Ø¦ Ø§Øª
ĠÙģØ± ÙĪÙĨØ³ÙĬ
Ø§Ø¶ ÙĦ
ĠÙĨØŃØ¨ Ø³
ĠØ§ÙĦØ² ÙĬÙĨØ©
ĠØ¨Ùĥ Ø«ÙĬØ±
ĠØªÙħ Ø³
er ci
Ġs al
ĠÙĪÙĥ Ø§ÙħÙĦ
ĠØ§ÙĦÙĦ Ø³Ø§ÙĨ
ĠÙħØ® ÙĦÙĪ
ĠÙĤØ¯ Ø§Ùĩ
ĠÙĤØ§Ø¹ Ø¯ÙĬÙĨ
ĠØŃØ³ Ø¨ÙĬ
Ġn e
Ġg o
ĠØ¸ ÙĩØ±
ĠÙĦÙģ Ø¯ÙĬÙĪ
ĠØ£Ø³ Ø·ÙĪØ±Ø©
Ø¹ÙĨØ¯ ÙħØ§
Ø´Ùģ Ùī
ĠØ³Ùĥ ÙĬÙĥØ¯Ø©
ĠÙĥØªØ¨ Øª
ĠÙĪÙĬØ¬Ø¹ ÙĦÙĥ
ĠÙĬÙĨØª ÙĩÙĬ
ĠØªÙĨØª ÙĤØ¯
ÙĬØ§ÙĪ Ø¯ÙĬ
ĠØ¹ÙĦØ¨ Ø§ÙĦÙĬ
ĠÙħØ³Ùĥ ÙĬÙĨØ©
cou p
ĠØ®ÙĨØ´ ÙĦØ©
j our
p k
Ú ¾
ÙĦ ÙĨÙĬ
Ùħ Ø¨Ø¯Ø¹
Ùĩ Ø±Ø¨
ĠÙħ ÙĪØ´
Ø¹ ÙĦÙĬ
ØŃ Ø«
ØŃ ÙĦÙĪ
ĠÙĬ Ø¶Ø¹
ĠØ¨ ÙĦÙĩ
ĠØª Ø¶Ø¹
ĠØª ÙĪÙĤÙģ
ĠÙĦ Ø§ÙģÙĬ
ĠØ¹ Ø§ØµÙħØ©
ĠÙĨ Ø±ÙĬØ¯
ĠØ± Ø¶ÙĬ
ĠØ® ÙģØª
ĠØ¬ Ø§Ùĩ
ĠØ¬ ÙĬÙĦ
ĠØŃ Ø¯ÙĬØ«
Ø§Ø¯ ÙĦ
ĠØ£ ÙĬØ§
ĠØ§ÙĦÙħ ÙĤØ¯
ĠØ³ Ø§ÙĨ
ÙĪØ± Ø§Øª
Øº Ø§ÙĦ
ĠØµ Ø¨ØŃ
Ø§Ùĩ ÙĬØ±
ĠØ§ÙĦØ¬ ÙĬÙĦ
ĠØ¨Ø§ÙĦ Ø´ÙģØ§Ø¡
ÙĦÙħ Ø§Ø°Ø§
ĠÙĥÙĦ Ø§Ø´
ĠØ§ÙĦØŃ ÙĬÙĪØ§ÙĨØ§Øª
ÙĪÙĥ ÙĬ
Ø¯ÙĬØ± ÙĪÙĨØ§
ÙĪØ¨ Ø§Øª
ĠÙĪÙĨ Ø¹Ø±Ùģ
ĠÙĥÙĬÙģ ÙĥÙĬÙģ
ĠØ§Ø¨ ÙĪÙĨ
ĠÙĦÙħ Ø´
ĠÙĪØ´ Ø¨ÙĬÙĩ
ÙĨØ³ Ø§Ø¡
ÙģØª Ø§ØŃ
ĠÙħÙĤ Ø§Ø±
ĠÙħØµ Ø¯Ø±
ĠØ¨Ø±Ø§ÙģÙĪ ÙĪ
ĠÙĤØµ Ø¯ÙĬ
el le
ĠÙħØŃØªÙĪ ÙĬ
Ø£Ùĥ Ø«Ø±
ĠÙģØ§ÙĬ Ø¯Ø©
ĠÙģÙĤ ÙĬØ±
ĠØ§ØµØ¨ØŃ Øª
ĠÙģØ¯ Ø²Ø§ÙĬØ±
Ġbeau coup
Ġcontinu ation
Ġ i
ĠØ§ÙĦ ÙĩØ§ØªÙģ
Ùĥ Ø§ÙħÙĦ
ĠÙĪ Ø´ÙĪÙģ
Ø¹ Ø§ÙĬØ©
ĠØ¨ ØºÙĬØ±
ĠØ¨ ØµØ±Ø§ØŃØ©
ĠÙģ Ø±ÙĬÙĤ
ĠØª Ø°
ĠÙĦ ÙĤØ·
ĠÙĥ ÙĪÙĬ
ÙĦÙĬ ÙĪÙħ
ĠØ® Ø¶
ĠØ¬ ÙĨØ§ÙĨ
ĠÙĤ ÙħØª
ĠØ£ Ø¸ÙĨ
ĠØ§ÙĨ ÙĥÙħ
ĠØ§ÙĨ Ø§ÙĬØ§
ĠØ¯ Ø§Ùģ
ĠØ§ÙĦÙħ Ø·Ø§Ø±
ĠØ³ Ø§ÙĩÙĦ
ĠØ³ Ø§ÙĩÙħ
ĠØ³ Ø§ÙħØŃ
Øº ÙĪÙĦ
Ø£ Ø®
ĠØ§ÙĦØ¹ Ø§ÙĦ
ĠØ§ÙĦØ¬ ÙħØ¹ÙĬ
ÙģÙĬ ÙĩØ§
ĠØ§ÙĦØŃ ÙĪØ§Ø±
ĠØªØ¹ ÙĬØ·
ĠØ· Ø§ÙĦ
ĠØ§ÙĦÙģ Ø·ÙĪØ±
ĠØ§ÙĦÙģ ÙĥØ±Ùĩ
ĠØ§ÙĦÙĤ Øµ
ĠØ§ÙĦØ¨ Ø§Ø±
ĠÙħØª ÙĨ
ÙħÙĪ Ø§ÙĦ
Ø¬Ø¨ Ø§ÙĦ
ÙĤØª Øµ
ĠÙĪÙĨ Ø²ÙĬØ¯
ĠØ§ÙĦØ± Ø§Ø¨
ĠÙģØ§ÙĦ Ùĥ
ĠØ§Ùģ ÙĦØ§Ùħ
ĠÙĨØ§Ø³ ÙĬ
ĠØªØª ÙħÙĨØ§
ĠØ¨Ø¯ Ø±Ø§ÙĩÙħ
ĠØ§ÙĦØ¥ ÙĨØª
ĠØ§ÙĦØ² ÙħØ§ÙĨ
ĠÙĨØ³Øª ÙģØ§Ø¯
ĠÙĦØ¨ Ø§Ø±ØŃ
ĠÙĤØª ÙĦØª
ĠØ±Ø§ÙĬ ÙĥÙħ
Ø¨Ø§ÙĦ ÙĨØ³Ø¨Ø©
ĠÙĬØµ ÙĨØ¹
ĠÙĥÙħ ÙĬØ©
Ø§ÙĦØ¹ ØªØ±ÙĪØ³
ĠØ¨ÙĪ Ø§ØŃØ¯
ĠØ§ÙĦØ£Ùħ Ø§ÙĥÙĨ
ĠÙĨØªØ¨Ø¹ ÙĪ
ĠÙĦØ¯ Ø±Ø¬Ø©
ĠØªØ¹ÙĦÙĬÙĤ Ùĥ
ĠØ´Ùĩ Ø§Ø¯Ø©
ĠØ§ÙĦØ´Ø¹ Ø¨ÙĬ
Ġtr s
ĠÙĬÙģØ±Ø¬ ÙĩØ§
ĠÙħØªØ¹ ØªÙĨØ§
ĠÙĬØ£ ØªÙĬ
ĠÙĬØ¯ÙĪÙħ ÙĩØ§
ĠÙħØªØª Ø¨Ø¹
Ø®Ø§Ùģ Ø´
ĠØ§ÙĦØŃÙĪ Ø§ÙĬØ¬
ĠÙĨÙĪÙģ ÙħØ¨Ø±
o x
t s
Ø± Ø·
Ùĩ Ø´
ĠÙħ Ø¯ÙĬÙĨ
Ø¹ Ø§Ùĥ
ĠÙģ ÙĦÙĩ
Ø´ ÙĪØ´
ĠÙĨ ÙĩØ§
ĠÙĩ Ø§ÙĪ
Ø· ØŃ
Ø¨ÙĬ Ø¶
ĠÙħÙĨ ÙĬØŃ
ĠØ¬ Ø¹ÙĦ
ĠØŃ Ø§Ø³Ø¨
Ø¶ Ùħ
ĠÙĤ ÙĪÙĬ
Ø±ÙĬ ÙģØ©
ĠØµ Ø§Ùħ
ĠØµ Ø§Ø±ÙĬ
Ø§Ø¦ ÙĤÙĬ
ĠØ§ÙĦØ¬ ÙħØ¹
ĠØ§ÙĦØ¬ ÙĬØ´
Ø§ÙĪ Ø¨
Ø³Øª ÙĩØ§Ø´
Ø§Øµ ÙĦØ©
ÙħÙĨ Ø©
Ø¨Ø± Øª
ĠÙĪÙĬ ÙĪÙģÙĤ
Ø¯ÙĬØ± ÙĨØ§
ĠÙħØª Ø£ÙĦÙĤ
ÙħÙĪ Ø§Øª
ĠØ§ÙĦÙĥ Ø¨Ø§Ø±
ĠØ§ØŃ ÙģØ¸
ĠØ§ÙĦØ® Ø§Ùħ
ĠØ§ÙĦØµ ÙģØ±
ĠØ§Ùĥ Øª
Ø²ÙĬ ÙĦ
ÙĪØª ÙĬÙĨ
Ġp ers
Ġd a
ĠØ£Ø® ØªÙĬ
ĠÙĩØ§Ø° Ø§Ùĥ
ĠÙĦØ¹ ÙĨØ¯
ĠÙĤÙĨ Ø§Øª
ĠÙĨÙĤ Ø§Ø±Ø¹
Ø¹Ø±Ùģ ÙĪØ´
ĠÙĥÙĪÙħ ÙĪÙĨØªØ§Ø±
ĠØªØ´ÙĪÙģ ÙĬ
ĠØŃÙĤ ÙĪÙĤ
ĠÙĩØ¯ Ùģ
ĠØ¹Ø¯ ÙĨØ§ÙĨ
ĠÙĬÙħ Ø§Øª
ĠÙħÙĩÙħ Ø©
ĠÙħÙģ ØªÙĪ
ĠØŃØ¯ ÙĪØ´
ĠÙĦØ¬ ÙħÙĬØ¹
ÙĤØªÙĦ ÙĨÙĬ
ĠÙĬØ¶ØŃÙĥ ÙĨÙĬ
ĠØ§ØŃØªØ± Ø§ÙģÙĬ
ĠØ§ÙĦØ§Ø³ÙĦØ§Ùħ ÙĬØ©
ĠØ§ÙĦØªÙĦÙģ Ø§Ø²
ĠØ§ÙĦØ¯Ø± Ø§Ø³Ø©
ĠÙĦØ¨ÙĦ Ø§ØµØ©
ĠÙĦØ¯ÙĬ ÙĩÙħ
ĠØ§ÙĦØªØ´ Ø¬ÙĬØ¹
ĠØ¯ØŃÙħ Ø§ÙĨÙĪØ³
ĠØ§ÙĦØµØº ÙĬØ±Ø©
ĠØ£ÙĪØ± ÙĪØ¨Ø§
ee p
Ù ±
ÙĬ Ø§ÙĨØ§
ĠØ§ÙĦ Ú¨
ĠØ§ÙĦ Ø¶Ø±
Ùĩ Ø²
Ùĥ Ø§Ø¡
Ø¨ ÙĪØ¯ÙĥØ§Ø³Øª
ĠÙħ ØŃÙħ
ÙĤ ÙĦØ¨
ÙĤ Ø¨Ø§ÙĦ
Ø³ Ø¹
ĠÙĬ ÙħØª
ĠØ¨ ØŃØ¨
ĠØ¨ Ø±ÙĪØŃ
ĠÙĦ Ùī
ĠÙĦ ÙĪØ±
ĠÙĦ Ø§Øµ
ĠÙĦ ÙĪØ¬Ùĩ
ĠØ¹ ÙĪÙĨ
ĠØ¹ Ø§Ø¬
ĠØ¹ ÙĪØ¯Ø©
ĠÙĨ ÙĪÙħÙĬØ¯ÙĬØ§
Ø§Ø± ÙĤØ©
Øµ ÙĦÙĥ
ĠØŃ Ø²
ÙĪÙĨ Ø´
ĠÙĤ Ø³Ùħ
ĠÙĤ ØµØ±
ĠØ£ Ø«
ĠØ£ ÙħØ©
ĠØ§ÙĦÙħ Ø¯ÙĬØ©
ĠØ§ÙĦÙħ ÙĬØ³
ĠØ³ Ùģ
ĠØ³ Ø§Ùģ
ÙĪÙĦ ÙĥÙħ
ĠÙĪØ§ÙĦ ÙħØ¹
Ø§ÙĪ ÙĩØ§
ĠØ¹ÙĨ ÙĨØ§
ÙĤÙĬ Ùģ
ĠØ§ÙĦØª ÙĤØ¯ÙĬØ±
Ø³ÙĬ Ùĩ
Ø§Ø² ÙĦ
ĠØ§ÙĦØ´ Ø±Ùģ
Ø¹Ø¯ ÙĦ
ĠØ±ÙĪ Ø¶Ø©
ĠØ§Ø³ ØªØ±
ĠØ§ÙĦØ£ Ø´
ÙĪØ¬ Ø©
ĠÙĨØ¹ ÙĬØ·
ĠÙĬÙĪÙģÙĤ ÙĨØ§
ÂłÂł Ġ
ĠØ¨ÙĬ Ø¶
ĠÙĨØ´ Ø¬Ø¹
ĠÙĨØ³ Ø§
ĠÙħØ² ÙĬØ©
ĠØ§Øµ ÙĦ
ĠÙĤÙĦ Ø§ÙĦ
ĠÙĬØ· ÙĦØ¨
ĠØªØ´ÙĪÙģ ÙĪØ§
Ø¬Ø¨ØªÙĨÙĬ Ø´
ĠØ§ÙĦÙħØ³ Ø±ØŃ
ĠØ±Ø§ Ø§Ø¦Ø¹
ĠÙĬØµ ÙĪØ±
Ġe l
ĠØ¬Ø¯ Ø¯
ĠÙħÙĪÙĦ Ø§ØªÙĬ
ĠÙĪÙĬØ¹ Ø§ÙģÙĬÙĥ
ĠØŃØ³ÙĨ Ø©
ĠÙħÙĪØ± Ø§ÙĦ
ĠØŃØ¯ Ø«
ĠØ£Ø¨ ÙĨØ§Ø¡
ĠØ£ÙĪÙĦ Ø§Ø¯
ĠØ§ÙĦØ¥ÙĨ Ø¬ÙĦÙĬØ²ÙĬØ©
ĠØªØ¨Ø§ÙĨ ÙĦÙĬ
ĠØµÙĨ Ø§Ø¹Ø©
ĠÙĪØªØ¹ Ø§ÙĦÙī
ĠØ²Ø±Øª ÙĩØ§
ĠØµØ§ÙĬ Ùħ
ĠÙĥØ¨Ø± Øª
ĠØªÙģÙĥ ÙĬØ±
ĠØ¹ÙĦØ§ÙĤ Ùĩ
ĠØ¬ÙĬÙĪØºØ± Ø§ÙģÙĬÙĥ
d i
ÙĬ ÙĥÙħ
ÙĬ Ø§Ø©
ÙĨ Ø³Øª
Ø§ÙĦ Ø¬Ø²Ø¡
Ø± Ø§ÙĦ
ĠÙħ Ø°
ĠÙĬ ÙħØ«
ĠÙĬ Ø¨Ø¹Ø«
ĠØª Ø§Ùħ
ĠØª Ø®ÙĦØ§Øµ
ĠØª ÙĦØ¨Ø³
ĠØª ØºÙĬÙĬØ±
Ùī Ø¡
ĠØ® ÙĦØ¹
ĠØ¬ Ø§ÙĨÙĬ
ĠØŃ Ø¸
Ø§Ø¯ Ø±Ø©
ĠÙĤ ÙĦØ©
ĠØ£ ÙĤÙĪÙĦ
ĠØ£ Ø±Ø¯
Ø§Ø¨ Øª
ĠÙĪØ§ÙĦ ÙħØ³
ĠÙĪØ§ÙĦ Ø¬Ø²Ø§Ø¦Ø±
Ø§Ø³ ÙĦØ§Ùħ
ĠØ§ÙĦØ¹ Ø¯ÙĬØ¯
ÙĦÙĪ ÙĨØ§
ĠØªØŃ ÙĤÙĬÙĤ
ĠØ§ÙĦÙĥ ÙģØ§Ø±
Ø¬Ø¨ Øª
ĠØµØŃ ØªÙĥ
ĠÙĪÙħ Ø¨Ø¹Ø¯
ĠØ¶ ÙĬØ¹
ĠØ§ÙĦØ± ÙħØ¶Ø§ÙĨ
ĠØ§Ùĥ ØªØ´Ùģ
ĠÙĪÙĩ ÙĦ
ÙĢ ÙĦ
ĠØ³ÙĬ ØªÙĬ
ĠÙħØ³ Ø§Ø¡
ĠÙĨØªÙģØ±Ø¬ ÙĩØ§
ĠÙĬØ¯ Ø¹ÙĬ
ĠØ¨Ùĩ Ø§Ø°
ĠØ®Ø· Ø±Ø§Øª
ĠÙĦØ¨ ÙĨ
ĠÙĪØ§ÙĨ Ø´Ø§Ø¡
ĠÙĪÙĥÙĦ Ø´
ĠØ§Ùĩ ÙĦØ§
or m
ĠÙĦØ§Ø¨ Ø³
ĠÙĦØ® Ø¶Ø±
ĠÙĤØµ ÙĬØ±
ĠØ®ÙĦÙĤ Ùĥ
ĠØ§ÙĦØ£Ùħ ÙĪØ±
ĠÙĬØ¶ØŃÙĥ ÙĪ
ĠØ§ÙĦÙĤÙĬ ÙĪÙħ
ĠÙħØŃØ¨ Ø©
ĠÙĪØ¹ÙĨØ¯ Ùĥ
ĠØ§ÙĦØ¬Ùħ Ø¹Ø©
ĠÙģØ§Ø± Øº
ĠØ§ÙĦÙĦØŃ Ø¸Ø©
ĠÙĦØ¨Ø³ ÙĥØ±Ø©
Ġu p
ĠØ±ÙħØ¶ Ø§ÙĨÙĬ
ĠÙĨÙĬØ´ Ø§ÙĨ
f a
Ġ W
ÙĨ Ø§ØªÙĬ
ĠØ§ÙĦ ÙĨØ§
Ø¨ Ø§Ø¡
ĠÙĪ Ø§Ø³Ùħ
Ø¯ ÙħÙĬ
ØŃ ÙĦØ©
ÙĤ ÙħØ©
ÙĤ Ø³Ùħ
ĠÙĨ Ø§Ø¬ØŃØ©
ĠÙģÙĬ Ø¯ÙĪ
ÙĬØ± ÙĬØ§
Ø® ÙĪÙĦ
ĠÙħÙĨ ØŃ
ĠØ¬ ÙĪÙĬ
ĠØŃ ÙĦÙĤÙĩ
ĠÙĤ ÙĩÙĪØ©
ĠÙĤ Ø²Ø§Ùħ
ĠØ¯ Ø¹ÙĪ
ĠØ§ÙĦÙħ Ø§Ø±
Ø° Ùģ
ÙĪÙĦ Ø§Øª
Ø§Ùĩ ÙĦØ§
ĠØ§ÙĦØ¹ Ø§Ø¦
ĠØ§ÙĦØ¹ ØµØ±
Ø±ÙĪ ÙĪØ¹Ø©
ĠØ¨Ø§ÙĦ Øº
ÙģÙĬ ÙĦÙħ
Ø³Øª Ùħ
ĠØ§ÙĦØŃ Ø±Ø§Ùħ
ĠØ§ÙĦÙĨ Ø´
ÙĤØ¯ ÙĬÙĨ
ĠØ§ÙĦÙĤ Ø§ÙĨÙĪÙĨ
ÙħÙĪ ØªÙĬ
ĠÙĪØª Ø¹Ø±Ùģ
Ø§ÙĦÙĬ Ø³
ĠØ« ÙĤØ©
ĠØ¯ÙĬ Ø³ÙħØ¨Ø±
ÙĪØª Ùĩ
Ġp ay
ĠØ§ÙĦØº Ø§ÙĦÙĬØ©
ĠÙĪÙĦÙĬ ÙĨØ§
Ø®Øµ Øµ
ĠÙĨØ® ÙĦÙĬ
Ġa b
Ġb ravo
ĠÙĪÙĥ Ø£ÙĨ
ĠÙħØ³Øª ÙĤØ¨
ĠÙĦØ¨ Ø§Ùĥ
ĠØ§ÙĦØ³ÙĬ Ø§Ø±Ø§Øª
ĠÙħØ§Ø² ÙĦØª
ĠØ®Ø¯Ùħ ØªÙĥ
ĠØ§ÙĦØ¨ÙĦ Ø§Ø¡
Ø§Ø¦ÙĦ Ø§Øª
ĠÙĨØ¸ ÙĬÙģ
ĠØªÙĬ Ø§Ø±Øª
ĠØ¬Ø§Ø¨ ÙĦÙĬ
ÙģÙĥ ÙĬØ±
ĠÙħØŃØ¨ ÙĪØ¨
ĠÙħÙĨØª ÙģØ±Ø¬
ĠØªÙĤØ¯ ÙħÙĩ
ĠÙĪÙĬØ¬Ø¹ ÙĦÙĩ
ĠÙĪØº Ø¯Ø§Ø±
ĠØ±Ø²ÙĤ Ùĥ
Ø·Ø§ÙĦ ÙĬØ§
ĠØ§ÙĦØ¯Ùħ Ø¹Ø©
ĠÙĩÙĩÙĩÙĩ Ùĩ
ĠØ£Ø³Ø¨ ÙĪØ¹
ĠØ§ÙĦÙħÙĬØ³ Ø§Ø¬
u e
v log
ÙĬ ÙĦÙĬ
Ø± Ø±
Øª Ø¬
ĠÙĪ Ø®ÙĬØ±
ĠÙħ Ø§ÙĪ
Ùģ Ùģ
ĠÙĬ Ø§Ø¯
ĠØ¨ Ø§Ø³Øª
ĠØ¨ Ø§Ø¬ÙĬ
ĠØª ÙĨØ¯
ĠØª Ø¤
ĠØª Ø°ÙĥØ±
ĠÙĦ Ø²
ĠÙĦ Ø§Ø¬
Ø´ Ø§ÙĩØ¯
ĠÙģÙĬ ÙĨ
ĠÙģÙĬ ÙģØ±ÙĬ
ĠÙĥ ÙĬØ±
ĠØ± Ø§Ø¨Ø¹
ĠØ´ ÙĦ
ĠØŃ Ø§Ùħ
ĠØ£ ÙĥÙĦ
ĠØ§ÙĨ ÙĨØ§
ĠØ¯ Ø§ÙħØ§
ĠØ§ÙĦÙħ Ø¨Ø§Ø¯
ĠØ³ ÙĤØ³ÙĬ
ĠØ³ ÙĩÙĬÙĦØ©
ĠØµ ÙĦÙĪØ§
Ø« ÙĦ
ĠØ§ÙĦØ¹ ÙĤÙĦ
ĠØ¨Ø§ÙĦ ÙħØ¹
Ø¸ Ùģ
ĠØ§ÙĦØŃ ÙĤÙĬÙĤÙĬØ©
ĠØ· ÙĪØ¨
ĠÙĪÙĬ ÙĤÙĪÙĦ
ÙĪÙĥ Ø§
ÙĬØ¨ Ùĩ
ĠÙħØª ÙĦ
ÙħÙĪ ØªÙĪ
ĠØ§ÙĦØ£ ØºÙĨÙĬØ©
ĠØ§ÙĦØ® Ø¯
ĠÙĬØª Ø¹Ø¨
ĠÙĬØŃÙģØ¸ ÙĦÙĥ
ĠÙĨØ¹ Ø·
ĠØ§ÙĦØµØŃ ÙĬØŃ
ĠØ¯ÙĬØ± ÙĪÙĦÙĬ
ĠØ§ÙĦØµ ÙĬØ§Ùħ
Ø¦ ÙĬ
ĠÙĥÙĨØª Ø´
ĠÙĦØ§Ø²Ùħ ÙĦÙĥ
ĠØ° Ø§ÙĦÙĥ
ĠØ³ÙĬ Ø§ØŃÙĬ
ĠØ¨Ø¯ Ø§ÙĪ
ĠÙĬØ³ Ø±
ĠÙĨØ³ ÙĨØ§
ĠØ§ÙĦØ² ÙĩØ±
ĠØ§Øª ÙģØ±Ø¬
ĠØ¯Ø§Ø± ÙĩØ§
is t
Ø±ÙĪØ³ Ø©
ĠÙĥÙĪÙħ Ø¨ÙĦÙĬ
ĠØ§ÙĦÙħÙĨ Ø²ÙĦ
ĠØªØ¹Ø±Ùģ ÙĪ
ĠÙħÙĤ Ø§Ø¨ÙĦ
ĠØ¯Ø± Ø§Ø±ÙĬ
ĠØ§ÙĦØ¨Ø± Ø§ÙĨÙĬ
ĠÙĬÙģ Ø¹ÙĦ
ĠÙĪØŃØ¯ ÙĩÙħ
ĠØ³ÙĦØ§Ùħ ØªÙĥ
ĠØ¬Ùħ ÙĦØ©
ĠØ§ÙĦØ¬Ø²Ø§ÙĬØ± ÙĬ
ĠÙĨÙĤØ¯Ø± Ø´
ĠØµÙĪ ØªÙĥ
ĠÙĬØ¹ÙĬØ´ Ùĥ
ĠØ¨ÙĦØ§Øµ ØªÙĪ
ĠØŃØ± Ø§Ø´ÙĬ
ĠØ§ÙĦØªØ¬ Ø§Ø±Ø©
ĠØ§ÙĦØªØ¬ Ø±Ø¨Ø©
ĠØ§ÙĦÙĪÙĦ Ø§ÙĬØ©
ĠØ§ÙĦØ§Ùģ ÙĦØ§Ùħ
ĠØ¯Ø® ÙĦÙĥ
ĠØ§ÙĦØ¨ÙĬØª Ø²Ø§
ĠÙĬØ±Ø¶ Ùī
Ġsu is
ĠØ§ÙĦÙħØ¤ÙħÙĨ ÙĬÙĨ
ĠÙĬØ¬Ø§Ø²ÙĬ ÙĥÙħ
ĠØ§ÙĦØ§ÙĨØªØ± ÙĨØª
M o
g Ã©r
j s
Ùĩ Ø§ÙĦÙĥ
ÙĤ ÙĦÙĥ
ĠØ¨ ÙĪÙĦÙĬ
ĠØ¨ Ø§ÙĨØª
ĠØª Ø³ÙĦ
ĠØª Ø³ÙĬ
ĠÙĦ Ø±
ĠØ¹ Ø§Øµ
ĠÙĨ Ú¨
ÙĦÙĬ ÙĨØ§
Ø² ØŃ
ÙĬÙĨ ÙĪ
ÙĬÙĨ Øº
ĠØ® ÙĦÙģ
ĠØ® ÙĦÙĬÙĥ
ĠØ® ÙĦÙĪÙĤ
ĠØŃ ÙĬØ±
ĠØ£ ÙħÙĬ
ĠØ£ Ø±Ùī
Ø±ÙĬ Ø´
ĠØ¯ Ø±Ø¨
ĠØ§ÙĦÙħ Ø§ØªØ´
ĠØ³ Ø¹Ø¯
Ø§Ø¨ ÙĬÙĥ
Ø§Ùģ Ø§
Ø§Ø¦ ÙĨ
ĠÙĦÙĬ Øª
ĠØ§ÙĦØ¹ Ø§Ø´
ĠØ§ÙĦØ¬ Ø§ÙĨØ¨
ĠØº Ø±Ø¨Ø©
ÙģÙĬ Øª
Ø²Ø§Ø¦ Ø±
Ø±Ø¬ Ùĩ
ĠÙĨØª Ø²ÙĪØ¬
ÙĦÙĤ Ø·Ø©
Ø±Ø¨ Ø¹
Ø±Ùģ Øª
ĠØ§ÙĦØ¨ Ø³ÙĬ
Ø§ÙĦÙħ Ø³ÙĦØ³ÙĦ
ĠÙĪÙĨ ØµÙģ
ÙĦØ¨ Ø©
ĠØ« ÙħØ§
Ú¨ Ø±ÙĬ
ĠØ§ÙĦØº ÙĦ
ÙĨØ³ Ø§ÙĪØ´
Ġt a
ĠÙĨÙĤ Ø§Ø·
ĠØ§ÙĦÙħØº Ø±Ø¨ÙĬØ©
ĠÙĬÙĪÙħ ÙĬØ§
ĠØªØµ Ø¨ØŃ
ĠÙĩÙĥ Ø°Ø§Ùĥ
ÙĤÙĦ Ø§ÙĦ
ĠØ§ÙĦÙĦ ØºÙĩ
ĠØ§ÙĦØ§Ø® ÙĦØ§ÙĤ
ĠØ³Ùħ ØŃØª
Ø±ÙĪØª ÙĬÙĨ
ĠÙĨØ¬ Ø±ÙĬ
Ø¯Ø®ÙĦ Øª
ĠØ¯Ø®ÙĦ ÙĨØ§
ĠØ±ØŃ ÙĨØ§
ĠØªÙĦÙĤ Ø§ÙĩÙħ
ÙģØ¹ ÙĦØ§
ĠØ³Øª ÙĥÙĪÙĨ
ĠØ§ÙĦØ±ØŃÙħ Ø©
ĠÙĬØ±Ø²ÙĤ ÙĨØ§
ĠØ§ÙĦØªØŃ Ø¯ÙĬ
ĠØ®Øµ Ùĥ
ĠØ¹Ø§ÙĪØ¯ Øª
Ġcom p
ĠØ§ÙĦØ®ÙĦ Ø§ÙĬØ§
ĠÙĦØ§Ùģ Ø§ÙħÙĬ
ØªÙĪØŃØ´ ÙĨØ§
ĠÙĪÙĬØ¯ ÙĬØ±
ĠÙĪÙĬØ±Ø²ÙĤ Ùĥ
b i
k h
Ġ is
Ùĩ Ø§Ø°Ø§
Øª Ø§Ø¡
Ø¨ ÙĨØ§
Ø¹ ÙĨ
ÙĤ Ø´
ĠÙĬ ÙĥØ±
ĠØ¹ ÙĤÙĦ
ĠÙģÙĬ Ø³
ĠÙĩ Ø§ØªÙĩ
Ø· ÙĬÙĨ
ĠØ¬ Ø¨Ø¯
ĠØŃ Ø±Ø©
ĠØŃ ÙħÙĪ
Ø§Ø¨ ÙĪÙĨ
ÙĪØ± Ø¯
ĠØµ ÙĬÙģ
ĠØ§ÙĦØ¹ Ø§Ø¨
ĠÙħØ¹ Ø¸Ùħ
ĠØ¨Ø§ÙĦ Ø§ÙĨ
ĠØ¨Ø§ÙĦ Ø±ØºÙħ
ĠÙĨØª Ø§Ø¨Ø¹
ÙĦÙĤ Ø§
ÙħÙĬ ÙĦØ©
ĠØ§ÙĦÙĨ ÙĤØ¯
ĠØªØŃ Ø±ÙĤ
ĠØ§ÙĦØ¨ Ø±ÙĬ
Ø§Ø· ÙĬÙĨ
ĠÙħØª ÙĤ
ĠØ§ÙĦØ£ ØŃÙĬ
ĠÙĪØª Ø¬
ĠÙĪÙħ Ø§ÙĨ
ĠÙĨØ¹ ÙĦÙħ
ĠÙħØŃ ÙĦ
ĠØ§ÙĦÙĪ Ø¶Ø¹
ĠÙģØ§ÙĦ Ùģ
ÙģØ³ ÙĩÙħ
ĠØ§Ø¹ ÙħÙĦ
ĠØ§ÙĦØ¬Ø² Ø§Ùī
ĠÙĬÙĤ ÙĦÙĥ
ĠÙĬÙĤ Ø¨ÙĦ
ĠØ³Ùħ Ø§Ø·
ĠÙĬØ´ÙĪÙģ ÙĪØ§
ĠÙĪØ³ ÙĩÙĦØ§
ĠØ´Ø¹Ø¨ ÙĩØ§
ÙĪØ§ØŃ ÙĬ
ĠØ³ÙĪ Ø§ÙĬØ¹
ĠÙĬØ±ÙĪØŃ ÙĪØ§
ĠÙĪØ§ÙĦØª ÙĤØ¯ÙĬØ±
im e
ĠØ¹Ø¬Ø¨ ÙĪÙĨÙĬ
ĠÙĥÙĦÙħ Ùĩ
Ø²Ø¹ ÙħØ§
ĠÙĪØ§Ø¬ Ø¯
ĠØ§ÙĦØ¸ Ø±ÙĪÙģ
ĠØ¨Ø³ÙĬ Ùģ
ĠØªØ²ÙĪØ± ÙĩØ§
ĠÙħØ¹Ø±ÙĪÙģ ÙĬÙĨ
ĠØ³Ùĩ ÙĦÙĩ
ĠØªØ²ÙĪØ¬ Øª
ĠÙĬÙĦÙĤ Ùī
ÙĪÙħÙĪ Ø¨ÙĬÙĦ
ĠÙĪØ³Ùħ ÙĩØ§
ĠÙħØ§ÙĨØª ÙģØ±Ø¬
Ġpers on
s t
ÙĬ Ø§ØŃ
ÙĪ Ø³ÙĬ
Øª Ø²
Ø¯ Ø§Ø¦ÙħØ§
Ø¹ Ø¹
Ø¹ Ø¬
ĠØ¨ Ø§Ø®
ĠØ¨ ÙĪØ¹
ĠÙģ ÙĥØ±Ùĩ
ĠÙĦ ÙĪØ¬
ĠÙĦ Ø´Ø¹Ø¨
ĠØ¹ Ø§
ĠÙĨ Ø¶Ø±Ø¨
ĠÙĥ Ø§Ø±ÙĬ
Ø® ÙĪÙĨØ§
Øµ Ø±Ùģ
Ø· Ø§Ø¹
Ø· ÙĦØ©
Ø¨ÙĬ Ø¹ÙĪ
ĠØ´ ÙĨÙĪ
ĠÙĤ ÙĦÙĪ
ĠØ£ ÙħØ«
ĠØ§ÙĦÙħ ÙĨØ§
Øº Ø§Ø±
ĠÙĪØ§ÙĦ Ø§Ø®
Ø« ÙĤÙģ
Ø³ÙĦ ÙĪØ¨
ĠØ§ÙĦØŃ Ø¬
ĠØ§ÙĦØŃ ÙĬØ§Ùĩ
ĠØ¨ÙĦ Ø§Ø³
ÙĦÙĥ Ø´
ÙĤÙĬ ÙĦØ©
Ø±Ø¨ ÙĨØ§
ĠØ§ÙĦØ´ Ø§Ø±Ø¹
ĠØ§Ø® ÙĪ
ĠØ§Ø® ØªÙĥÙħ
ÙħØ§ÙĦ Ø§
ĠØ§ÙĦÙģ ÙĦÙĪ
ĠÙħØª ØŃÙħ
ĠÙħØª ÙĨØ³Ø§Ø´
ÙħÙĪ ÙĨØ§
ĠØ§ÙĦØ¯ ÙĪÙĦÙĩ
ĠØ§ÙĦØ£ ØŃ
Ø¹Ø¨ Ø§Ø¯
ÙĤØª Ø´
ÙĤØª ÙĨØ§
ĠØ§ÙĪ ÙħÙĬ
ĠÙĨØ¹ Ø§ÙĪØ¯ÙĪ
ĠÙģÙĬÙĩ Ø§Ø´
ĠØ¯ÙĬØ± ÙĪØ§
ĠØ¹ÙĦ Ø§Ø¨ÙĬÙĩØ§
ĠØ§Ø¨ Øª
ĠÙĪÙĩ Ø§Ø¯
ØªØ´ Ø§Ùģ
ĠÙĬØ³ Ø¬Ø¯
ĠÙĬØ³ Ø¹Ø¯Ùĥ
ĠÙĨØ¯ÙĬØ± ÙĪØ§
ĠÙĬØ³Øª Ø·ÙĬØ¹
ĠÙĨØ¬ ÙĪØ²
ĠÙĬØ´ÙĪÙģ ÙĩØ§
ĠÙħØ²Ø§ÙĦ ÙĪ
as s
it e
ĠØ¬Ø§ÙĬ Ø¨ÙĩØ§
ĠØŃÙħ Ø¨ÙĪÙĥ
ĠØªØ±Ùĥ ÙĬØ¨
ĠØ±Ø§Ø³ ÙĪ
ĠØªÙĬ ÙĦÙĬ
ĠÙħØ±ÙĬ Ø¶Ø©
ĠØªØ¹ÙĦÙĬÙĤ Ø§Øª
ĠÙħØ±Ø¶ Ùī
ĠÙĨØªÙĦØ§ÙĤ Ø§
ĠØ§ÙĦØµØ§ÙĦØŃ ÙĬÙĨ
ĠØªÙĩØ¯ Ø±ÙĪ
ĠÙĬÙĥÙħ ÙĦÙĥ
ĠÙĦÙĦØ¹Ø§ÙĦÙħ ÙĬØ©
ĠØ§ÙĦØµØ¯ ÙĤØ©
ĠØ§ÙĦØ³ÙħØ§ ÙĪØ§Øª
a ct
Ùħ Ø§Ø¯
ĠØ§ÙĦ Ø§Ø²
ĠØ§ÙĦ Ø§ÙħÙĦ
ĠØ§ÙĦ ÙĨÙĬØ©
ĠÙĪ Ø³Øª
ĠÙĪ Ø¶ØŃÙĥ
ÙĤ Ø§ÙĦÙĥ
ÙĤ ÙĦÙĬØ©
Ø³ Ø§Ùħ
ĠØ¨ ØŃØ§ÙĦ
ĠÙģ Ø¬
ĠÙģ ÛĮ
Ø§ÙĨ Ø¹
ĠØ¹ ÙĪØ¶
Ø¬ Ø§ÙĦ
ÙĦÙĬ ÙĪ
ĠÙĩ Ø¨Ø§ÙĦ
Ø§Ø± ÙĬÙĨ
Ø· Ø§Ø¬ÙĬ
Ø¨ÙĬ Ø§Øª
ĠØ´ Ø±Ø©
ĠØ® ØªÙĥ
ĠØ¬ ÙĬØ´
ĠØŃ ÙĤÙĬ
Ø±ÙĬ Ø¹
ĠØ§ÙĨ ØªÙĪÙħØ§
ĠØ¯ Ø±Ø§Ùħ
ĠØ¯ Ø±Ø¬Ø©
ĠØ§ÙĦÙħ ØŃØª
Ø§Ùĩ Ø§Øª
ĠØ§ÙĦØ¬ Ø±Ø³
ÙĦØ§ ÙĬÙĨ
ĠÙĥÙĬ Ø´
ĠØº ÙĨÙĬØ©
ØªÙĬ Ùģ
Ø±Ø¬ ÙĦ
ĠØ¥ ÙĨØ§
ĠØªØ¹ Ùħ
ĠÙĬØŃ Ø³Ø¨
ĠØ· ÙĪØ§ÙĦ
ĠØ¹ÙĨØ¯ ÙĨØ§Ø´
ÙĤØ¯ Ø±ÙĪØ´
ĠØºÙĬØ± ÙĩØ§
ĠØ§ÙĦÙģ Ø³
Ø§Ø· ÙĬØ©
ÙĦØª ÙĤÙĬ
Ø¨Ø¹ ÙĬØ¯
ĠÙĦÙħ ÙĦÙĬÙĪÙĨ
ĠÙĨØŃ ÙĬØª
ĠØ§ÙĦØº Ø§Ùģ
ĠØ§ÙĦØº Ø§Ø´ÙĬ
Ġd ire
ou b
ĠØ° ÙĬ
ĠÙħØ³ ÙĬØ±
Ø§ÙĤ Ùħ
an i
en s
ĠÙĬÙĨ ÙĪØ¶
ĠØ§ÙĦÙħØ¹ ÙĦÙĪÙħÙĩ
ĠÙĨØªØ§Ø¹ ÙĨØ§
ÙĨÙĪ Ø§ÙĦ
Ġa d
ĠØ§Ø´ ÙĪÙģ
ĠÙĦÙĤ Ø¨
ĠÙĪÙĥ Ø°ÙĦÙĥ
ĠØ³Ùħ ØŃ
Ø§ÙĦØ¨ Ø§Ø³Ø·
ĠÙħØ® Ø¯
ÙħØ³ ÙĥÙĬÙĨ
ĠØŃØ³ ÙĬÙĨ
ĠØ¯Ø±Øª ÙĦÙĥ
ĠØ¬Ø§ Ø§Ùħ
ĠØ¨Ø· Ø§ÙĤØ©
ĠÙĪÙĬØ± Ø¬Ø¹
ĠØ§ÙĦØ§Ø¹ ÙĦÙī
ĠØµØºÙĬØ± Ùĩ
ĠØ´Ùĩ ÙĪØ±
ĠØ§ÙĦØ§Ø³Øª Ø§Ø°
ĠØ²Ø§Ø¯ Øª
ĠØ®Ø± Ø§ÙģÙĬ
ĠØ§ÙĦØ§Ùģ ÙĥØ§Ø±
ĠØºØ±ÙĬØ¨ Ø©
ĠØ³Ø¨ÙĬ Ø·Ø§Ø±
Ġmo i
ĠØ±Ùĩ Ø¬
ĠÙĪØ¹ÙĦÙĬ ÙĥÙħ
ĠØ§Ø³Ø¨ ÙĪØ¹
ĠØ·Ø¨ÙĬØ¹ ÙĬØ©
ÙĪÙĨÙĪ Ø¨ÙĬÙĦ
ĠØ£ÙĦÙħ Ø§ÙĨÙĬØ§
D jawed
o in
Ø§ÙĦ Ø¥
Ø± ÙĨÙĬ
ĠØ§ÙĦ Ø§ÙĦ
ĠØ§ÙĦ ÙĦÙģ
Ùĥ Ø±ÙĪ
Øª ÙĩØ¯
Øª ØµÙĪÙĬØ±
ĠÙħ ÙĥÙĦ
ĠÙħ ÙĪÙĤØ¹
Ø¹ ÙĬØ´
ÙĤ ÙĪØ¨
ĠØª Ø±Ø¨ÙĬ
ĠØª Ø¯Ø¹
ĠÙĦ Ø±Ø§Ùĩ
Ø§Ø± ÙĨ
Øµ ÙĦØª
ĠØ´ Ø§ÙĬ
ĠØ® Ø§Ùģ
ĠØ³ ÙĥØ±
Ø§Ø³ ÙĬÙĪ
ØŃÙħ ÙĦ
ĠØ¨Ø§ÙĦ ÙĥÙħ
ÙģÙĬ Ø´
ĠØ§ÙĦØŃ Ø³ÙĨ
ĠØ· Ùģ
ĠØ· Ø¨ÙĤ
ĠØ§Ø® ÙĪÙĬ
ĠØ§Ø® ØªØ±
ĠØ§ÙĦÙĤ ÙĨ
ĠØ§ÙĦØ¨ Ø±Ø¨
ĠÙħØª ÙħÙĬØ²
ĠØ§ÙĦÙĥ Ø¨Ø±Ùī
Ø¬Ø¨ Ø¯
ĠÙĬØª ÙĤ
ĠÙĪÙħ Ø§ÙĬ
ĠÙĪÙħ Ø§Ø´ÙĬ
Ø³ÙĨ ÙĬÙĨ
Ø§ÙĦØŃ Ø±Ø§Ø´ÙĬ
Ø³ÙĦØ³ÙĦ Ø§Øª
ĠØ§ÙĦØ± Ø§Ø³
ĠÙĬØ´ Ø¬Ø¹
ĠØ¯ÙĬ Ø§Ø±
ĠØ§Ùĥ ÙĪÙĨ
ĠØ§Ø± ÙĪØŃ
ĠÙĪØ¹ Ø´
Ġd is
ĠØ§Ùģ ØªØ®Ø±
Ø¯ÙĪ ÙĨØ§
ĠÙĪØ± Ø¶Ø§
ĠØªÙĨ ØŃ
ĠØªÙĨ ÙĪØ¶
ĠØ§ÙĦØ§ ÙĪØ±
ĠÙĨØŃØ¨ ÙĪÙĥÙħ
ÙĪÙĨØ§ Ùģ
ÙĩÙĦ ÙĪÙĦ
ĠØ¨ÙĬÙĨ Ø§ØªÙĩÙħ
ĠÙħÙĥ ÙĨØªØ´
ĠØ¯Ø± ÙĩÙħ
ĠÙĪØ² Ø§Ø¯
ĠÙĤÙĦØ¨ ÙĪ
ĠÙħØ§Ø¹ ÙĦÙĬØ´
Ø·ÙĪ Ø·Ø©
ĠØ§Ùĩ Ø¯Ø±
ĠÙĦØ£ ÙĨÙĬ
ĠÙĨÙģ ÙĪØª
ĠØ§ÙĦÙħØª Ø¹Ø©
ĠÙĨØ¯ ÙĪØ±
ĠÙĨÙĩ Ø¨Ø·
ĠØ¨Ø§Ùĥ ÙĬØ§
ĠÙĦØ¯ ÙĬÙĨØ§
ĠØ§ÙĦØ±ØŃ ÙĦØ§Øª
ĠØ§ÙĦØ£Ø® ÙĦØ§ÙĤ
ĠÙĦØ¹Ø¨ Øª
ĠÙĬØ§Ùĥ ÙĦÙĪ
ĠØ§ØŃØ¨ ÙĥÙħ
ĠÙĬØ¹Ø· ÙĬÙĩ
ĠÙĪÙĬØ¬Ø¹ ÙĦÙĪ
ĠÙĦÙĪÙĦ Ø§Ø¯
ĠÙĬÙĩØ¯ÙĬ ÙĩÙħ
Ġex p
ĠÙĬØ§Ø¬ Ø¯Ùĥ
ĠÙĦØŃÙĤ ÙĨØ§
ĠØ§ÙĦØ¨ØŃ Ø«
ĠÙĪØ¬Ø² Ø§ÙĥÙħ
ĠØ§ÙĦØªØ¹Ø¨ ÙĬØ±
ĠÙĪØ§Øº ÙģØ±
ĠØ§ÙĦØªÙĥÙĨ ÙĪÙĦÙĪØ¬ÙĬØ§
e ur
z ak
ÙĨ ÙĩØ§Ø±
Ùħ Ø§ÙģÙĩÙħ
Ø± ØŃØª
ĠØ§ÙĦ Ø§ØŃØ¯
Øª Øª
Ø¨ ØºÙĬ
ĠÙĪ ÙĦÙī
Ø¯ ÙĪØ±
ĠÙħ Ø³Ø¨
Ø¹ ÙĪØ§
Ùģ Ø§Ø¹
ÙĤ Ø§ÙħØ©
Ø³ ÙĬØ©
ĠØ¨ ÙĪØ¯
ĠØ¨ ÙĥÙĬ
ĠØ¨ Ø´Ø±
ĠÙģ Ø¨
Ø§ÙĨ ÙĬÙĨ
ĠÙĦ ØŃØ¨
Ø¬ ÙĪÙĨ
Ø² Ùĥ
Ø§Ùħ Ø±
ĠØ¬ ÙĪÙĨ
ĠÙĤ Ø¯ÙĬÙħØ©
ĠØ¯ ÙħØª
ĠÙĪØ§ÙĦ Ø±
Ø§Ø³ Ø¹
ĠØ§ÙĦØ¹ Ø§Ø±
ĠØ§ÙĦØ¹ ÙĬØ¨
ĠØ§ÙĦØ¬ ÙĬØ±Ø§ÙĨ
Ø³ÙĦ Ø·Ø§ÙĨ
Ø§ÙĪ ÙĪ
ĠØ¨Ø§ÙĦ Ø¥ÙĨ
ĠØº Ø§Ø¨Ø©
ÙģÙĬ Ø²ÙĬÙĪÙĨ
ØªÙĬ ÙĦÙĬ
Ø¸ ÙĦÙħ
ĠØ¥ Ø¬
ĠØ¥ Ø¨Ø¯Ø§Ø¹
ĠØ¨ÙĦ Ø¹ÙĬØ¯
Ø±Ùĥ Ø¨
ĠØªØŃ ÙĬ
ĠØ§ÙĦÙģ Ø§Ø³
ĠÙħØ´ Ø±ÙĬØ©
ĠØ§ÙĦÙĥ Ø°Ø¨
ĠØ§ÙĦØ£ ÙħÙĦ
ĠØµØŃ ÙĬØª
ÙĪÙĦÙĬ Øª
ÙĪØ´ ÙĬ
ĠÙĤØ§ÙĦ ÙĪÙĦÙĬ
ĠÙĪØ¬ ÙħØ§ÙĦ
ĠØªØ¨ Ø³Ø©
ĠØ§ÙĦØ² Ø¹
Ġm me
Ġs t
Ġf in
ĠØ³Ø¨ØŃØ§ÙĨ ÙĪ
ĠØ®Ø· ÙĪØ©
ĠÙĬØ· ÙĦÙĤ
ĠØ§ÙĦÙħÙĨ Ø§Ø³Ø¨
ĠÙĨØ¬ ØŃØª
ĠØ®Ø±Ø¬ ÙĨØ§
ĠÙħÙĩ Ø§Ø¨ÙĦ
ĠØ¬ÙĨ Ø§Øª
ĠØ¸ Ùĩ
ĠØŃÙĥ ÙĬÙħ
ĠÙĨØ¸ ÙĨ
ĠØ§ÙĦÙħØ³Øª Ø«ÙħØ±
ĠÙģÙĦÙĪ Øº
ĠØ¨Ø¹ÙĬØ¯ Ø§
ĠØ´Ø± Ø·
ĠÙĪÙĬØ³ ÙĥÙĨ
ĠÙĥÙĦÙħ Ø§ØªÙĥ
Ø¨Ø³ ÙĥØ±Ø©
ĠÙħÙħ ÙĦÙĥØ©
ĠØªÙĨØª ÙĩÙĬ
ĠØ§ÙĦØ¬Ø§Ùħ Ø¹Ø©
ÙĬØ§Ø± ÙĬØª
ĠÙĤØ§Øª ÙĦÙĬ
Ġbon ne
ĠØ§ØŃØ³ ÙĨØª
ÙĨÙĪØ± ÙħØ§ÙĦ
Ġ J
ÙĦ ÙħØ§
ÙĬ Ø§ÙĨ
ÙĬ ØªÙĪ
ĠÙ ī
ÙĪ Ø§Ùħ
Ø§ÙĦ Øº
Ùħ ÙĪØ§
ĠØ§ÙĦ Ø§Ø«
ĠÙĪ ÙħÙĦ
Ø¯ ÙĨÙĬ
ĠÙĬ ØªÙĬ
ĠÙĬ Ø¯ÙĬÙĥ
ĠÙĦ Ø³Ø§ÙĨ
ĠØ¹ Ø§ÙħÙĦ
ĠÙĥ ÙģØ±
Ø² ÙĬØª
Ø² ÙĨØ³
Ø² Ø§ÙĤ
Ø· ØŃØ©
ĠÙħÙĨ Ø²
ĠØ® Ø¨Ø±Ø©
ĠØŃ Ø·ÙĪ
ĠÙĤ Ø±Ø¨
Ø¯ÙĬ Ø§ÙĨ
ĠØ§ÙĦÙħ Ø±ÙĬ
ĠØ§ÙĦÙħ Ø§ÙĨÙĬØ§
ĠØ§ÙĦÙħ ÙĨÙĪØ§ÙĦ
ĠØ³ ØªØ±
ĠÙĪØ§ÙĦ ØªÙĪÙģÙĬÙĤ
Ø§Ø³ ÙħØ¹
ĠØ§ÙĦØ¬ Ùĩ
ĠØº Ø¯ÙĪØ§
ĠØ®ÙĪ Ø¨ÙĬØ¨
Ø³Øª Ø§ÙĨÙĬ
ÙĪÙħ Ø´
ÙĤÙĬ Ø§Ùħ
ĠØ² ÙĩØ±Ø©
Ø¨ÙĦ ÙĨØ§
ĠØ§ÙĦØª Ùĥ
ĠØ§ÙĦØª Ø§ÙĦÙĬ
ĠÙĦÙĦ Ø®ÙĬØ±
Ø§Ø® ÙĦ
ÙĪÙĥ Ø´
ĠØ§ÙĦØ£ Ø¹
ĠØ§ÙĨØª ÙĤØ§Ø¯
ĠØµØŃ ÙĬØŃØ©
ĠØ§ Ø§Ùĩ
ĠØ§ÙĦØ® Ø¨Ø²
ĠØ§Ùħ Ø©
ĠÙĪÙĨ ÙĤÙĪÙĦ
ĠØ¹ÙĦ Ø§ÙħØ©
ÙĥØ§ÙĨ Øª
Ú¨ ÙĪ
ĠÙħØ³ Ø¬Ø¯
ĠØ¢ Ùĩ
ĠØ§Ø¹ ÙĬØ´
ĠØªÙĪ Ø§ØµÙĦ
ÙĬØ¹ Ø¬Ø¨ÙĨÙĬ
ĠØ§ÙĦØ¬Ø² ÙĬØ±Ø©
ĠÙĬÙĨ ØµØ±
ĠÙĬÙĨ ØŃÙĬ
ĠÙĨÙĤÙĪÙĦ ÙĥÙħ
ĠØªØµ ÙĨØ¹
ĠÙĨØ® Ø§Ùģ
ĠØ£Ùħ Ø§Ùħ
ĠÙħØ§Ùĥ ÙĦØ©
ĠÙĪÙĤ ÙĦØª
ĠÙħØ§ÙĨ ÙĤØ¯Ø±Ø´
ĠÙħØº Ø±Ø¨
ĠØ±Ø§ÙĬ ÙĬ
ĠØ¨Ø¹Ø¶ ÙĨØ§
il l
ÙĨØ¯ÙĬ ÙĦ
ĠÙħØ´Ø§Ø¡ Ø§ÙĦÙĦÙĩ
ĠØ¯Ø§ÙĬØ± Ø©
ĠØ·ÙĪÙĦ ÙĤØ©
ĠÙħÙĩÙħ Ùĩ
ĠØµØ± Ø§ØŃÙĩ
ĠØ§ÙĦØ¬Ø²Ø§ÙĬØ± ÙĬÙĬÙĨ
im ent
ĠØ«ÙĤ Ø§Ùģ
ĠÙĤØ¨ Ø§ÙĬÙĦÙĬ
ĠÙĥÙĦÙħ Ø§ØªÙĩ
ĠØ§ÙĦØ§Ø¬ ØªÙħØ§Ø¹ÙĬ
ĠÙĨÙĨ ØµØŃÙĥ
ÙĥØª ÙĪØ±
ØªØµ Ø§Ø±
ÙĬØ§Ø± Ø¨ÙĬ
ĠØ§ÙĦØªØ³ ÙĪÙĬÙĤ
ĠØ¨Ùģ Ùģ
ĠØ³Ø§Ø¹ Ø§Øª
ĠÙĦÙģØ± ÙĨØ³Ø§
Ġfo is
ĠØ§ÙĦØ®ÙĦÙĬ Ø¬
Ø£Ø³Øª ØºÙģØ±
n Ã©
Ġ Ø§ØªÙĥ
Ø§ Ø§Ùħ
ÙĬ Ø§Ùĥ
Øª ÙĦÙĪ
Øª Ø¹Ø±Ùģ
Ø¨ Ø±ÙĪ
Ø¯ Ø¹ÙĪ
Ø¹ ÙĬØ¨
Ø¹ ÙħØ±
ØŃ Ø§ÙĪÙĦ
ĠÙĬ Ø§ØŃ
ĠÙģ ÙħÙĬ
ĠÙģ ÙĤØ§ÙĦ
ĠØª ÙĩÙħ
ĠØª ÙģØ³
ĠÙĦ Ø¯ÙĬÙĥ
Ø´ ÙĨ
Ø¬ Ø§ÙħÙĬ
ĠÙĨ ÙĬØ©
ĠÙĨ Ø®ÙĦ
ĠÙĥ Ø±ÙĪ
Øµ Ùī
ĠÙħÙĨ ÙĤØ¯Ø±Ø´
Ø§Øª Ø¨
ĠØ® ÙĦÙĬÙĩ
ĠØ¬ ÙĩÙĦ
ĠØŃ ÙĬØ§
ÙĪÙĨ ÙĬØ´
Ø§Ø¹ Ø·
ÙĪØ± Ø¨ÙĬ
Ø§Ø¦ Ø©
ĠÙĪØ§ÙĦ Ø§ÙĨ
ĠÙħØ¹ ÙĬÙĨ
ĠÙħØ¹ ÙĦÙĪÙħÙĩ
ĠÙħØ§ ÙĤØ¯Ø±Ø´
Ø§ÙĨÙĬ Ùĥ
ĠØ§ÙĦÙĨ Ø§Ø¬ØŃ
ĠØ· ÙĦÙĤ
ĠÙĬØ§ Ø§ÙĦÙĦÙĩ
ĠØ² Ø§ÙĬØ¯
ĠØ¨Ø² Ùģ
ĠØ§ÙĦÙģ Ø¬Ø±
ĠÙĬØŃÙģ Ø¯Ùĥ
ĠÙĪÙĦ ÙĥÙħ
ĠØ§ÙĦØ£ Ø·ÙģØ§ÙĦ
ĠØµØŃ Ø±
ĠØ§ÙĦØ® Ø¶
ÙĤØª Ùĩ
ÙĤØª ÙĩØ§
Ø¶ÙĦ Ø§Øª
Ø³Ø¨ Øª
Ø¨Ø¹ Ùĥ
ĠÙĦÙħ ÙĪØ±Ø§ÙĦ
Ú¨ ÙĦ
ĠÙĪØ¹ ÙĬØ¯
ĠØªÙĤ ÙĦÙĤ
ĠØ¨ÙĬ Ø¨ÙĬ
ĠØªØ® ØµØµ
ĠÙĪØ´ ØŃØ§ÙĦ
ĠØ° ÙĥÙĬ
ĠØ¨Ø± Ø§ÙĨÙĬ
ĠÙħØ³ Ø¹ÙĪØ¯
ĠØ§Ø¹ ÙĦÙī
ĠØªÙĨ ÙģØ¹
ĠÙĬÙĤÙĪÙĦ ÙĪÙĨ
ĠÙĬØ¯ Ø®ÙĦÙĪ
ĠÙĬÙĤ ÙĦ
ĠØ¯Ø§Ø± ÙĪØ§
ĠØªÙħ ÙĪØ±
ĠÙĤÙĦØª ÙĦÙĩ
Ø§Øº ÙĬ
ĠØ§ÙĦÙĩ Ø§Ø¯
ĠØ§Øµ Ø¯ÙĤØ§Ø¡
ØŃØ´ Ùħ
ĠÙħØ® Ø·
ĠÙĬÙĩ Ø¨ÙĦ
ĠÙĬÙĩ Ø¶Ø±
ĠÙĬÙĪ Ø§ÙģÙĤÙĨÙĬ
ĠØ®ÙĦØ§Øµ Øª
ĠØ¬Ø§ÙĬ ÙĬÙĨ
ĠÙĨØªÙĪ Ø§ØµÙĦ
ĠÙĬÙģ ÙĥØ±
ĠØ²ÙĬ Ø§Ø¯Ø©
ĠÙĦØ£ ÙħØ±ÙĬÙĥØ§
ĠÙĬÙħ Ø§Ùĩ
ĠÙĥÙĨ ØªÙĪ
ĠØªØ· Ø¨ÙĬÙĤ
ĠÙĪÙĨØª ÙģØ±Ø¬
ĠØªÙĪØŃØ´ ØªÙĥ
Ø¬ÙĦÙĬ Ø²ÙĬ
ĠØ¨ÙĤ ÙĪØ©
ĠØ¨Øº Ø§
ĠÙĩØ§ Ø§ÙĬÙĦ
ĠÙĪØ§ ÙĤÙĬÙĦ
ĠÙĦØ§ÙĬ Ùģ
ĠÙĥØ± Ø´ÙĬ
ĠÙĥØ§Ùħ ÙĦÙĬÙĨ
ĠØŃÙĦÙħ Ùĥ
ĠÙĬØ¨Ø§ÙĨ ÙĪ
Ø¨Ø§ ÙĤÙĬ
ĠØ§ÙĦØŃÙħ Ø§Ùħ
ĠØ§Ø¶ Ø±Ø¨
ĠÙĪØ§Øµ ÙĦÙĪØ§
ĠÙĨØ²ÙĬØ¯ ÙĪ
ĠÙħØ¹ÙĨØ¯ ÙĪØ´
ÙģÙĪØ± ÙĨÙĬØ§
ĠÙĨØ§Ø¬ØŃ ÙĬÙĨ
ĠÙħØ¬ÙĩÙĪØ¯ Ø§ØªÙĥ
ĠØªØ¹Ø· ÙĬÙĨÙĬ
ĠÙĦÙĩØ¬ ØªÙĨØ§
ĠÙĤØ¶ ÙĬØ©
ĠÙģØ§ÙĦØ¹ Ø§ÙĦÙħ
ĠØ§ÙĦÙĨÙĤ Ø§Ø·
ĠÙĨÙĨØ³ Ùī
ĠÙĨØµØŃ ØŃ
ÙħÙĦØ§ØŃ Ø¸Ø©
ĠÙħÙģÙĤ ÙĪØ¯Ø©
ĠÙħØ®Øª ÙĦÙģØ©
r i
Ø§ÙĦ Ø¨Ø±ÙĨØ§ÙħØ¬
Ùĩ ÙĪØ±Ø©
ĠÙĪ Ø¨ÙĬ
ĠÙĪ Ø§ÙĪÙĦ
ĠÙħ Ø²ÙĬ
ĠÙħ ÙħÙĬØ²Ø©
Ùģ ÙĪØ§
Ø³ Ø§Ø¨
Ø³ Ø§Ø³
ĠÙĬ Ø§Øµ
ĠÙĬ ØªÙĥ
ĠØ¨ ÙĬØ±
ĠÙĦ ÙĪÙĦØ§
ĠØ¹ Ø§Ø¬Ø¨
ĠÙĨ ÙģØªØ®Ø±
ĠÙĩ Ø±Ø¨
Øµ Ø§Ø±
ĠØ´ Ø§Ø±
ĠØŃ Ø§Ùģ
ĠØŃ Ø±ÙĤ
ĠØ§ÙĦÙħ Ø±Øª
ĠØ³ ÙĬØ¨
ĠØ³ Ø§ÙĦÙħ
ÙĪÙĦ ÙĥÙĨ
Øº Ø§
ĠÙĪØ§ÙĦ ÙģØ±
ÙħØ§ Ø§ÙĦ
Ø±ÙĪ Ø©
Ø±ÙĪ ØŃÙĥ
ĠØº Ø²Ø©
ĠØ¥ ÙĦ
ĠØªØ¹ ØªØ¨Ø±
ĠÙĬØŃ Ø±
ĠØ² ÙĥØ±ÙĬ
ĠØ§ÙĦØ´ Ø§Ø´Ø©
ĠÙĪÙĦ ÙĨ
ĠØ§ÙĦØ³ ÙĪØ±ÙĬ
ĠØ§ÙĦØ® Ø§Øª
ĠÙĪØª Ø´ÙĪÙģ
Ø§ÙĦÙĬ ØªÙĬ
ĠØ§ÙĬ ÙħØ§ÙĨ
ĠØ§Ø¨ Ø¯Ø¹
Ġc ha
ĠÙĦÙĩ Ø§Ø¯
ĠÙĪØ¬ ÙĩØ©
ĠÙĪØ¨ Ø§ÙĦØª
ĠÙĨØªÙģØ±Ø¬ Ùĥ
ĠØªÙĨ ÙĤØµ
ĠØ§ÙĦØ² Ø¨ÙĦ
ĠØ§Øª ÙĪ
ĠÙĨÙģØ³ ÙĬØ©
ĠØ¨ÙĬÙĨ ÙĩÙħ
ĠÙĬØ³Øª Ø¹ÙħÙĦ
ĠØ§Ø´ ÙģÙĬ
ĠÙĬØŃØ¨ ÙĪØ§
ĠØ®Ø· ÙĬØ±
ĠÙĬØ· ÙĬØ¨
ĠÙĨØ³Øª ÙĨØªØ¬
ĠÙĬÙĩ Ø¨Ø·
ĠØ´ÙĪÙģ ÙĪØ§
ĠÙĬØµ Ø±Ø§
ĠÙĬØµ Ø¨ØŃ
ĠØ¹Ø¨Ø¯ Ø§ÙĦØ¨Ø§Ø³Ø·
ĠØ±ØŃ ÙĬÙħ
ĠÙģÙĪØ± Ø±
ĠØŃÙĬØ§Øª ÙĨØ§
ĠÙĪØµØŃ Ø©
ĠØ¬Ø§ÙĬ ØŃ
ĠØ§ÙĦØ¨ÙĦ Ø§ØµØ©
ĠØ¹ÙĬÙĨ ÙĬÙĥ
ĠÙħØ§Ø¯ Ø§Ø±
Ø±Ø³ Ø§ÙĦØ©
ĠØ§ÙĦÙģØ± ØµØ©
ĠØ¨Ø£ Ø¨ÙĪÙĨÙĬ
ĠÙĦØ¯ Ø²Ø§ÙĬØ±
ĠÙĪØ§ Ø§ØµÙĦ
ĠØ¹Ø§Ø¯ ÙĬØ©
ĠØ®Ø³ Ø±Øª
ĠÙģÙĦÙĪÙĤ Ø§Øª
ĠÙĪØ§Ø¬ ÙħÙĦ
ad a
ĠØ§ÙĦÙģØ¯ÙĬÙĪ ÙĩØ§Øª
ĠØ§ÙĦØŃÙĥ Ø§ÙĬÙĩ
ĠÙĬØ¬Ø¹ ÙĦÙĥ
ĠØ±Ø§Ø¨ Ø·
ĠØ§ÙĦØ¬Ø§Ùħ Ø¹
ĠÙĨØ§ÙĤ ØµØ©
ĠÙħÙģÙĬ ÙĩØ§Ø´
ĠÙĪÙĨØ¹ Ø§ÙĪØ¯
ik e
ĠÙĬØ¹Ø·ÙĬ ÙĩÙħ
Ø¸ÙĬ ÙħØ©
ĠØ§ÙĦØ¨Ø³ Ø§Ø·Ø©
Ġcar to
Ø¹ÙĦØ§Ø¨ Ø§ÙĦÙĬ
ĠØ¨Ø§Ùħ ØªÙĬØ§Ø²
ĠÙĪØ±Ø²ÙĤ Ø§
zak y
Ġcarto ons
v o
ÙĦ Ø§Ø¬
Ø§ÙĦ ÙĬÙĨ
ĠØ§ÙĦ ÙĪØ¬Ùĩ
Ùĩ ÙĪÙĦ
ĠÙĪ Ø²ÙĪØ¬
ĠÙħ Ø³ÙĦÙħØ©
Ø¹ Ø§ÙĪØ¯
ÙĤ Ø¶
ĠØ¨ ÙĤÙī
ĠÙģ ÙĥÙĦ
ĠØª ÙĥÙħÙĦÙĪ
ĠÙĦ ÙħÙĪ
ĠÙĦ ØºÙĬØ±
ĠÙĦ Ø®Ø±ÙĬÙĨ
ĠÙĨ Ø±Ùģ
ĠÙĨ ÙĤØ¯Ùħ
Ø® Ø¯ÙħØ©
Øµ Ø§ØŃØ¨ÙĬ
ĠÙħÙĨ Ø¹
ĠØ´ ÙħØ³
ĠØ´ Ø¨Ø¹Øª
ĠØ£ ØµØŃØ§Ø¨
ĠØ§ÙĨ Ø³Øª
ĠØ¯ Ø±Ø§ÙħØ§
Ø§Ùĥ Ø¯
Ø§ÙĬ Øª
ĠØµ ÙģØ±
Ø£ ÙĪ
Ø£ ÙĨÙĬ
ØªÙĬ ÙĩØ§
ĠØªØ¹ ÙĦÙĤ
ĠÙĬØŃ Øª
ĠÙĨØª Ø¹Ø±Ùģ
Ø±Ùĥ ÙĬ
Ø§Øµ Ùĩ
ĠØ§Ø® Ø±Ø¬
ØŃØ¨ ÙĪ
ĠÙħØ´ ÙĬØª
ĠØ§ÙĦØ£ Ø®Ø±Ùī
Ø§ÙĦÙħ Ø´ÙĥÙĦ
ĠØ§ÙĦØ³ ÙĥØ±
ĠØ§ØŃ ÙĪØ§ÙĦ
ĠØ§Ùħ ÙĦ
ĠÙĬØª ØŃØ¯Ø«
ĠÙħØŃ Ø¨ÙĬ
ØªØŃ ÙĬØ§ØªÙĨØ§
ĠÙħØ± Ø³ÙĬ
ĠÙĪÙĩ Ø°Ø§Ùĥ
ÙĪÙĩ Ø±Ø§ÙĨ
ĠÙĥÙĨØª Ùħ
ĠÙĪØ´ ÙĥÙĪÙĨ
ĠØ³ÙĦ Ø§ÙĦ
ĠØ° ÙĥØ±Ùĩ
Ġt ou
ĠÙĦØ¹ ÙĬÙĨ
ĠÙĨØ³ Ø£ÙĦ
ĠÙĬØ¯ Ùĥ
ĠØªØ¬ ÙħØ¹
ĠÙĨÙĤ ÙĦ
ĠÙħØ² Ø§Ø¨
ĠØ§Øª ÙĤ
ÙĦØ§Ùħ ÙĬ
ĠØ§Ø¯ Ø¹Ùħ
ĠÙĨØ® Ø¯ÙħÙĪ
ĠÙĤØ§Ø¹ Ø¯Ø©
Ø¹ÙĬ Ø·
ĠØ¯Ø± ÙĪÙĨ
ĠØ¹ÙĤ Ø¨Ø©
ĠØ¹ÙħÙĦ Øª
Ø±Ø§Ùĩ ÙĬ
ĠØªØ²ÙĬØ¯ ÙĪ
ĠØ§ÙĦÙħØµ Ø·ÙģÙī
am el
ĠØªØº ÙĨÙĬ
ĠØ§Ø« Ø±
ĠÙĪØªÙĪ ÙĦÙĬ
ĠØ§ÙĦÙĤØ¨ Ø§Ø¦ÙĦ
ĠØªÙĦØ§ ÙĤÙĬØª
ĠØ£Øº ÙĦØ¨
ĠØ§ÙĦØ¯Ø§Ø® ÙĦ
ĠØ¨Ø±ØŃÙħ ØªÙĥ
ĠØ§Ø³ØªÙģ Ø¯Øª
ĠÙĬØ§Ø³ ÙĬÙĨ
ï· º
ĠÙĬÙħØ³ ØŃ
a g
o p
ÙĬ Ø§Ø¯
ÙĨ ÙĪØ§
ÙĨ Ø¯Ø§
ÙĪ Ø¹ÙĦØ§Ùĩ
Ø± ÙĬØ±
ĠØ§ÙĦ Ø·ÙĬ
ĠØ§ÙĦ Ø§ØŃØ³ÙĨ
Ø¯ Ø§Ø±Ø©
ĠÙħ ÙħØ«ÙĦØ©
ØŃ Ø¯Ø©
ĠÙĬ Ø²ÙĪØ±
ĠÙģ ÙĨÙĬ
ĠÙĦ Ø±ÙħØ¶Ø§ÙĨ
Ø´ ÙĬØ©
Ø¬ Ø¯Ø©
Ø¬ Ø±Ùĩ
ĠÙĨ Ø±Ùī
ÙĦÙĬ Ø§Øª
ĠØ¬ Ø§Ø¦
ĠØ¬ Ø§ÙĨØ¨
ĠØŃ Ùģ
ĠÙĤ Ø±ÙĬØ©
ĠØ§ÙĦÙħ Ø§Ø±ÙĬÙĥØ§ÙĨ
ĠØ³ ÙĦÙĥ
ĠØ³ Ø§Ø±Ø©
Ø§ÙĬ ÙĬ
Ø§Ø¹ Ùĥ
ĠÙĪØ§ÙĦ Ø§ØŃ
ÙĦÙĪ ÙĬ
ĠØ±Ø¨ÙĬ Ø¹
ĠØº Ø§ÙĨ
ĠØº Ø¯Ø§
ØªÙĬ Ø¬Ø©
ÙĥØ± ÙĥÙħ
ĠØ· Ø§Ø±ÙĤ
ĠØ² ÙĬØ±
ĠØ² ÙĩØ±
ĠØ§ÙĦÙģ ÙĦÙĪÚ¨
ĠÙħØ´ Ø§Ø¹Ø±
ĠØ§ÙĦØ¨ ÙĪØ§
ĠØ§ÙĦØ® Ø§Ø·Ø±
ÙĤØª Ø±ØŃ
ĠÙĨØ¹ Ø·ÙĬ
ĠÙħØŃ Ø§ÙĬÙĨÙĥ
ĠØ§ÙĦØ± ÙĤÙħ
ĠØ« Ø§ÙĨÙĬØ§
ĠÙĪÙĩ Ø±ÙĨ
ĠØ£Ø® ÙĪÙĥÙħ
ĠØ° Ø±
Ø§Ø¶ ØŃÙĥ
ĠÙĬØ¯ÙĬØ± ÙĩØ§
an e
ĠÙĦØ¹ ØªØ±ÙĪØ³
ĠØªØ¬ Ø§Ø±Ø¨
ĠÙĨÙģØ³ ÙĪ
Ø¯Ø± ÙĪÙĨ
ĠÙĥÙĪÙĨ Ùĥ
ĠÙħØ§ÙĨ Ø¹Ø±Ùģ
ĠÙħÙĤ ÙĦÙĤ
ĠÙĪØ§ÙĦÙħ Ø³ÙĦÙħ
ĠÙĤØ± Ø§Ø±
ĠÙĤØ± Ø±Øª
ĠÙĤÙĦØ¨ Ùĩ
ĠØªØ± ÙĪÙĨ
ĠØ§ÙĦØ¶ ÙĪØ¡
Ø³Ùĥ Ø±ÙĬØ©
ĠØ§ÙĦØ³ÙĦØ§Ùħ Ø©
ĠØ·ÙĦØ¹ ÙĪ
ĠØ´Ø¹ ÙĪØ¨
ĠØ£Øµ Ø¯ÙĤ
ĠÙĨÙĥ ØªØ´Ùģ
Ġpas s
Ø§ÙĦØŃÙħØ¯ ÙĦÙĦÙĩ
ĠØ³Ùĥ Ø§ØªØ´
ĠÙĨØ¶ØŃÙĥ ÙĪ
ĠÙĥØ´ ÙħÙĬØ±
ĠØ§ÙĦÙĨØ³ Ø§
Ø§ÙĨØ³ Ø§
ĠØ±Ùĥ Ø²
ĠØ´ÙĬØ® ÙĨØ§
ĠØºÙĦØ· Øª
ĠØ¹Ø±Ø´ Ùĩ
ĠØ§ÙĦÙĥØ¨ ÙĬØ±Ø©
Ã¨ re
Ø«ÙĬ ÙĤÙĩ
ĠØ£Ø° Ø±Ø¨ÙĬØ¬Ø§ÙĨ
ĠÙħÙĪÙģ ÙĤØ©
ÙĨ ÙĬÙĨØ©
Ùħ ÙĤ
Ùħ Ø§Ø¹Ø©
Øª Ø§Ø¨
ĠÙĪ Ø¨Ø±
ĠÙĪ Ø¯Ø¹
ØŃ ÙĥÙħ
Ø³ Ùī
ĠØ¨ ÙĨØ©
ĠØ¨ ÙĤÙĬØª
ĠÙģ ÙĪÙĦ
ĠØª Ø±ÙĬØŃ
ĠÙĦ ÙħØ±
ĠÙĦ ÙĨØ¯
ĠÙĦ Ø§ÙĩÙĦ
Ø¬ Ø§Ø¹Ø©
ĠÙĨ Ø·ÙĬØŃ
ĠÙĥ ÙĪØ±ÙĬØ§
ĠÙĥ ÙĪÙĦÙĬÙĨ
ĠØ± Ø´
Ø® ÙĦÙĩ
Ø® ÙĪØ±
Ø® ÙĦÙĥ
Ø® ÙĦÙĩØ§
Ø· Øª
ĠØ´ Ùħ
ĠØ´ Ø±ØŃ
ĠØ´ ÙĩØ¯Ø§Ø¡
ĠØ¬ ÙĩØ¯
ĠÙĤ ÙĪÙĦÙĨØ§
ĠØ£ Ø´ÙĬØ§Ø¡
ĠØ¯ ÙĬØ§
ĠØ¯ Ø¨Ø±
ĠØ§ÙĦÙħ Ø§
ĠØ§ÙĦÙħ ÙĤØ¨ÙĦ
Ø§Ùĥ Ø±
ĠØ§ÙĦØ¹ ÙĨØµ
Ø±ÙĪ Ùħ
ØªÙĪ Ùĥ
ØªÙĪ ÙĦÙĬ
ĠØ¨Ø§ÙĦ Ø³ÙĬ
ĠØ¥ Ø°ÙĨ
ĠØ² Ùħ
Ø±Ùĥ Ùĩ
ĠØªØŃ ÙĦÙĬÙĦ
ĠØ¨Ø² Ø²Ø§Ùģ
ĠØ§Ø® ÙĪØ©
ĠØ§ÙĦÙģ Ø±ØŃ
ĠÙĦÙĦ Øº
ĠØ§ÙĨØª Ø§Ø¬
ĠØ§ÙĦØ³ ÙĥØ§ÙĨ
ĠØ§ÙĦØ® Ø±ÙĪØ¬
ĠÙĪÙħ Ø§Ø²
ĠÙĪÙĨ ÙĪØ±ÙĬ
ĠØ®ÙĬØ± Ø§Øª
ĠØ« Ø¨Øª
ĠÙģØ§ÙĦ Ø³
ĠÙģØ§ÙĦ Ø¨ÙĦØ§Ø¯
ĠØªØ® Ø¯ÙħÙĬ
ĠØŃØ§Ø¬ Ø§Øª
Ø¯ÙĪ ÙĩØ§
Ø®Ø± Ø§Ø¬
ĠØ§ÙĦØ² Ø§
Ġm al
ĠÙĬØ¨ Øº
ĠØªØ´ Ø¬Ø¹
ĠØ§ÙĦÙħØ´ Ø§ÙĩØ¯ÙĬÙĨ
ĠØªØµ ÙĬØ¨
Ġa m
ĠØ¨Ùĩ Ø§Ø¯
ĠØªÙģ ÙĪ
ØªÙħ Ø¨Ø±
ar d
ĠØ®Ø· Ø±Ùĩ
ĠØ§ÙĦÙħÙĪ Ø§Ø¶ÙĬØ¹
ĠÙĪØ® Ø±Ø¬
ĠÙħØ§Ø± ÙĬØ§
ĠÙĦØª ÙħØ§
Ø¹ÙĬØ¯ ÙĥÙħ
Ø·ÙĨ Ø¨ÙĪÙĦ
ĠØ¬Ùħ Ø§Ø¹Ùĩ
ĠØ§ÙĦØ§Ø¹ ÙĦØ§Ùħ
ĠØ§ÙĦØªÙĪ Ø§Ø¶Ø¹
ĠÙĬØ±Ø²ÙĤ ÙĨÙĬ
ĠØ´Ø±Ùĥ Ø§Øª
ĠØªØ¨Ø¹ Ø«
ĠØ³ÙĬØ± ÙĬÙĪ
ĠÙĬÙĤØ¯ Ø±ÙĪØ§
ĠØµØ¯ ÙģØ©
ĠØ®ÙģÙĬ ÙģØ©
ĠÙħÙĪØª Ø§ÙĨØ§
ĠØ´Ø±Ùģ ØªÙĨØ§
ĠÙħØºØ§Ùħ Ø±Ø§Øª
ĠØ§ÙĦÙħÙĦ Ø§ÙĬÙĬÙĨ
ĠÙĪÙĨØ´ Ø§ÙĦÙĦÙĩ
ÙĨØŃØ¨ Ùĥ
ĠÙħØ§Ø¯ÙĬØ± Ø´
ĠØ¨Ø±ØŃÙħ ØªÙĩ
Ġjus t
ĠØ±Ø® ÙĬØ³
ÙħØ§ÙģÙĩÙħ ØªØ´
m il
Ã ª
Ùĥ ÙĬØªØ´
Ø¨ ÙĪØ¹
ĠÙĪ Ø¸
ĠÙĪ ÙĤÙĬÙĦ
ĠÙħ ÙĥÙĨ
Ø¹ ÙĪØ¯Ø©
ØŃ Ø§Ø¡
ĠØ¨ Ø§ØŃ
ĠØ¨ ÙĤÙĪÙĦ
ĠØ¨ ÙħØ´
ĠØ¨ Ø°ÙĦÙĥ
ĠØª Ø±ØŃÙħ
ĠØª ÙģÙĬØ¯
ĠÙĦ Ø§ÙĦ
ĠØ¹ ÙĤÙĪÙĦ
ĠØ¹ ÙĪÙĨÙĥ
ĠÙĨ ÙĪÙħ
ĠÙĨ Ø§Ø¶
ĠÙĥ ÙģÙĬÙģØ©
ĠØ± Ø§Ùģ
ĠÙĩ Ø¶
Ø² Ø§Ø±
ĠØ® Ø±ÙĪÙģ
ĠØŃ ÙĦØ§Ø¨
Ø¶ ÙĪ
ĠÙĤ ÙĦÙĤ
ĠØ£ Ø¹Ø¯
Ø¯ÙĬ ÙĤ
Ø¯ÙĬ Ø´
ĠØ§ÙĦÙħ Ø¶
ĠØ§ÙĦÙħ Ø±Ø§Ùĩ
Ø§Ø³ ÙĦ
ĠØ§ÙĦØ¹ Ø²
ĠØ§ÙĦØ¹ ÙĤØ¯
ĠØ§ÙĦØ¹ Ø¬Ø²Ø©
ĠØ§ÙĦØ¬ ÙĩÙĦ
ÙĦØ§ ÙĤÙī
ÙħØ§ ÙĤ
ĠØ¹ÙĨ ÙĩÙħ
Ø¸ Ø§Øª
ĠØ®ÙĪ ÙĪ
ĠØ¥ Ø¹
ĠØ§ÙĦØŃ Ø·Ø¨
ĠØªØ¹ ÙĥÙħ
ĠØ² ÙĦÙĪÙħ
ĠØ² ÙĬØ±ÙĪ
ĠØ§ÙĦØª Ùħ
ĠØ§ÙĦØ´ Ø¬Ø±Ø©
ĠØ§ÙĦØ´ ØªØ§Ø¡
Ø¨Ø± Ùĩ
Ø¨Ø± Ø¹
ĠØ§Ø® Ø°
ĠØºÙĬØ± Ùĥ
ĠØ§ÙĦÙģ ÙĪ
ĠÙĪÙĬ Ø®ÙĦÙĬ
ĠÙħØ´ ÙĥÙĦØ©
ĠØ§ÙĦÙĤ Ø§Ø±Ø©
ĠØ§ÙĦØ¯ ÙĪØ§Ø¡
Ø®ÙĦ Ø´
ĠØ§ÙĦØ³ Ùĥ
ĠØ§ÙĦÙĦÙĬ Ø¨ÙĬ
ĠØ£ÙĨ ÙĨØ§
ĠØ£ÙĨ ÙĨÙĬ
ĠÙĬÙĪÙģÙĤ ÙĪ
Ø±Øª Ùĩ
ĠÙĬØ® ÙħÙħ
ĠØ§ÙĦØ± Ø£ÙĬ
ĠØ§Ø± Ùī
Ø§Ø²Ùħ Ø´
ĠØªØ® ÙĦÙĬÙĥ
ĠÙĥØ§ÙĬÙĨ Ùĩ
ĠØ° ÙĬÙĥ
ĠØ¨Ø± Ø§Ùĥ
ĠØ¬ÙħÙĬ ÙĦÙĩ
ĠÙĬØ³ Ø±ÙĤ
Ġa r
Ġa re
ĠØ§ÙĦØŃÙħØ¯ ÙĦÙĩ
ĠÙħØ§ÙĬ Øª
ĠØ§ÙĦÙĩ ÙĨ
ĠØ§ÙĦØ³ÙĬ Ø§ØŃ
ĠÙĨØ¹Ø±Ùģ ÙĩÙħ
ÙħØ¬ Ø±Ø¯
ĠØ¨Ø¹Ø¶ ÙĩÙħ
ÙĢÙĢ Ùĩ
ĠØŃÙħ ÙĦØ©
ĠØ®ÙĦÙĬ ÙĨÙĬ
ĠØ¨Ø· Ø±ÙĬÙĤÙĩ
ĠØ¯ÙĬÙĨ ÙĬØ©
ĠÙĨØ¸ Ø§Ùħ
ĠÙĦØ® Ø·
ĠÙĨÙĪ ØµÙĦÙĪ
ĠØŃØ³Ø¨ Øª
ĠØ§ÙĦÙĥØ± Ø§Ùħ
ĠØ£Ø´ ÙĩØ±
ĠØ§ÙĦÙĬÙĩ ÙĪØ¯
ĠØ§Ø« ÙĨÙĬÙĨ
ĠØ§Ø² ÙĪØ±
ÙĩÙĦØ§ ÙĪ
ĠÙĥÙĪ Ø¨ÙĬ
ĠØ´Ø±Ùģ Øª
ĠØ§ÙĦØ®Ø· Ø±Ø©
ĠÙĥÙĦÙĬ Øª
ĠØ§ÙĦØªÙģ Ø§ÙĩØ©
ÙĥØ±ÙĬ Ø§Øª
ĠØ§ÙĦØµØ§ÙĦØŃ Ø©
ĠÙĨØªÙħÙĨØ§ ÙĪ
ĠØ§ÙĦÙĨØ¸ Ø§ÙģØ©
ĠØ§ÙĦØ¨Ø±ÙĪ Ø¬ÙĬ
ĠØ£ØµØ¨ØŃ Øª
Ø¨Øº ÙĬØª
ĠØªØŃÙħ ÙĦ
ĠØ§ÙĦØ§Øª ØŃØ§Ø¯
ĠØ§ÙĦÙĥØª Ø§Ø¨
ĠØ§Ø±Ø¬ ÙĪÙĥ
ÙĦÙĬÙģ Ø²ÙĬÙĪÙĨ
ĠÙĪØ±Ø³ ÙĪÙĦÙĩ
ĠØ¹Ø§ÙĤ ÙĦØ©
a in
o b
Ġ entre
ĠØ ¤
Ùĥ Ø¯
ĠÙĪ ÙĦÙĤÙħØ§ÙĨ
Ø¯ ÙĥÙħ
ĠÙħ ÙĤÙĬ
ÙĤ Ø±Ø§Ùħ
ĠÙģ Ø§Ùĥ
ĠÙģ ÙĦØª
Ø´ Ø·
ĠÙĨ Ø§Ø´
ĠÙĨ ÙĩØ¯Ø±ÙĪ
ĠÙĥ ÙħØ§ÙĨ
ĠÙĥ Ø§Ø±Ùĩ
ĠØ± Øº
Ø§Ø± Ø¨ÙĬ
Øµ ÙĪØª
ĠØ¬ ÙĪØ¹
ĠØŃ Ø§Ø¶Ø±
Ø§Ø¦ Ùĩ
ĠÙĪØ§ÙĦ Ø´Ø¹Ø¨
ĠÙħØ¹ Ø¯
Ø±ÙĪ Ø¨Ø©
ĠØ¨Ø§ÙĦ Ø°
ÙģÙĬ Ø²Ø§
ÙĥØ± Ø±
ĠÙĬØ¹ ÙĬÙĬ
ĠÙĨØª Ø§Ø¨Ø¹Ùĥ
ĠØ§ÙĦÙĨ Ø¸Ø±
ĠØ· Ø¹Ø§Ùħ
ĠØ§ÙĦØª Ø®
Ø§Ø² ÙĪÙĨ
ĠØ§ÙĦØ´ Ø§Ø¨Ø©
ĠØ§Ø® ÙĪØªÙĨØ§
ĠØ§ÙĦÙģ Ø§ÙĨ
ĠØ§ÙĦÙģ ÙĪÙĤ
ÙĬØª ÙĩÙħ
Ø§Ø· Ùĩ
ĠÙĪÙĦ ÙĦ
ĠÙĪÙĦ Ø¹
ÙĪØ¯ Ø§
ÙĪØ¯ ÙĬÙĨ
ĠØ§ÙĨØª Ø¸Ø§Ø±
ĠÙĪØª Ø³ØªØ§ÙĩÙĦ
ĠÙĬØª Ø§Ø¨Ø¹
ĠØ§ÙĦÙĬ Ø§Ø¨Ø§ÙĨ
ĠØ®ÙĬØ± ÙħÙĨ
ĠÙģØ§ÙĦ ØºØ±Ø¨Ø©
ĠÙĤØ§ÙĦ ÙĩÙħ
ĠÙĨØŃ ÙĥÙħ
ĠØ§ÙĦØ· ÙħÙĪØŃ
ĠØªÙĤ ØµØ¯
Ø¦ Ùĥ
ÙħØª Ùĩ
ĠØ³ÙĦ Ø¹Ø©
ĠØ¨Ø± Ø¯
ĠÙĪØ± ÙħØ¶Ø§ÙĨ
ĠÙĦÙĥÙĨ Ùĩ
ĠØªØ¨ ØºÙĬ
ĠØªØ³Øª ÙģØ§Ø¯
ĠØªØ¬ Ø§Ø±Ø©
ĠØªØµ Ø¯ÙĤ
ĠÙĬØ³Øª ÙĨØ§ÙĪ
ĠÙĦÙĤ ÙĬÙĨØ§
ĠØ¬Ø¯Ø§ Ø§
ĠØªÙĥ Ø±ÙĬ
ĠÙĨØ¬ ÙĪ
ĠØ²Ø¹ ÙħØ©
ĠØŃÙĤ Ùĥ
ĠÙĩØ¯ ÙĪÙĥ
as h
ĠÙĬÙĥ Ø¨Ø±
ĠØ®Ø±Ø¬ Ø©
ĠÙĪØ² ÙĨØ©
ĠØªÙĩ Ø¨Ø·
ĠØ¨Ø§ÙĬÙĨ Ø§
ĠØ¸ Ø±ÙĪÙģ
ĠØªØ¹ÙĦÙħ ÙĨØ§
ĠØ·Ø±ÙĬÙĤ Ùĩ
ĠØ§ÙĦØ¶ ÙĬ
ĠÙĨØ¸ Ø±
ĠØ³ÙĪ Ùī
ĠØ±Ø¬ ÙĦØ§ÙĪÙĬ
Ġk eep
ĠØ¨Ø£ ÙĦÙģ
ĠÙĪØªØŃ ÙĬØ§ØªÙĬ
us s
ĠÙĬØ¬ÙĬØ¨ ÙĪ
ĠÙĪØ§ ÙĤÙĬÙĦØ§
ĠÙĬØ®Ø¨Ø· ÙĩØ§
ĠÙĤÙĪÙĦ ÙĪØ§
ĠØ§ØŃØªØ± Ø§ÙģÙĬØ©
ĠØ§ÙĦØ´Ø®Øµ ÙĬØ§Øª
ĠØªØ²ÙĪØ± ÙĨØ§
ĠØ±Ø¨ØŃ ÙĨØ§
ĠØ§ÙĦÙģÙĨ Ø§Ø¯ÙĤ
Ġch os
ĠØ§ÙĦØ§Ø´ ØªØ±Ø§Ùĥ
Ġex act
ĠÙĩØ¯Ø± ØªÙĥ
ĠÙĬÙĦ Ø²Ùħ
ĠØ·Ø§ØŃ Øª
ØµØ¯ÙĤ ÙĨÙĬ
ĠØ§ÙĦÙħÙĬ Ø²Ø§ÙĨ
ĠÙĪÙĨØ§Ø³ ÙĩØ§
ul t
ĠÙĨØ¯Ø¹Ùħ Ùĥ
ĠØ§Ø¸ ÙĨ
ĠØ±Ø§Ø¡ Ø¹
ĠØ§ÙĦÙģØ¶ ÙĬÙĦ
Ġtrav a
o k
Ġ imp
ÙĨ ÙĪØ¹
ÙĪ Ø¸
ĠØ§ÙĦ ÙĤÙĪÙĦ
ĠØ§ÙĦ Ø±Ø¨ØŃ
Ø¨ Ø§Ø³
Ø¨ ÙĨØª
ĠÙĪ Ø±ØŃÙħÙĩ
Ø¯ ÙĪÙĥ
ĠÙħ Ø¯ÙĬÙĨÙĩ
Ø³ ÙħÙĬ
ĠÙģ Ø§Ø·
ĠÙĦ Ø²ÙĬ
Ø´ ÙĬØ´
Ø¬ ÙĬØ´
ĠÙĥ ÙĪØ¨
Ø· Ø±ÙĬÙĤ
ĠØ´ Ø¨
ĠØ´ Ø§Ø¯
ĠØ´ ÙĪØ§Ø±Ø¹
ĠØ® Ø§ÙĦÙĬ
ĠØ® Ø§Ø³Ø±
ĠØŃ ÙĦÙĬ
ĠØŃ Ø§ÙĦÙĥ
ĠØŃ Ø¬Ø§
ÙĪÙĨ ÙĬØ§
Ø¶ ÙĬØŃ
Ø§Ø´ Ø§ÙĨ
ĠØ¯ ÙĤÙĬÙĤÙĩ
ĠØ§ÙĦÙħ ØŃØ¨
ĠØ§ÙĦÙħ Ø±Ùĩ
ĠØ§ÙĦÙħ Ø¨Ø¯Ø¹
Ø§ÙĬ ÙĦÙĬØ©
Ø§Ø¦ ÙĩØ§
ĠØ§ÙĦØ¹ Ø¨Ø¯
ĠØº Ø¶
ØªÙĬ Ø§Ø±
ĠÙĥÙĦ Ø§ÙħÙĬ
ĠÙĬØŃ Ø§ÙĪÙĦ
ÙĦÙĤ Ø§Ø´
ĠØ· ÙĪØ±
ĠÙĦØ§ ÙĬÙĨ
ĠØ§ÙĦØ´ Ø§Ùħ
ĠØ§ÙĦØ´ Ø¯ÙĬØ¯
ĠØ§ÙĦØ´ ÙĪØ§Ø±Ø¹
ĠØ§ÙĦÙģ ÙĨÙĬØ©
ĠÙĪÙĬ ØŃØ¨
ÙĤÙĪÙĦ Ø´
ĠØ§ÙĦÙĥ ÙĪØ±
ĠØ§ÙĦØ£ Ø´ÙĬØ§Ø¡
ĠØµØŃ ÙĪØ±ÙĥÙħ
Ø§ÙĦÙħ ÙĪÙĨ
ĠØ§ÙĦØ³ Ø§Ø¨ÙĤ
ĠØ§ÙĪ ÙĦÙī
ĠÙĪÙĨ Ø±ÙĪØŃ
ĠÙĬØ® Ø³Ø±
ĠÙħØ± ØªÙĪ
Ø¶ØŃÙĥ Ø´
ĠÙĨØŃ Ø§ÙĪÙĦ
ĠØªØ® ÙĬ
ĠØ§ÙĦØº ÙĬØ±Ø©
ĠØ¨Ø¯ ÙĦØª
ĠØ§ÙĦØ¥ ØŃ
ĠØ§ÙĦØ° ÙĩØ§Ø¨
ĠÙĦØ¹ Ø§Ø´ÙĪØ±
ĠØªÙĪ Ø§Ø¶Ø¹
ĠØ¨Ø³ Ø±Ø¹Ø©
ĠØ§Ø¬ Ø±
ĠÙĬÙĤ ØµØ¯
ĠØ¯Ø§Ø± ÙĥÙħ
ĠØ§Ø³Øª Ø¹ÙħØ§ÙĦ
ĠÙĤÙĦØª ÙĦÙĩØ§
ĠÙħØ§ÙĬ Ø´
ĠÙĦØŃ ÙĦÙĤØ©
ĠÙĪÙĥ Øª
ĠØ§ÙĦÙħØŃ ÙĬØ·
ĠØŃÙĨØ§ ÙĬØ§
ĠØ§ÙĦÙĦ ÙĪÙĦ
ĠØ§ÙĦØ§Ùħ Ø§Ø²ÙĬØºÙĬØ©
ĠØ´ÙģØª Ùĩ
ĠØ´Ø¨Ø§Ø¨ ÙĨØ§
ĠØ§ÙĦÙĤØ± Ø£ÙĨ
ĠÙĬÙĥ ÙģÙĬ
ĠÙħØ§Ø± ÙĬÙĥØ§ÙĨ
or d
ĠØ¨Ø§ÙĬÙĨ Ùĩ
ĠØªØ±Ùĥ ÙĬ
ĠØªØ¯ ÙĪØ±
ĠØ¹ÙĦÙħ ÙĬ
ĠÙģØ¹ ÙĦØª
ĠÙĬÙĤØ¯Ø± Ø´
ÙĩØ§Ø¯ Ø§
ĠØ§ÙĦØ§ØŃ ÙĦØ§Ùħ
ĠØ£ÙĪÙĦ Ø§
ĠØ§ÙĦØ·Ø±ÙĬÙĤ Ùĩ
ÙĤØ§Ø¯ Ø§
ĠÙĦÙĦÙĤ ÙĦØ¨
ĠÙĪØ« Ø§Ø¦ÙĤÙĬ
ĠØ¹Ùģ ÙĪÙĬ
ĠÙĨØ¶ ÙĬÙģ
ĠØ§ÙĦØ§Øº ÙĪØ§Ø·
ĠÙĪØ§ÙĦØ£ Ø±Ø¶
ĠÙĪØ§Øª ÙħÙĨÙī
ĠÙģØªØŃ Øª
ĠØªØ¶ ÙĬØ¹
ĠØ¨Ø±ÙĬ Ø·Ø§ÙĨÙĬØ§
ĠØ§ÙĦÙħØ±Ø¶ Ùī
ØºÙģ Ø±Ø©
ĠÙĬØ³ØªØ± ÙĥÙħ
ĠÙģØ§ÙĦÙĬ ÙĪØªÙĬÙĪØ¨
ĠØŃØ§Ø´ Ø§
ĠØ§ÙĦÙħØªÙĪ Ø³Ø·
ĠÙĥÙĪÙħÙĬØ± Ø³
ĠÙĦØ§ØŃØ¸ Øª
ĠÙĨÙĨØª Ø¸Ø±
ĠÙĥØ§ÙĦÙĬ ÙģÙĪØ±ÙĨÙĬØ§
ĠÙĬÙħÙĨ Ø¹
ĠÙĨÙĬÙģ ÙĪ
ich em
ĠØ§ÙĦØ·Ø¨ÙĬØ¹ ÙĬØ©
ĠØ§ÙĦØ±ÙħØ¶Ø§ÙĨ ÙĬØ©
o c
ÙĪ Ø§Ø¹
Ùĩ ÙĬØ§
Øª Ø§ÙĤ
ĠÙħ Ø§ÙĩÙĬ
ĠÙħ Ø¯Ø§ÙĬØ±
Ùģ ÙĦÙĪÙĤ
ĠÙĬ Ú¨
ĠÙģ ØµÙĦ
ĠØª Ø´ÙĬ
ĠØª ÙĤØ¯ÙĬØ±
ĠØ¹ Ø§ÙĤÙĦ
ĠÙĨ Ø±ØªØ§ØŃ
ĠÙĥ Ø±Ø´
ĠØ± ÙĤØ¯
ÙĬØ± ÙĬÙĥ
Ø® ÙĨ
Ø® Ø§Ø¨Ø§Øª
Øµ Ø¨Ø±
Ø· ÙĬØ¨
ĠØ® ÙĬÙĬ
ĠØ¬ Ø±Ø§ØŃ
ĠØŃ Ø§Ø±
ĠØŃ Ø·ÙĬ
Ø¶ Ùĩ
ĠÙĤ Ùħ
ĠØ£ ÙĦÙĦÙĩ
ĠØ¯ ÙĬÙĨÙĬ
ÙĪÙĦ Ø§Ø±
Ø§Ø¹ Ø¯Ùĥ
Ø§Ø¨ ÙĬÙĨ
ĠØµ Ø¨Ø±
ĠÙĪØ§ÙĦ Ø³ÙĦ
Ø§Ùĩ Ø±ÙĬÙĨ
ĠØ§ÙĦØ¹ ÙĪØ¯Ø©
Ø§ÙĪ Ø§Ùĩ
ĠØ§ÙĦØŃ Ø§ÙĦÙĬ
ĠØ§ÙĦØŃ ÙĦÙĬØ¨
ĠÙĬØŃ Ø¨Ùĩ
ĠÙĬØ¹ Ø¨Ø¯
ĠØ§ÙĦØª Ø£
ĠØ§ÙĦÙģ Ø§Ø¶ÙĦ
ĠØ§ÙĦÙĤ ÙĩÙĪØ©
ĠØ§ÙĦØ£ ØµÙĦ
ĠØ§ÙĪ Ùĥ
ĠÙĪØª Ø±ÙĪØŃ
ĠÙħØ§Ø´ ÙģØª
ÙĦØª Ø´
Ø§ÙĦÙĬ Ùģ
ĠÙħØŃ Ø§ÙģØ¸
ĠØ§ÙĬ Ø¯ÙĬ
ÙĦØ¨ Ùĥ
ĠÙĤØ§ÙĦ ÙĦÙĥ
ĠÙĩØ§Ø¯ ÙģØ©
ĠØªØ® ÙħØ§Ùħ
ĠØ³ÙĬ Ø§ØŃ
ĠÙĬØ¬ ÙĬÙĨÙĬ
ĠØ¬Ø§Ùħ Ø¹Ø©
ĠØ¨Ø¯ Ø£Øª
ĠØªÙĥÙĪÙĨ ÙĪ
ĠØªØ¬ Ø¹ÙĦ
Ø¯Ø± Ø³
ĠØ¨ÙĬÙĨ Ùĥ
ĠØªÙĥ Øª
ĠÙħÙĥ Ø©
ĠØªØ¹Ø±Ùģ Ø´
ĠØ±Ø³ Ø§ÙĦ
ÛĮ ÙĨ
ÛĮ Ø±
ĠÙĨØ¹Ø±Ùģ Ùĥ
ĠÙĦØ£ÙĨ ÙĩÙħ
ĠØ±ØŃ Ø§ÙĦÙĬØ³ØªØ§
ĠÙħØ§Ø² Ø§ÙĦÙĪ
ĠØ¹Ø´ Ø§ÙĨ
ĠØ§ÙĦÙħØ¬ Ø§ÙĦØ§Øª
ĠÙħØµ Ø±ÙĬ
ĠÙħØµ ÙĪØ±
Ġn on
ĠÙĩØ§Ùĥ Ø¯Ø§
ĠÙĨØ¯ Ø¹ÙĬ
ĠØ§ÙĦØŃØ± Ø§Ø´
ĠØ¹Ø§Ø¯ ÙĦ
ĠÙĬØ·ÙĦØ¹ ÙĪ
ĠØŃØ¨ÙĬØ¨ ØªÙĬ
Ø¨Ø³ Ø§Ø·Ø©
ĠÙģÙĥ Ø§ÙĩØ©
ĠÙĬØ®ÙĦÙĬ ÙĦÙĥ
ĠØ§ÙĦØªØ¬ Ø§Ø±Ùĩ
ĠØ§Ø¶ ØŃÙĥ
ÙĦÙĦ Ø£Ø³Ùģ
ĠÙĦÙĪÙĦ Ø§ÙĬØ©
Ġal l
ĠÙĬØ¶ ÙĬØ¹
ĠØ¥ÙĦÙĬ ÙĩØ§
ĠØ§ÙĦÙħØ« ÙĦ
Ġvid Ã©
ĠØºØ§Ø¶ ÙĨÙĬ
ĠØ´ÙĬÙĥ ÙĪØ±
ĠØªÙħØ« ÙĬ
ĠØ§ÙĦØ¹ÙĦØ§Ùħ Ø©
ĠØ³Ø§Ùģ Ø±Øª
e o
h h
ÙĨ Ø¬
ÙĪ Ø°
Ùħ Ùī
ĠØ§ÙĦ Ø§Ø°
Øª Ø§ÙĨ
Ø¨ ØªÙĨØ§
Ø¯ ÙĤÙĬÙĤØ©
ĠÙħ Ø¯Ùĩ
ĠÙħ Ø±ÙĥØ²
ØŃ ÙĦÙī
Ùģ Ø³ÙĬ
Ø³ ÙĦÙĬ
Ø³ ØªÙĪÙī
ĠÙĬ ÙĬ
ĠÙĬ ÙĥÙĦ
ĠÙĬ ÙģØ³
ĠÙģ ÙĦÙĤ
ĠØª ÙĤØª
ĠØª ÙĪÙĨØ³ÙĬ
ĠØª Ø°ÙĩØ¨
ĠØ± Ø¶
Ø² ÙĬÙĥ
ĠØ® Ø§ÙĬ
ĠØ¬ Ø§Ùĥ
ĠØ¬ ÙĦÙģØ©
ĠØŃ Ø§Ùĥ
ĠØŃ ÙĦÙĤ
ĠØŃ Ø§ÙĥÙħ
ĠØ£ ÙĩÙħ
Ø§Ø´ Ø§Øª
ĠØ§ÙĨ Ø¯ÙĪÙĨÙĬØ³ÙĬØ§
ĠØ¯ ÙĦ
ĠØ¯ Ø§ÙĪ
ĠØ¯ ÙĪÙĦÙĩ
ĠØ§ÙĦÙħ ØŃØªØ§Ø¬
ĠØ³ ÙĦÙĬÙħ
Ø§Ø¹ Ø¨
Ø£ Ø±ÙĪØ¹
ĠØ§ÙĦØ¹ Ø§Ø¦ÙĦØ§Øª
ĠÙħØ¹ ÙĦØ¨
Ø±ÙĪ ÙĤØ©
ĠØ¨Ø§ÙĦ ÙģÙĬØ¯ÙĬÙĪ
ĠØ¨Ø§ÙĦ ÙħØ´
Ø¸ ÙĦ
ĠØªØŃ ÙĦ
ÙħÙĨ Ø§ÙĦÙĥ
ĠØ§ÙĦØ´ Ø±ÙĪÙĤ
ÙĪØ³ Ø®
ĠØ§ÙĦÙĤ ÙĪÙħ
ĠØ§ÙĦÙĤ ÙĦÙĬÙĦ
ĠØ§ÙĦØ¨ Ø±ÙĥØ©
ĠÙĪÙĦ Ø§ÙĬÙĩ
ĠØ§Ø³ Ø·
ĠØ§ÙĦØ® Ø§ÙĪØ©
ÙĤØª ÙĦØªÙĨÙĬ
ĠÙĪØª ÙĤÙĪÙĦ
ĠÙĬØŃÙģØ¸ Ùĩ
ĠØ§ÙĬ Ø´
ĠØ§ÙĬ Ø·Ø§ÙĦÙĬØ§
ÙĩØ¯ Ø§Ùģ
ĠÙĪÙĩ Ø§Ø°
ĠØ§Ø± ÙģØ¹
ĠØ¨ÙĦÙĬ Ø²ÙĬØ±
ØªØ´ Ø¨Ùĩ
ou l
ĠÙĦÙĩ Ø§Ø°
Ø¢ Ùĩ
Ø®Øµ Ùĥ
ĠØ§ÙĦØ¥ Ø´
ĠÙĦØ¹ Ø±Ø¨
ĠÙħØ² ÙĦØª
ĠØ§Øª Ø§Ø¨Ø¹
ĠØ®ÙĦ Ø§Ùģ
ĠÙĬÙĨ ØŃ
ÙĪØ² ÙĬÙĨØ©
ĠØªØ´ÙĪÙģ ÙĩØ§
ĠÙģÙĩÙħ ÙĨÙĬ
ĠÙĪØ§ÙĦÙħ ØºØ±Ø¨
ĠÙĪØ§ÙĦÙħ Ø¤ÙħÙĨ
ĠÙĨØ±ÙĪØŃ ÙĪØ§
Ø·ÙĪ ÙĬØ±
ĠÙħØªØ§Ø¨Ø¹ ØªÙĥ
ĠØ£Ø¹ Ø¸Ùħ
Ø±Ø§Ùĩ ÙĪ
ĠÙĨØ¸ ÙĬÙģØ©
ÙħØ´ ÙĥÙĪØ±
ĠÙĨØ· ÙĬØ¨
ĠØ¨Ø±ÙĪ ØŃÙĥ
el l
ĠÙħØ· ÙĪÙĦØ´
ĠÙĨÙĥÙĪÙĨ ÙĪ
ĠØ§ØŃØªØ± Ø§ÙħÙĬ
ĠØ±Ø£ ÙĬÙĬ
Ġr est
ĠÙĨÙĦÙĤ Ø§
ĠÙĪØ§Ø± ÙĪØ¹
Ø¬Ø§ÙĨ Ø¨
ĠØ§Ø±ØŃÙħ Ùĩ
oo p
ĠÙĤØ§ÙĦØª ÙĦÙĪ
ĠØ§ÙĦÙħØ® Ø¯Ø±Ø§Øª
ĠØ§ÙĦØ¬Ùħ Ø§Ø¹Ø©
ĠÙĨÙĤØ¯ Ø±ÙĪØ§
ĠØµÙģ ØŃØ©
ĠØ´Ø±ÙĬ ÙĥÙĬ
Ø¯Ø§Ø¡ Ø©
ĠÙħØ´Ø§ÙĩØ¯ Ø§Øª
ĠÙĥØ° Ø§ÙĦÙĥ
ĠØ§ÙĦØ³ÙĪØ¯ Ø§Ø¡
ĠØ¬ÙĬÙĩ Ø©
ĠØ§ÙĦØ¹Ø§Øµ ÙħÙĩ
ĠØ±ÙĬÙģ ÙĥØ§
ĠØ¨Ø§ÙĦØ¥ÙĨ Ø¬ÙĦÙĬØ²ÙĬØ©
ĠÙĪØ¨Ø§ÙĦØª Ø§ÙĦÙĬ
ĠÙĪØ§ÙĦÙħØ³ÙĦÙħ Ø§Øª
a ge
j a
j amel
n i
o f
Ġ U
ÙĬ Ø®
ÙĨ Ø§ØªÙĥ
ÙĪ ØªÙĪØ¨Ø±
Ùĩ Ø¬
ĠÙĪ ÙĩÙħØ§
ĠÙħ Ø§Ø¯ÙĬ
Ø¹ Ø§Ø¯
ÙĤ Ø§Ø¦ÙĨØ§
ĠÙĬ Ø®ÙĦÙģ
ĠØ¨ Ø¹Ùħ
ĠÙģ Ø§ÙĦÙĦÙĩ
ĠÙģ ÙħÙĨ
ĠÙģ Ø£ÙĨØª
ĠØª ÙĤÙĬ
ĠØª ØºÙĦØ·
ĠÙĨ ÙĬÙĥ
ĠÙĨ ÙĤØ·Ùĩ
Ø§Ø± Ø¬ÙĬ
ĠØ® Ø§Øª
ĠØŃ Ø¶Ø±
ÙĪÙĨ ÙĬØ©
Ø¶ ÙĬØ©
ĠÙĤ Ø§Ø±ÙĬ
ĠÙĤ Ø§Ø§Ø¹
Ø±ÙĬ Ø¨ÙĬ
ĠØ¯ Ø±ÙĪØ³
ĠØ§ÙĦÙħ Ø§Ø³
Ø° Ø¨ÙĪ
ĠØ³ ÙĪÙĨ
ĠØ³ Ø§Ùĥ
Ø§Ø¹ Ø²
Ø§Ø¨ Ø¯Ø§Ø¹
Øº Ø§Ø±Ø¨Ø©
ĠÙĪØ§ÙĦ ÙħÙĨ
ĠÙĪØ§ÙĦ ÙħØ±
ĠÙĪØ§ÙĦ Ø¢
Ø£ Ùħ
Ø« ÙĤ
Ø« Ùī
ÙĨÙĬ Ùģ
ÙĨÙĬ Ø§Øª
ĠØ§ÙĦØ¹ Ø¬
ĠØ§ÙĦØ¹ Ø±Ø¶
ĠØ§ÙĦØ¬ Ø¯
ĠÙħØ¹ ÙĦÙĪÙħ
Ø±ÙĪ Ø§Øª
ĠØ¨Ø§ÙĦ ÙĩÙħ
ĠØ§ÙĦØŃ Ø±ÙĬØ©
ĠÙĬØ¹ Ø§ÙĨÙĬ
ĠÙĬØ¹ Ø±Ø¶
ĠØ· ÙĦ
ĠØªØŃ Ø§ÙĪÙĦ
ĠØªØŃ ÙĪØ§Ø³
ĠØ§ÙĦØª ÙĤØ¯Ùħ
Ø§Ø² Ø§ÙĨ
ĠØ§ÙĦØ´ Ø§ÙĪÙĬØ©
ĠØºÙĬØ± Ùĩ
ĠØ§ÙĦÙģ ÙĨÙĬ
ĠÙĪÙĬ ØŃÙħ
ĠÙħØ´ Ø§Ø±ÙĬØ¹
ÙħÙĪ Ø³ÙĬÙĤÙī
ĠØ§ÙĦØ£ ØŃØ¯
Ø®ÙĦ Ø¹
ĠØµØŃ ØŃ
ĠØ§ ÙĪÙģÙĤÙĥ
ĠØ§ÙĦØ® ÙĪÙģ
ĠØ§Ùħ Ø§Ø²ÙĬØºÙĬ
ĠÙĨØ¹ ÙĦÙĤ
ĠØ§ÙĦØµØŃ Ø±Ø§
ĠÙĪÙĨ Ø³Øª
Ø±Øª ÙĨØ§
Ø¨Ø¯ Ø£
Ø¶ØŃÙĥ ØªÙĨÙĬ
ĠÙĨØ´ÙĪÙģ ÙĥÙħ
ĠÙĪØ¹ Ø§Ø´ÙĪØ±
ĠØªÙĤ Ø¹
ĠØªØ® Øµ
ĠÙĪØ´ ÙģØª
ÙĢ Ø§
ÙĢ Ùĩ
ĠØ¨ÙĨ Ø³Ø¨Ø©
ĠØ§Ø¹ Ø¬Ø¨ÙĨÙĬ
ĠÙĨØªÙģØ±Ø¬ Ùĩ
ĠØªÙĨ Ø²ÙĦ
ĠØ§ÙĦØ¬Ø² Ø§
ĠØ¨Ø³ ØŃ
ĠØ¶ØŃÙĥ ÙĨØ§
ĠÙĬÙĤ Ø±Ø§ÙĪ
ĠØªØ´ Ø§Ø±Ùĥ
ĠØªØ´ Ø¹Ø±
ĠØ§ÙĦÙħØ´ ØªØ±Ùĥ
ØªØ¨ Ø§Ø±
ĠÙĨÙĤÙĪÙĦ ÙĦÙĥÙħ
Ġs p
ĠÙĨØ¨ ÙĤÙī
ĠÙĪÙĥ Ø¨Ø±Ø§
ÙĩØ¯Ø± Ø´
ĠØ§ÙĦØ§Ùħ Ø§Ø²ÙĬØº
ĠÙħØº ØªØ±Ø¨
ĠØ§ÙĨØ´Ø§Ø¡ Ø§ÙĦÙĦÙĩ
ĠÙĨØ¹Ø±Ùģ ÙĩØ§
ĠÙĨØ¹Ø±Ùģ ÙĪØ§
ĠØ§ÙĦØ§Ø³ Ùģ
ĠØ§ÙĦØ§Ø³ Ø¹Ø§Ø±
ĠØ²ÙĬ Ø§Ø¯
ĠÙħØ§Ø¯ Ø§
ĠÙħÙĩ ÙĪØ´
ĠÙħÙĩ ØªÙħ
ĠØ¨Ø§ÙĦØ¹ ØªØ±ÙĪØ³
Ø±Ø³ ÙĪÙĦ
ĠØ§ÙĦØ£Ùħ Ø§Ø²ÙĬØºÙĬØ©
ĠØ§ÙĦØ«Ø§ÙĨÙĬ Ùĩ
ĠØ¹Ø§Ø¯ Ø§Øª
ĠØªÙĨØ³ Ø§Ø´
ĠÙĪØ§Ø³ Ø¹Ø©
ĠØµÙĪØª Ùĩ
ic ation
ĠD Z
ĠØ®Ø± Ø·ÙĬ
ÙĦÙĦ Ø§Ø³Ùģ
ĠÙħØ±Øª Ø§ØŃ
ĠØ¯Ø® ÙĪÙĦ
ĠØ§ÙĦØ®ÙĦ Ø§Ø¨Ø©
ĠØ¥ÙĬ Ø¬Ø§Ø¨ÙĬ
ĠÙĬÙĨØª ÙĤØ¯
ĠØ§ÙĦØŃØ³ Ø§Ø¨
ĠÙĬØ±Ùģ Ø¯
ĠØªØ±ÙĬ ÙĥÙĪ
ĠÙĬØ« Ø¨Øª
ĠØ§ÙĥØªØ´ Ø§Ùģ
ĠØ§ÙĦÙħØ³Ø¤ ÙĪÙĦÙĬÙĨ
ØªØ¹ÙĦÙĬÙĤ Ø§Øª
ĠÙĥØ§Øª Ø¨
Ø¨Ø§ÙĬÙĨ Ø©
Ġvra iment
ĠØ§ÙĦØŃØ¶ Ø§Ø±Ø©
ĠÙħØ§ØŃØ¨ Ø´
ĠØ¹Ø±ÙĬ ÙĪØ§Øª
Mo hamed
O U
t ion
Ø§ ÙĪÙĦØ©
ĠÙ ¾
ÙĨ Ø¨ÙĬ
ÙĨ ØªÙĬ
ÙĨ Ø³ÙĬØª
ÙĪ Ø§ÙĦØŃ
ĠØ§ÙĦ ÙĨØª
ĠØ§ÙĦ Ø±Ø§ÙĤÙĬ
Ùĩ ÙĨ
Øª ÙĤÙĪÙĦ
ĠÙĪ ÙĪØ§ÙĦ
ĠÙħ Ø³ÙĦ
ĠÙħ Ø±Ùģ
ĠÙħ ÙĬØ¨
ĠÙħ Ø§ÙĦØŃ
ĠÙħ Ø¶ÙĬ
ÙĤ ÙĪØ³
ÙĤ Ø¹Ø¯
ĠÙĬ Ø§Ø¨ÙĦ
ĠÙĬ Ø¨Ø¯ÙĦ
ĠÙĬ Ø§Ø³ÙħÙĬÙĨ
ĠØ¨ ØªØŃ
ĠÙģ Ø§ÙĦØŃÙĦÙĤØ©
ĠØª Ø§Ø«
ĠØª Ø§Ø¨Ø¹Ø©
ĠÙĦ Ø²Ùħ
ĠØ¹ Ø§ÙĬ
ĠÙĥ ÙĪÙĦÙĬ
ĠØ± Ø§Ø¨ÙĬ
Ø¨ÙĬ Ø¯
Ø§Øª ÙĦÙĬ
Ø§Øª ÙĨØ©
ĠØ® Ø°
ĠØ® Ø¨Ø²
ĠÙĤ ÙĦØ¹
ĠØ£ Ø³Ùħ
Ø±ÙĬ Ø§ÙĦ
ĠØ§ÙĦÙħ ÙĬÙĥ
ĠØ§ÙĦÙħ Ø¯ÙĬÙĨÙĩ
Ø§ÙĬ Ø¯Ø©
Ø§Ø¨ Ø¯
Ø§ØŃ ÙĨØ§
Ø§Ùģ ÙĬÙĨ
Ø§Ø¦ ÙĬÙĩ
Ø§Ø³ Ø§Øª
Ø« ÙħØ§Ø±
ĠØ§ÙĦØ¹ Ø¯
Ø§ÙĪ ÙĨØ§
Ø§ÙĪ Ø¯ÙĬ
ĠØ¨Ø§ÙĦ ÙĪ
ÙģÙĬ Ø¯Ø©
ØªÙĬ Ø¨
ĠÙĬØŃ ÙĦ
ĠØ§ÙĦÙĨ Ø¬
ĠØ· Ø±ØŃ
ĠØªØŃ ØªÙĪÙĬ
ĠØ§ÙĦØª Ø·ÙĪØ±
ĠØ§ÙĦØ´ Ø§Ùģ
ĠØ§ÙĦÙģ ÙĥØ±
ĠÙħØ´ Ùģ
ĠÙħØ´ Ø§Ø±Ùĥ
ĠÙħØ´ ÙĩØ¯
Ø¹Ø¯ ÙĥÙħ
ĠÙħØª Ùī
ĠØ§ÙĦÙĥ Ø§Ø±
ĠØ§ÙĨØª Ø±ÙĨØª
ĠØ§ÙĦØ³ ÙĨ
ĠÙĪØª Ùģ
ÙĦØª ÙĩÙħ
ĠØ§ÙĦÙĬ ÙĩØ§
ĠØ§ÙĬ ÙĩØ§
ÙĪÙĦÙĬ Ùĩ
ĠØ§ÙĦØµ ÙĪØ±
ĠØ§ÙĦØ± Ø¯Ø§Ø¡Ø©
ØªØ± ÙĪÙĨÙĬ
ĠØ§Ø¨ ØŃØ«
ĠÙĨØŃ ÙĤÙĤ
ĠØ§Ø± ÙĪØ¨Ø§
ĠØªÙĤ Ø§ÙĦÙĬØ¯
ÙħØª Ø¹ÙĪ
ĠØ³ÙĦ Ø³ÙĦÙĩ
ĠÙĪØ¬ ÙĩÙĪ
Ø¢ ÙħÙĬÙĨ
ÙĢ ÙĬ
ĠØ° Ùĥ
ĠØ° ÙĨØ¨
ĠØªØª Ø³
ĠØªØª Ø±Ùĥ
ĠØ¨Ø±Ùĥ Ø©
ĠØ§ÙĦØ¥ Ø®
ĠÙĬØ³ ÙħÙĪÙĩØ§
Ø§Øº ÙĬØª
ĠØ§Ø´ ÙĩØ¯
Ġv ous
ÙĬØŃ ÙĬ
ĠØ§ÙĦÙĩ ÙĪØ§Ø¡
ĠÙħÙĪ ØŃ
ĠÙĤÙĦ ØªÙĬ
ĠÙĨØ¬ Ø±Ø¨
ĠØ¨Ø§Ø¨ Ø§Ùĩ
ĠØ§ÙĦÙħÙĪ Ø³ÙĬ
ĠØ§ÙĦÙħÙĪ ØªÙī
ĠÙħØ§ÙĦ ØºØ±ÙĬ
as t
ĠØªÙĦÙĤ Ø§ÙĩØ§
Ø¥ÙĨ Ø´Ø§Ø¡
ĠØ¹ÙĨØ¯ÙĩÙħ Ø´
ĠØ¨ØŃ Ø«
ÙģÙĦ Ø³Ø·ÙĬÙĨ
ĠØ´Ø§Ø¨ Ø§
ĠØ³Øª Ø©
Ġg ood
ÙĤØ§ÙĦ ÙĩØ§
ĠØ¯Ùĥ ØªÙĪØ±
Ġpar t
ĠØ£Ø³Øª Ø§Ø°
ĠÙĬØ®Ø±Ø¬ ÙĪØ§
ĠØ§Ø· ÙģØ§ÙĦ
ĠÙĤÙĪÙĦ Øª
ĠØ§ÙĦØ§Ø¨ ØªØ³Ø§ÙħØ©
ĠÙģÙĦÙĪÙĤ Ø±
ĠÙĬØ²ÙĬØ¯ ÙĪ
ĠÙĬØ²ÙĬØ¯ Ùĥ
ĠÙģØª Ø±Ø©
ĠÙħÙħØª Ø§Ø²Ø©
ÙĨØ³ÙĬ ØªÙĪ
ĠÙĤÙĦÙĬ ÙĦØ§
ĠØ§ÙĦØ¹ÙĤ ÙĦÙĬÙĩ
ĠØ±Ø§Ø¬ Ø¹
ĠØ¢ÙĦ Ø§Ùģ
Ġpro f
ĠÙĨØ¨ØºÙĬ ÙĥÙħ
ĠÙĤØ§Øª ÙĦÙĪ
ĠÙħØ¯ÙĬØ± Ø´
Ø§Ø¤ ÙĦ
ĠØ¨ÙĨÙģØ³ Ùĥ
ĠØ§ÙĦÙħÙĨØªØ¬ Ø§Øª
ĠÙģØ´ Ø¨Ø§Ø¨
Ø§Ø³ØªØºÙģØ± Ø§ÙĦÙĦÙĩ
ĠØ§Ø³Ø¨ Ø§ÙĨÙĬØ§
ĠØ±Ø®ÙĬ Øµ
ille ur
ĠØ§ÙĦÙħØªØŃ Ø¯Ø©
Ã §
ÙĬ ÙĦØ©
Ø¨ ÙĥÙĬ
Ø¯ Ø´
ĠÙĬ ÙĦÙħ
ĠÙĬ ÙĦØ¨Ø³
ĠÙģ ÙĤØ±
ĠØª ÙĪÙĨ
ĠØª ØµØ±
ĠÙĦ Ø¨Ø±
ĠÙĦ ÙĪÙĥ
ĠÙĦ Ø·ÙĬÙģ
ĠÙĨ Ø±ÙĬØŃ
ĠÙĨ Ø¯Ø¹ÙħÙĪ
ĠÙģÙĬ ÙĦ
ĠÙĥ Ø¯
ĠÙĩ Ø§ÙĨÙĬ
Ø² ÙĬØ§
ÙĬÙĨ ÙĩØ§
Ø§Ùħ Ø¹
ĠØ´ Ø§ÙģÙĬ
ĠØ® ÙĩÙĩ
ÙĪÙĨ Øµ
ÙĩØ§ ÙĬÙĦ
ĠÙĤ ÙĬØ³
ĠÙĤ ÙĨØ§Ùĩ
ĠØ£ ØµÙĦ
ĠØ¯ ÙĨ
ĠØ¯ Ø§Ùħ
ĠØ§ÙĦÙħ ÙĬØ¯
ĠØ³ ÙģÙĬ
ĠØ³ Ø§ÙģØ±
Ø§Ùģ ÙĬØ§
ÙĪØ± ÙĨÙĬ
ÙĦØ§ ÙĪ
ÙģÙĬ Ø²ÙĬ
Ø§Ø¬ Ø¹
ÙĬØ¯ ÙĪ
Ø³Øª Ø§Ø°
ÙĪØ§ Ø§ÙĪ
ĠØªØ¹ ÙĩØ§
ĠÙĬØŃ Ø±ÙĤ
ĠØ· ÙĪÙħÙĪØ¨ÙĬÙĦ
ĠØªØŃ Ø´
ĠØªØŃ ÙĬØ±
ĠØ§ÙĦØª Ø§ÙĦÙĤ
ĠØ§ÙĦÙĤ Ø´
ĠØ§ÙĦÙĤ Ø¨Ø±
ĠØ§ÙĦÙĤ ØµØ±
ĠØ§ÙĦØ¨ ÙĪØ±
ĠØ§ÙĦØ¨ ÙĨØª
ÙħØ¹ Øª
Ø±Ø§ ÙĩØ§
Ø§ÙĦÙħ Ø±Ø©
ĠØ§ÙĦØ³ ÙĬÙĨ
ĠÙĬØª ØºÙĬØ±
ĠØ§ÙĦÙĪ ØµÙģ
ĠÙħØ± ÙĪØ±
ĠØ¹ÙĦ Ø§Ùħ
ĠÙĨØ´ÙĪÙģ ÙĪÙĩ
ĠØªÙĤ Ø·Ø¹
ĠÙħØ³ Ø§Ø¹Ø¯Ø©
ĠØ±ÙĪØŃ ÙĪØ§
ÙħØ§ÙĨ Ø©
ÙĪØªÙĬ Ùģ
ĠÙĨØ´ Ø§
Ø§ÙĨØª Ùħ
ĠÙĪØ± ÙĤØ©
ĠØªØ¨ Ø§Øª
ĠØªØ³Øª ÙħØªØ¹
Ġm in
ĠØ§Ø¬ Ø¯
ĠÙĬÙĤ ÙĪÙĦÙĩØ§
ĠØ§ÙĦØ« ÙĪØ±Ø©
ØŃØª Ø§
is s
ĠÙĪØ£ Ø³
ĠÙħØ¬ Ø§ÙĨØ§
Ġf i
ĠØ¨Ùĩ Ø°
Ø±Ø¯ Ø§Ø³
ØªÙħ ÙĨØ§
ĠØ®Ø· Ø§
Ø§Ø³Ùħ ØŃÙĦÙĬ
ĠØ§ÙĦØ§Ùħ Ø±ÙĬÙĥÙĬØ©
ĠÙģÙĩÙħ ØªÙĬ
ĠÙĬØµ Ø¨Ø±
ĠÙħØ¯ Ùī
ĠØ£Ø¬ Ø±
ĠØ§ÙĤ Ø¹Ø¯
ĠØ¹Ø±Ùģ ØªÙĥ
ĠÙħÙĩ ÙĨØ¯
ĠØ§ÙĦÙģÙĬ Ø¯ÙĬÙĪØ§
ĠÙĪÙĩÙĪ ÙħØ§
ĠÙĥÙĨ Ø²
ĠÙĦØ§Ø¨ ÙĪÙĦÙĬØ³
ĠÙĨØ¸ Ø±Ø©
ĠØ¹ÙĦÙħ Ø§Ø¡
ÙĥÙĬÙģ Ø§Ùĩ
Ø¹ÙĨØ¯ ÙĨØ§
Ø²ÙĪ Ø§Ø¬
ĠØ§ÙĦØ§ÙĬ ÙħØ§ÙĨ
ĠØ§ÙĦØ´Ø¹ ÙĪØ±
ĠØ§ÙĦØ¢ Ø®Ø±
ĠØ§ÙĦØ¢ Ø®Ø±Ø©
ĠØ§ÙĦØªØµÙĪÙĬØ± ÙĬØ©
ĠØ¬Ø§ÙĪ Ø¨ÙĨÙĬ
ĠÙĦØµ Ø§ÙĦØŃ
Ġpro bl
ĠØ³Ùĩ ÙĦØ©
ĠÙĪØ§Ø¨ ÙĪÙĨÙĬ
ĠÙħØ§ÙģÙĩÙħ Øª
ĠÙħØ±ØŃ ÙĦØ©
ĠØ§ÙĦØ²ÙĪØ¬ Ø©
ĠØ§ÙĦØ¨ÙĤ Ø§Ø¡
ĠØ§ÙĦØ¯Ø® ÙĪÙĦ
ĠØ¨Ø§ÙĦÙģØ± ÙĨØ³ÙĬØ©
ĠØ§ØªÙĪ Ø³ÙĦ
A l
a p
Ġ Z
ÙĬ ÙħØ§
ÙĪ ÙĬØ¯
Ø§Ø ¥
Ùĩ ÙĦÙĪ
Ùĥ Ùģ
Ùĥ ØªØ¨
ĠÙĪ ÙĩØ¯
ĠÙħ ÙĤÙĬÙħ
ØŃ Ùī
Ùģ Ø¯ÙĬÙĪ
ĠÙĬ Ø¤ÙħÙĨ
ĠÙĬ Ø¸ÙĩØ±
ĠØª Ø¨ØŃØ«
ĠÙĦ ÙĪÙħ
ĠÙĦ Ø²ÙĪØ¬
ĠÙĦ ØªØ¹
ĠÙĦ Ø°ÙĬ
ĠØ¹ ÙĤØ¯
ĠØ¹ ØµØ±
ĠØ¹ Ø²ÙĪØ¬
ĠØ¹ ÙĬØ³
ĠÙĨ ÙĪÙĦÙĪ
ĠÙĨ Ø¨Ø¹Ø«
ĠÙģÙĬ Ùģ
ĠÙģÙĬ ÙĦØ§
Ø® Ùĩ
Ø® Ø´ÙĪ
Ø· Ø´
Ø¨ÙĬ ÙĩØ§
Ø§Ùħ ØªÙĥ
ĠØ® Ø§ÙĨ
ĠØ¬ Ø§ÙĬØ§
ĠØ¬ Ø±Ø¨Øª
ĠØŃ ÙĬØª
ĠØŃ ÙĤÙĬÙĤÙĬØ©
ĠØ£ ÙħÙĦ
ĠØ¯ ÙĪØ¨
ĠØ§ÙĦÙħ ÙĦØŃ
ĠØ³ Ø¤
ĠØ³ ÙĤØ³
Ø§ÙĬ ÙĬØ±
Ø§ØŃ ÙĦ
Øº ÙģØ§Ø±
ĠØ§ÙĦØ¹ Ø§ÙĦÙĬ
ØµØŃ ØªÙĥ
Ø§ÙĦÙĦÙĩ Ø§
ĠØªØ¹ Ø±ÙĬÙģ
Ø±Ø¨ÙĬ Ø¹
ĠØ§ÙĦÙĨ Ø®ÙĦØ©
ĠØ§ÙĦØª ØºÙĬÙĬØ±
ĠØ§ÙĦØª ÙģÙĥÙĬØ±
ĠØ§ÙĦØ´ Ø±ÙĬÙģ
ĠÙĪÙĬ Ø¬ÙĬ
ÙĪÙĥ ÙĦ
ĠØ§ÙĦÙĤ ÙĪØ©
Ø§Ø· ÙĪ
ĠØ§ÙĦØ¯ Ø§ÙħØ©
ĠØ§ÙĦØ¯ ÙĦÙĬÙĦ
ĠÙĪØª Ø³
ĠÙĪÙĨ ÙĪØ±
ĠÙħØŃ Øª
ĠØ§ÙĬ ÙħØ§Ø¬
ĠÙĪØŃ Ø³ÙĨ
ØªØŃ ÙĬÙĩ
ĠØ§ÙĦØµ Ø¹
ĠÙģØ§ÙĦ Ø¯Ø§Ø±
ĠÙĪØ¹ ÙĨ
Ø¦ Ø§Ø¨
ĠØ§ÙĦØº Ø±ÙĬØ¨
Ø¹Ùħ ÙĦÙĩØ§
Ø§Ø±ÙĬ Ùģ
ĠÙĦØ§Ø²Ùħ Ùĥ
Ø¤ ÙĪÙĨ
Ø¯ÙĪ Ø§Øª
ĠØ¨Ø¯ ÙħÙĪØ¹
Ø¨Ø§Ø¨ ÙĨØ§
Ø§Ø³Øª ÙħØ±
ÙģÙĩÙħ Ø´
ĠÙħØ² ÙĬØ§
ĠØ®ÙĦ Ø·
ĠØ¯Ø§Ø± ÙĪÙĩ
ĠØªØ´ Ø¬ÙĬØ¹
ĠÙĨØ¯ÙĬØ± ÙĪÙĩØ§
Ø±ÙĤ Ùĩ
ĠÙĬÙĨ ÙĪØ±
Ġv u
ĠØ§Ø° Ø±Ø¨ÙĬØ¬Ø§ÙĨ
ĠÙħÙĦÙĬØŃ Ø§
ĠØ§ÙĦÙĦ Ø®Ø±
ĠØ®Ø· Ø§Ùĥ
ĠÙħØ³Øª Ø«ÙħØ±
ØªØ±Ùĥ ÙĬØ§
ĠØŃØ³ Ø¯
ĠÙħØ§ÙĦ Ø§Ø²ÙħØ´
ĠÙĬÙĥ Ø°Ø¨
ÙĪØ§Ø± Ø¯
ĠØ¹Ø±Ùģ ÙĨØ§
ĠÙħØ§Ø¹ Ø¬Ø¨
ĠÙĦØ£ ÙĩÙĦ
ĠØ³Ø¨ ÙĪÙĨØ³
ĠÙĦØ¹Ø²ÙĬØ² Ø©
ĠØªÙĬ ÙĦÙĬÙģÙĪÙĨ
Ø±ÙĬÙĥ Ø©
ĠÙĬØ®Ø±Ø¬ ÙĪ
ĠØ§ÙĦØ¹Ø²ÙĬØ² Ø©
ĠØ§ØŃØªØ± Ùħ
ÙĥØ§ÙĬÙĨ Ø©
ĠÙĬØ¹Ø§ÙĪÙĨ ÙĥÙħ
ĠØ§ÙĦÙĥØ± Ø´
ĠØ¹Ø§ÙĦÙħ ÙĬØ§
ĠÙģØª Ø§Ø©
ĠÙĪØ§Ø¬ Ø¹ÙĦ
ĠÙĪØ§Ø³ ÙĥÙĨÙĩ
ĠØ´Ùĥ ÙĬØª
ÙģÙĥØ± ØªÙĨÙĬ
ĠÙĬØ¹Ø· ÙĬÙĨØ§
ĠÙĥØ±Ùĩ ÙĨØ§
ĠØ¯ÙĬØ§ÙĦ ÙĥÙħ
ĠÙħÙĬÙħ ÙĪÙĨØ©
ĠÙĦØŃÙħ ÙĬ
ĠÙĬØ§Ø¬ ÙħØ§ÙĦ
ĠØ³Ø¨ÙĬ Ø³ÙĬØ§ÙĦ
ĠØªØ¨Ø¯ ÙĦØª
ĠØ§ÙĦØ¨Ø±ÙĪ Ø¯ÙĪÙĬ
ĠÙħÙĪÙĩ ÙĪØ¨
ĠØ§ÙĦØ¨Ø· ÙĦ
ĠØ§ÙĤØª Øµ
ĠØ¨Ø§ÙĦØ¯ Ø±Ø§ÙĩÙħ
ĠØ§ÙĦØ¨Ø³ ÙħØ©
ĠØ¹Ø§Ø¦ÙĦ ØªÙĥ
ĠØ¯ÙĪÙħ Ø§Ø¬
ĠØ±Ø§Ùħ Ø²
ĠÙħØ´ÙĪ Ø§Ø±Ùĥ
pk o
ox pko
ĠØ¬ÙĪÙĬ ÙĦÙĬØ©
js oxpko
Ġtou jour
t t
ÙĦ ÙĨØ§Ø´
ÙĬ Ø§Ø®ÙĬ
ÙĪ Ø³Øª
ÙĤ Ø§Ø¡
ĠÙĬ Ø°
ĠÙĬ ÙĪØ±ÙĬ
ĠÙĬ ÙĪÙĨØ³
ĠÙĬ Ø°ÙĥØ±
ĠØ¨ Ø±ØŃÙħØ©
ĠÙģ Ø±Ø§ÙĤ
ĠÙģ ÙĩØ§Ø°
ĠØª Ø·ÙĬØŃ
ĠØª Ø³ÙħØŃ
Ø§ÙĨ Ø§Ø´
Ø´ Ø§Ùģ
Ø¬ Ø±Ø¨
Ø¬ ÙħÙĬÙĦ
ĠØ± Ø²
ĠÙĩ ÙĨØ¯
ĠÙĩ Ø§Ø¨Ø·
Ø² Ø¨
Ø® ÙĬÙĨ
ĠØ´ ØŃ
ĠØ¬ Ø±ÙĬÙĪ
ĠØŃ Ø±ÙĬØ©
ĠØŃ ÙĦÙĬØ¨
ĠÙĤ Ø³ÙħØ§
ĠØ£ ÙģÙĩÙħ
ĠØ§ÙĨ Ø²ÙĬÙħ
ĠØ¯ ÙĪÙĨØ§Ùģ
ĠØ§ÙĦÙħ Ø±Ø§
ĠØ§ÙĦÙħ ØŃØ¨Ø©
ĠØ³ ÙĤØ·
Øº ÙĨÙĬ
ĠÙĪØ§ÙĦ ÙĥØ±Ùħ
ĠÙħØ¹ Ø§ÙĨÙĬ
ØªÙĪ Ø§Ø¶Ø¹
ĠÙĥÙĬ Øª
Ø±Ø¬ ÙĪØ§
Ø³Øª ÙĪØ±
Ø³Øª ÙĤØ¨ÙĦ
ÙĪØ§ ÙĩØ§
ĠØªØ¹ ÙĬÙĬ
ĠÙĬØŃ Ø³ÙĨ
ÙĥÙĪÙĨ ÙĬ
ĠØ² Ø§ÙĦ
ĠØªØŃ Ø³ÙĨ
ĠØªØŃ ÙģÙĬØ²
ÙħÙĨ Ø±Ø§Ø³Øª
ĠÙĦÙĦ Ø§Ùħ
Ø§Ø· ÙĬØ±
ĠØ§Ø³ Ø·ÙĨØ¨ÙĪÙĦ
ĠØ§ÙĦØ¯ ÙĪØ±Ø©
ĠØ§ØŃ ÙĬØ§ÙĨØ§
ĠØ§ÙĪ ÙĬ
ĠØ§ÙĪ Ø¯ÙĬ
ĠÙĨØ¹ ÙħÙĩ
ĠØ¶ ÙĪ
ĠØ¶ ÙĬÙĤ
ĠØ¯ÙĬØ± ÙĩÙħ
ĠÙĬØ´ Ùģ
Ø±ÙĪØŃ Ø´
ĠÙĨØŃ Ø³ÙĪ
ÙĪØª Ø¨Ø±
ÙĪÙĩ Ø§Øª
ĠÙĪØ´ ÙħÙĨ
ĠÙĪØ¬ ÙĪØ§Ø¯
ĠØ¨Ø± Ø§ÙĩÙĬÙħ
ĠÙĩØ§Ø° ÙĪÙĥ
Ø¨ÙĦØ§Ø¯ ÙĬ
ĠØªÙĨ Ø´ÙĬØ·
ĠÙĨÙĤ ÙĪÙĦÙĩ
ĠØ¹Ùħ Ø¨Ø§ÙĦÙĬ
ĠØ¨ÙĬÙĨ ÙħØ§
ĠØ§ÙĦÙħØ´ ÙĥÙĦØ©
ĠØ§ÙĦÙħØ´ ÙĥÙĦÙĩ
ĠØ§Ø¯ Ùħ
Ø¹ÙĪ Ø°
ØªÙħ ÙĨÙĬØª
ĠØ§ÙĦÙĦ Ø§ÙĬÙĥ
ĠØ§ÙĦØ§Ø® ÙĪØ©
ĠÙħÙĦ Ø§Ùĥ
ÙĦØ§ÙĤ Ø§Øª
ĠØ¨Ø§Ø¨ ÙĪÙĨÙĬ
ĠÙĪØµ Ø§ÙĦØŃ
ĠØ£Ùĥ ÙĬØ¯
ĠÙĥÙħ ÙĦÙĪØ§
ÙĦÙĪÙĤ Ø§Øª
ĠÙĬØ¹Ø±Ùģ ÙĩØ§
ĠÙĪÙģÙĬ Ùĩ
ĠÙĪÙĦØ§Ø¯ ÙĩØ§
ĠÙħØ§Ø± Ø³ÙĬ
ĠÙĬÙħ ÙĦÙĥ
ĠØªØ± ÙĤØ¯
ĠÙħØªØ§Ø¨Ø¹ ÙĬÙĥ
ĠÙĪØ§ØŃ Ø¨
Ø¬ÙĦÙĬ Ø²
Ġque l
ĠÙĤØµ ÙĬØ±Ø©
ÙĤØµ Ùī
ch e
ĠØ§ÙĦØ£Ùħ Ø§Ùħ
ĠÙĪØ· ÙĨÙĬ
ĠÙĦÙĦØ¹ Ø§Ùħ
ĠØ£Ø³ Ø§Ø³
ĠÙĤØ¨ Ø§ÙĬÙĦ
ÙĨØ´ Ø§ÙĦÙĩ
ĠØ§ÙĦÙĤÙĬ Ùħ
ĠØ¨Øµ ÙĪØª
ĠØ§ÙĦØªØŃ ÙĬØ©
ĠØ§ÙĦØªØŃ ÙĪÙĬØ³Ø©
ĠØ®Øµ ÙĨØ§
ĠØ®Øµ ÙĨÙĬ
ĠØ§ÙĦØ¢ Ø®Ø±ÙĬÙĨ
ĠÙĦÙĦÙĤ ÙĨØ§Ø©
ĠÙĪØ¥ Ø°Ø§
ĠØ¶Ø±Ø¨ Øª
ĠØ§ÙĦØªÙĦÙģ Ø²Ø©
ĠÙĬØ¬Ø¹ ÙĦÙĪ
ĠÙĬØ§Ø¬ ÙĪØ§Ø¯
ĠØªØ¨Ø¯ Ø£
ĠØ§ÙĦØŃØ³ Ø¯
ĠÙĬØ¨Ø¯ Ø£
ĠØ§ÙĦØªØ±Ùĥ ÙĬØ©
ĠÙĪØ§Ø¶ ØŃØ©
ØŃØ¨Ø³ Ø´
ĠØ§ÙĤØª Ø±Ø§ØŃ
ÙĬØ±Ø§Øª ÙĬÙĨ
ĠØ§ÙĦÙĪØ· ÙĨÙĬØ©
ĠØ£Ùĩ ÙĦÙĩ
ĠØ¬ÙĪØ² Øª
ĠØ§ØŃØªØ±Ø§Ùħ Ø§ØªÙĬ
ĠØ£ÙĨÙĬ Ø³
ĠØ¬Ø§ÙĨ ÙģÙĬ
ĠØºØ§ÙĦ Ø·Ø©
ĠÙħÙĤØ§Ø± ÙĨØ©
ĠØ£Ø±Ø¯ Øª
ĠØ§ÙĦØŃØ³ÙĨ Ø§Øª
ĠÙĦÙĨØ¯ ÙĨ
i p
Ġ Ã©
Ġ wa
Ġ ans
Ø± Ø§Ø¯
ĠØ§ÙĦ Ø±Ùģ
Øª Ø®
ĠÙĪ Ø®ÙĦ
Ø¹ ÙĨÙĬ
ĠÙĬ Ø±Ùī
ĠÙĬ Ø¨ÙĬØ¹ÙĪ
ĠØ¨ Ø§Ø¯
ĠØ¨ ÙĥØ±
ĠØ¨ ÙĪØ±Ùĥ
ĠÙģ Ø¸
ĠÙģ ÙĦÙĥ
ĠÙģ Ø§ÙĬØ±
ĠÙģ ÙĦØ¹
ĠØª Ø§ÙĬ
ĠØª ØºÙĬØ¶
Ø§ÙĨ ØªÙĬ
ĠÙĦ Ø§Ø¯
ĠÙĦ Ø¨ØŃØ±
Ø´ ÙĥØ±
Ø´ Ø®Øµ
ĠÙĨ Ø±Ø¯
ĠÙĨ Ø¯ÙĬÙĥ
ĠÙĨ Ø¨Ø¯ÙĦ
ĠÙĨ Ø±Ø¬Ø¹ÙĪ
ĠÙĥ Ø§ÙģÙĬ
ÙĦÙĬ ÙĦØ©
ĠÙĩ Ø±
ĠÙĩ Ø²
Ø§Ø± Ø§
ÙĬØ± Ùĥ
ĠÙħÙĨ Ø§Ø´
ĠØŃ Ø¨Ùĩ
ÙĪÙĨ Ø§Øª
Ø¶ Ø§Ø±
ĠÙĤ Ø³
ĠØ¯ ØŃÙĥ
ĠØ§ÙĦÙħ Ø¨ÙĦØº
ĠØµ Ø±Ùģ
Ø§Ùĩ ÙĦÙĪØ§
ĠØ§ÙĦØ¬ ÙĩØ©
Ø§ÙĪ Ø§
ÙģÙĬ Ø¸
ØµØŃ ÙĥÙħ
ĠØ®ÙĪ ÙĬØ©
ĠØ§ÙĦØŃ ÙĬØ·
ĠØªØ¹ Ø§ÙĦ
ĠÙĬØŃ ÙĬØ§
ĠÙĬØŃ ØªØ±Ùħ
ĠÙĬØŃ Ø¯Ø«
ĠÙĨØª ÙĥÙĦÙħ
ĠØ§ÙĦÙĨ ØªÙĬØ¬Ø©
Ø±Ø¨ ÙĬÙĨ
ĠØªØŃ Ø·ÙĪ
ĠØªØŃ Ø¯Ø«
ĠØ§ÙĦÙĤ Ø·Ø§Ø±
ĠØ§ÙĦØ¨ Øµ
ĠÙħØª Ùħ
ÙħÙĪ Ø¶ÙĪØ¹
ĠØ§ÙĪ Ø¯
