{"<|endoftext|>":0,"!":1,"\"":2,"#":3,"$":4,"%":5,"&":6,"'":7,"(":8,")":9,"*":10,"+":11,",":12,"-":13,".":14,"/":15,"0":16,"1":17,"2":18,"3":19,"4":20,"5":21,"6":22,"7":23,"8":24,"9":25,":":26,";":27,"<":28,"=":29,">":30,"?":31,"@":32,"A":33,"B":34,"C":35,"D":36,"E":37,"F":38,"G":39,"H":40,"I":41,"J":42,"K":43,"L":44,"M":45,"N":46,"O":47,"P":48,"Q":49,"R":50,"S":51,"T":52,"U":53,"V":54,"W":55,"X":56,"Y":57,"Z":58,"[":59,"\\":60,"]":61,"^":62,"_":63,"`":64,"a":65,"b":66,"c":67,"d":68,"e":69,"f":70,"g":71,"h":72,"i":73,"j":74,"k":75,"l":76,"m":77,"n":78,"o":79,"p":80,"q":81,"r":82,"s":83,"t":84,"u":85,"v":86,"w":87,"x":88,"y":89,"z":90,"{":91,"|":92,"}":93,"~":94,"¡":95,"¢":96,"£":97,"¤":98,"¥":99,"¦":100,"§":101,"¨":102,"©":103,"ª":104,"«":105,"¬":106,"®":107,"¯":108,"°":109,"±":110,"²":111,"³":112,"´":113,"µ":114,"¶":115,"·":116,"¸":117,"¹":118,"º":119,"»":120,"¼":121,"½":122,"¾":123,"¿":124,"À":125,"Á":126,"Â":127,"Ã":128,"Ä":129,"Å":130,"Æ":131,"Ç":132,"È":133,"É":134,"Ê":135,"Ë":136,"Ì":137,"Í":138,"Î":139,"Ï":140,"Ð":141,"Ñ":142,"Ò":143,"Ó":144,"Ô":145,"Õ":146,"Ö":147,"×":148,"Ø":149,"Ù":150,"Ú":151,"Û":152,"Ü":153,"Ý":154,"Þ":155,"ß":156,"à":157,"á":158,"â":159,"ã":160,"ä":161,"å":162,"æ":163,"ç":164,"è":165,"é":166,"ê":167,"ë":168,"ì":169,"í":170,"î":171,"ï":172,"ð":173,"ñ":174,"ò":175,"ó":176,"ô":177,"õ":178,"ö":179,"÷":180,"ø":181,"ù":182,"ú":183,"û":184,"ü":185,"ý":186,"þ":187,"ÿ":188,"Ā":189,"ā":190,"Ă":191,"ă":192,"Ą":193,"ą":194,"Ć":195,"ć":196,"Ĉ":197,"ĉ":198,"Ċ":199,"ċ":200,"Č":201,"č":202,"Ď":203,"ď":204,"Đ":205,"đ":206,"Ē":207,"ē":208,"Ĕ":209,"ĕ":210,"Ė":211,"ė":212,"Ę":213,"ę":214,"Ě":215,"ě":216,"Ĝ":217,"ĝ":218,"Ğ":219,"ğ":220,"Ġ":221,"ġ":222,"Ģ":223,"ģ":224,"Ĥ":225,"ĥ":226,"Ħ":227,"ħ":228,"Ĩ":229,"ĩ":230,"Ī":231,"ī":232,"Ĭ":233,"ĭ":234,"Į":235,"į":236,"İ":237,"ı":238,"Ĳ":239,"ĳ":240,"Ĵ":241,"ĵ":242,"Ķ":243,"ķ":244,"ĸ":245,"Ĺ":246,"ĺ":247,"Ļ":248,"ļ":249,"Ľ":250,"ľ":251,"Ŀ":252,"ŀ":253,"Ł":254,"ł":255,"Ń":256,"Ø§":257,"ÙĦ":258,"ÙĬ":259,"ĠÙ":260,"ĠØ":261,"ÙĨ":262,"ÙĪ":263,"Ø§ÙĦ":264,"Ø§Ø":265,"Ùħ":266,"Ø±":267,"ĠØ§ÙĦ":268,"Ùĩ":269,"Ùĥ":270,"Øª":271,"Ø¨":272,"ĠÙĪ":273,"Ø¯":274,"ĠÙħ":275,"Ø¹":276,"ØŃ":277,"Ø©":278,"Ùģ":279,"ÙĤ":280,"Ø³":281,"ĠÙĬ":282,"ĠØ¨":283,"ĠÙģ":284,"ĠØª":285,"Ø§ÙĨ":286,"ĠÙĦ":287,"Ø´":288,"ĠØ¹":289,"Ø¬":290,"ÙĦÙĩ":291,"ĠÙĨ":292,"ĠÙģÙĬ":293,"ĠÙĥ":294,"ĠØ±":295,"ÙĦÙĬ":296,"ĠÙĩ":297,"Ø²":298,"Ùī":299,"ÙĬÙĨ":300,"Ø§Ø±":301,"ÙĬØ±":302,"Ø®":303,"ÙĨØ§":304,"Øµ":305,"Ø·":306,"Ø¨ÙĬ":307,"ĠÙħÙĨ":308,"Ø§Ùħ":309,"Ø§Øª":310,"ĠØ§ÙĦÙĦÙĩ":311,"ĠØ´":312,"ĠØ®":313,"ĠØ¬":314,"ĠØŃ":315,"Ø§Ø¯":316,"ÙĪÙĨ":317,"ĠØ§Ø":318,"ÙĩØ§":319,"Ø¶":320,"ĠÙĤ":321,"ĠØ£":322,"Ø±ÙĬ":323,"Ø§Ø´":324,"ĠØ§ÙĨ":325,"Ø¯ÙĬ":326,"ĠØ¯":327,"ĠØ§ÙĦÙħ":328,"Ø§Ùĥ":329,"Ø°":330,"ĠØ³":331,"ÙĦÙī":332,"Ø§ÙĬ":333,"ÙĪÙĦ":334,"Ø§Ø¹":335,"ÙĥÙħ":336,"ÙĩÙħ":337,"Ø§Ø¨":338,"Ø§ØŃ":339,"Ø§Ø¡":340,"Ø§Ùģ":341,"ÙĪØ±":342,"Øº":343,"ÙĬØ§":344,"ĠØµ":345,"Ø§Ø¦":346,"ĠÙĪØ§ÙĦ":347,"ĠØ¹ÙĦÙī":348,"Ø§Ø³":349,"Ø£":350,"Ø§Ùĩ":351,"Ø«":352,"ĠÙĦÙĬ":353,"ÙĨÙĬ":354,"ÙĪÙģ":355,"ĠØ§ÙĦØ¹":356,"ĠØ§ÙĦØ¬":357,"Ø³ÙĦ":358,"ÙĦØ§":359,"ĠÙħØ¹":360,"ÙħØ§":361,"ÙĬØ©":362,"ØŃÙħ":363,"ÙĦÙĪ":364,"ĠĠ":365,"Ø±ÙĪ":366,"ØªÙĪ":367,"Ø§ÙĪ":368,"ĠØ¹ÙĦÙĬ":369,"ĠÙħØ§":370,"ĠØ¹ÙĨ":371,"ĠÙĩØ°":372,"ĠØ±Ø¨ÙĬ":373,"ĠØ¨Ø§ÙĦ":374,"ĠÙĥÙĬ":375,"ĠØº":376,"ÙģÙĬ":377,"ØªÙĬ":378,"ØµØŃ":379,"Ø§Ø¬":380,"Ø²Ø§Ø¦":381,"Ø¸":382,"ÙĬØ¯":383,"ĠØ®ÙĪ":384,"Ø±Ø¬":385,"Ø³Øª":386,"ÙĦÙħ":387,"ÙĪÙħ":388,"Ø§ÙĦÙĦÙĩ":389,"Âł":390,"ÙĪØ§":391,"ĠØ¥":392,"ĠÙĥÙĦ":393,"ÙĥØ±":394,"Ø§Ø±Ùĥ":395,"ĠØªØ§Ø¹":396,"ĠØ§ÙĦØŃ":397,"ĠØªØ¹":398,"ĠØ¨ÙĦ":399,"ĠÙĬØŃ":400,"Ø¯ÙĬÙĪ":401,"ÙĥÙĪÙĨ":402,"ĠÙĬØ¹":403,"ÙĦÙĥ":404,"Ø§ÙĨÙĬ":405,"ÙĤÙĬ":406,"ĠÙĨØª":407,"ÙĨØª":408,"ĠÙĩÙĩ":409,"ÙĬÙĥ":410,"ÙĦÙĤ":411,"Ø±Ø¨ÙĬ":412,"ÙħÙĬ":413,"ĠØ§ÙĦÙĨ":414,"ĠØ§ÙĦØ¬Ø²Ø§Ø¦":415,"Ø±Ø¨":416,"ĠØ·":417,"ĠÙĬØ§":418,"ĠØ²":419,"Ø¨ÙĦ":420,"ĠØ®ÙĪÙĬØ§":421,"Ø±Ùģ":422,"Ø±Ùĥ":423,"ĠÙĦØ§":424,"ĠØªØŃ":425,"ĠØ§ÙĨØ§":426,"ĠØ¹ÙĨØ¯":427,"Ø§Øµ":428,"ĠØ§ÙĦØª":429,"ÙħÙĨ":430,"Ø³ÙĬ":431,"ÙĤØ¯":432,"Ø§Ø²":433,"ØŃÙĥ":434,"Ø¨Ø§Ø±Ùĥ":435,"ĠØ§ÙĦØ´":436,"ÙĦØ©":437,"Ø¨Ø±":438,"ĠØ¨Ø²":439,"ĠØ§Ø®":440,"ĠÙĩØ°Ø§":441,"ÙħØ©":442,"ÙħØ§ÙĦ":443,"ĠØ´Ø§Ø¡":444,"ĠØºÙĬØ±":445,"ĠÙĦÙĥ":446,"Ø§ÙĨØ§":447,"ĠØ§ÙĦÙģ":448,"ĠÙĪÙĬ":449,"ĠÙĪØ§ÙĦÙĦÙĩ":450,"ÙĪØ³":451,"Ø±Ø©":452,"ØŃØ¨":453,"ÙĤÙĪÙĦ":454,"ĠÙĦÙĦ":455,"ĠÙĥØ§ÙĨ":456,"ÙĪØ§Ø¯":457,"Ø§Ø®":458,"Ø¹Ø©":459,"ĠØ§ÙĦØ¬Ø²Ø§Ø¦Ø±":460,"ĠÙĪÙĦØ§":461,"ÙĪÙĥ":462,"Ø±ØŃÙħ":463,"Ø´ÙĪÙģ":464,"ĠÙħØ´":465,"ÙĬØª":466,"ĠÙĬØŃÙģ":467,"ĠØ§ÙĦÙĤ":468,"ĠØ§ÙĦØ¨":469,"ÙĬØ¨":470,"Ø¯ÙĬØ±":471,"Ø¹Ø¯":472,"ØŃÙħØ¯":473,"Ø§Ø·":474,"ĠÙĩÙĪ":475,"ĠØ±ÙĪ":476,"Ø§ØŃØ¯":477,"ĠØ¨Ø²Ø§Ùģ":478,"ĠÙħØª":479,"ÙħÙĪ":480,"ĠÙĪÙĦ":481,"ÙĪÙĬ":482,"ÙħÙĦ":483,"ĠØ§ÙĦÙĥ":484,"ÙģØ±Ø¬":485,"ĠØ§Ø³":486,"ØªÙĥ":487,"ĠØ§ÙĦØ¯":488,"ÙħØ¹":489,"ĠØ§ÙĦØ£":490,"ĠØ±Ø§Ùĥ":491,"ÙĤØ©":492,"Ø¬Ø¨":493,"ÙĪØ¯":494,"Ø®ÙĦ":495,"ĠØ§ÙĨØª":496,"ĠØµØŃ":497,"Ø¯Ø§":498,"Ø¹Ø¨":499,"Ø±Ø§":500,"ĠÙĪØ§ØŃØ¯":501,"Ø§ÙĦÙħ":502,"ĠØ§":503,"ÙģØ±":504,"ĠØ§ÙĦØ³":505,"ĠØ§ØŃ":506,"ĠØ§ÙĦØ®":507,"ĠØ¬ÙĪØ§Ø¯":508,"ÙĤØª":509,"ĠØ§ÙĪ":510,"ÙħØ¶":511,"ÙĪÙģÙĤ":512,"ĠÙĪØª":513,"Ø¯Ùħ":514,"ĠÙĬØ±ØŃÙħ":515,"Ø¥":516,"ĠØ§Ùħ":517,"ÙĬÙĩ":518,"ĠØ¨ÙĦØ§Ø¯":519,"Ø§Ø°":520,"ÙģÙĬØ¯ÙĬÙĪ":521,"ĠÙĬØª":522,"ÙħØ¶Ø§ÙĨ":523,"Ø¶ÙĦ":524,"ĠÙħØ§Ø´":525,"ĠÙĬØŃÙģØ¸":526,"ÙĪØ¬":527,"ĠØ§ÙĦÙĦÙĬ":528,"ÙĥÙĦ":529,"ØªÙī":530,"ÙĬØ´":531,"Ø³Ø¨":532,"Ø§ÙĬÙĨ":533,"ÙĬÙħ":534,"ĠÙģÙĬØ¯ÙĬÙĪ":535,"ÙĦØª":536,"ÙĪØ¨":537,"ĠÙĪÙħ":538,"ĠØ£ÙĨ":539,"ĠÙĬØ¨Ø§Ø±Ùĥ":540,"ÙĪØ±ÙĬ":541,"ĠØ¨ØµØŃ":542,"Ø³ÙĨ":543,"ĠÙĨØ¹":544,"ĠØ§ÙĦØµØŃ":545,"ÙĥÙĬ":546,"ĠØ§ÙĦÙĬ":547,"Ø§ÙĦÙĬ":548,"ĠÙĪÙĨ":549,"ĠØ±Ø§Ùĩ":550,"ĠØ±ÙħØ¶Ø§ÙĨ":551,"ĠÙħØŃ":552,"ĠØ§ÙĬ":553,"ÙĪÙĦÙĬ":554,"ÙĩØ¯":555,"ÙĩÙĩ":556,"Ø¯Ø©":557,"ĠÙĬÙĪÙģÙĤ":558,"ĠÙĪØŃ":559,"ĠÙģÙĬÙĩ":560,"Ø¨ÙĬØ¨":561,"ĠØ¶":562,"ÙĬØ§Øª":563,"ÙĦØ¨":564,"ĠÙħÙĦÙĬ":565,"ÂłÂł":566,"ĠÙĩÙĨØ§":567,"ÙĪÙĨÙĬ":568,"ĠØ¯ÙĬØ±":569,"Ø±Øª":570,"ĠØ§ÙĦÙĪ":571,"ÙĥØ±Ø§":572,"Ø¡":573,"ÙħØ±":574,"ĠÙĥÙĬÙģ":575,"Ø§ÙĦØŃ":576,"ĠÙħÙĬ":577,"ĠØ¬ÙħØ§ÙĦ":578,"ÙĨØ©":579,"ĠÙĬØ®":580,"ĠØ¨Ø§Ø´":581,"Ø³ÙĦÙħ":582,"ĠØŃØªÙī":583,"Ø·ÙĬ":584,"ØªØŃ":585,"ĠØ§ÙĦØµ":586,"Ø§Ø©":587,"Ø³ÙĦØ³ÙĦ":588,"ĠØ¹ÙĦÙĬÙĥ":589,"Ø°Ø§":590,"ĠØ®ÙĬØ±":591,"ĠØ§ÙĦØ±":592,"ĠØ«":593,"Ø¨Ø¯":594,"ĠÙģÙĬÙĩØ§":595,"ØªÙĪÙī":596,"ĠÙħØ±":597,"ĠØ¹ÙĦÙĬÙĩ":598,"ÙĬÙĨØ§":599,"ĠÙĬØ´":600,"ĠØ¹ÙĦ":601,"ĠÙģØ§ÙĦ":602,"ĠØ¯ÙĬ":603,"ØªØ±":604,"ĠØ§Ùĥ":605,"Ø³ÙĦØ§Ùħ":606,"Ø¬ÙĬ":607,"Ø²ÙĬ":608,"Ø³Ø§ÙĨ":609,"ÙĥØ§ÙĨ":610,"ĠÙģÙĬÙĥ":611,"ĠØ§Ø¨":612,"Ø¨Ø¹":613,"Ø¶ØŃÙĥ":614,"ÙĪØ´":615,"ÙĪÙĬØ§":616,"ĠØ±Ø§ÙĨÙĬ":617,"Ø¹ÙĦ":618,"ĠÙĦÙħ":619,"Ø±ÙĪØŃ":620,"ĠÙĤØ§ÙĦ":621,"ĠÙĪÙĩ":622,"ĠÙĩØ§Ø¯":623,"ÙĪÙģÙĬ":624,"ĠÙĢ":625,"ÙħØ«":626,"ĠÙĩÙĬ":627,"ÙĦØŃ":628,"Ø§ÙĬØ©":629,"Ø³Ùħ":630,"Ø«Ø±":631,"Ø²ÙĬØ¯":632,"Ø¨ØŃ":633,"ÙģØ³":634,"ÙĦÙĤØ©":635,"ÙĥÙĨ":636,"Ø§ÙħÙĦ":637,"ĠÙĨØŃ":638,"ÙĪØª":639,"Ú¨":640,"ĠÙħØŃÙħØ¯":641,"ĠØ§Ø±":642,"Ø§Ø²Ùħ":643,"es":644,"ĠØ§ÙĦÙĨØ§Ø³":645,"ĠÙĬÙĪÙģÙĤÙĥ":646,"Ġp":647,"ĠØ§ÙĦØ·":648,"ĠÙĨØ´ÙĪÙģ":649,"ĠØ¥ÙĨ":650,"ĠÙĪØ¹":651,"ÙĪØ§ÙĦÙĦÙĩ":652,"ĠØ§ÙĦÙģÙĬØ¯ÙĬÙĪ":653,"ÙĪÙĩ":654,"ĠØªÙĤ":655,"Ø§ÙĬØ±":656,"ĠØ±Ø§ØŃ":657,"ĠÙħØ«":658,"Ø¦":659,"ĠÙĥÙĬÙħØ§":660,"ĠØ¨ÙĦÙĬ":661,"ĠØ¨ÙĬ":662,"Ø§Ø±Ø¨":663,"ĠÙĪØ§Ø´":664,"ĠØªØ®":665,"Ø§ØªÙĥ":666,"ĠÙĥÙĨØª":667,"ÙĤØ¯Ø±":668,"ĠØŃØ§Ø¬":669,"ĠÙĪØ´":670,"ĠØ§ÙĦØº":671,"ØªØ´":672,"Ġd":673,"ÙĬÙĦ":674,"ou":675,"ĠÙģØ±":676,"Ø¹Ùħ":677,"ÙĪØ¹":678,"ĠØ§Ø®ÙĬ":679,"Ø§Ø´ÙĪØ±":680,"ÙħØª":681,"ĠØ§ÙĦØ¬Ø²Ø§Ø¦Ø±ÙĬ":682,"Ø·ÙĬÙĥ":683,"ĠÙĬØŃÙģØ¸Ùĥ":684,"ÙĨØ³":685,"ĠØ³ÙĦ":686,"Ø§Ø¯Ø©":687,"Ġc":688,"ĠÙĦÙĩ":689,"ĠØ§Ùģ":690,"ÙĦÙĩØ§":691,"ĠÙħØ¹Ø§Ùĥ":692,"ĠÙĥØ§ÙĬÙĨ":693,"Ø§Ø±ÙĬ":694,"ĠØ£Ø®":695,"Ø§Ø±Ø©":696,"ÙĬØ±Ø©":697,"ÙģØª":698,"ĠØ´ÙĬ":699,"ĠÙĪØ¬":700,"ĠØ¨Ø¹Ø¯":701,"ÙĪÙĤ":702,"ĠÙĦØ§Ø²Ùħ":703,"Ø¢":704,"ÙĢ":705,"ĠØ°":706,"ØŃØ©":707,"ÙĤØ·":708,"ĠØ§ÙĦØ¹Ø§ÙĦÙħ":709,"ĠØ¨Ø±":710,"Ġl":711,"Ø´Ø§Ø¡":712,"ĠØ³ÙĬ":713,"Ø§Ø¶":714,"ÙĪÙģÙĬÙĤ":715,"ÙĨØ¯":716,"ĠÙĬØ¬":717,"Ø¤":718,"ØªÙĨÙĬ":719,"ĠØ§ÙĦØµØŃØ©":720,"ĠÙĪÙĬÙĨ":721,"ĠÙĦÙĦÙĩ":722,"ĠØ¬Ø§Ùħ":723,"Ø§Ø¨Ø©":724,"ĠÙĪÙĦÙĬ":725,"on":726,"ĠÙħØ³":727,"ĠÙħØ§Ø´ÙĬ":728,"Ø§ØŃØ©":729,"ĠØ¹ÙĨØ¯ÙĬ":730,"ĠÙĩØ°Ùĩ":731,"ĠØ±ÙĪØŃ":732,"Ø§ÙĩÙĦ":733,"ÙĥØ§":734,"ĠØ¨ÙĨ":735,"ĠÙĥØ¨":736,"ĠÙĨØ§Ø³":737,"ĠÙĥØ§ÙħÙĦ":738,"Ø§ÙĦÙĥ":739,"ĠØ¹ÙĦÙĬÙĥÙħ":740,"in":741,"ĠØªØª":742,"ÙĦÙģ":743,"Ø¯ÙĪ":744,"ĠÙĬØ¹ÙĨÙĬ":745,"ĠØ¨Ø¹":746,"ĠÙĬÙĥÙĪÙĨ":747,"Ø´ÙĬ":748,"Ø§ÙĩÙħ":749,"Ø§ÙĤ":750,"ĠØ¨Ø¯":751,"ÙħØ§ÙĨ":752,"Ġt":753,"ĠÙħØ§Øª":754,"ĠØ¢":755,"ĠÙĪØ¨":756,"ĠØ´ÙĥØ±Ø§":757,"ĠØ¹Ø§Ø´ÙĪØ±":758,"ÙĦØ¹":759,"Ø´ÙĥÙĪÙĨ":760,"ĠØ¨Ø±Ùĥ":761,"ĠÙĩØ§Ø°":762,"Ø®Øµ":763,"ĠØ§Ø¹":764,"ÙĪØªÙĬ":765,"ĠÙĨØ´":766,"Ø§ÙĨØª":767,"ÙĤÙĬÙĪØ³":768,"ĠÙĪØ±":769,"ĠØ§ÙĦØ¥":770,"ĠÙĦÙĥÙĨ":771,"ØµÙĦ":772,"Ø¨Ø§Ø¨":773,"Ø¯ÙĬÙĨ":774,"ĠÙĬØ¯ÙĬØ±":775,"ĠØªØ¨":776,"Ø¨ÙĦØ§Ø¯":777,"Ø§Ø³Øª":778,"an":779,"ĠÙĨØªÙģØ±Ø¬":780,"ĠØªØ³Øª":781,"ĠØ¬Ø²Ø§Ø¦":782,"ĠØ±Ø§Ø¦":783,"ĠØ§ÙĦØ°":784,"ĠØ¬ÙħÙĬ":785,"ĠÙĦØ¹":786,"ĠÙĬØ³":787,"ĠØªÙĨ":788,"ĠÙĤÙĨ":789,"Ø®Ø±":790,"en":791,"ĠØ®Ø¨ÙĬØ¨":792,"ĠÙĨØ³":793,"ĠØ¹ÙĨØ¯Ùĥ":794,"ĠØªÙĪ":795,"ĠÙĤØ¨ÙĦ":796,"ĠØ§ÙĦØ§":797,"ĠØªÙĥÙĪÙĨ":798,"ĠØµØ§ÙĦØŃ":799,"ÙĩØ±":800,"ĠÙĬÙĤÙĪÙĦ":801,"ĠÙĨØŃØ¨":802,"ÙĪØ©":803,"ĠØ§ÙĦØ²":804,"Ġm":805,"ÙģÙĩÙħ":806,"ÙĪÙĨØ§":807,"Ø±ÙĬÙĤ":808,"Ø¨Ùĩ":809,"ØªÙĩØ§":810,"ÙĬØ¹":811,"ÙĬØ§ØªÙĬ":812,"ĠÙĬØ¯":813,"ĠØªØ¬":814,"ØªÙĩ":815,"ÙħÙĨÙī":816,"ĠØ§ÙĦØ¬Ø²":817,"ĠÙĨÙĤ":818,"Ø§Ø¯ÙĬ":819,"ÙĩÙĦ":820,"ĠÙħØ²":821,"ĠÙĦÙĪ":822,"ĠØ¨Ø³":823,"ĠØ§Øª":824,"ĠØªØ³":825,"Ø£ÙĨ":826,"ÙĩØ§Ø±":827,"ØªÙĪÙģÙĬÙĤ":828,"Ø§Ø¨Ø¹":829,"ĠÙĬØ¨":830,"ĠØ§Ø¬":831,"ĠØ®ÙĦ":832,"ĠØ¶ØŃÙĥ":833,"ØŃØ§ÙĦ":834,"ĠÙĬÙĤ":835,"ĠØ¹Ùħ":836,"ĠÙĪØ§ÙĦÙĪ":837,"ØµØ±":838,"ĠØ¯Ø§Ø±":839,"ĠØ¨Ø§Ø±Ùĥ":840,"ĠØ¨Ùĥ":841,"ĠØ±Ø¨":842,"Ø§ØµÙĦ":843,"ĠØªØ´":844,"ĠØ¬Ø²Ø§Ø¦Ø±ÙĬ":845,"ĠØªÙħ":846,"Ø¸ÙĬÙħ":847,"ÙĦØ§Ùħ":848,"ĠØ§ÙĦØ«":849,"ÙĬÙĨÙĬ":850,"ØŃØª":851,"ĠØ§ÙĦÙħØº":852,"ĠÙĨÙģØ³":853,"Ø±Ø¨ÙĬØ©":854,"ÙĦÙĪÙħ":855,"ĠØ§ÙĦÙī":856,"ĠÙĨØ¯ÙĬØ±":857,"Ø±ÙĤ":858,"ĠÙħØŃØªÙĪÙī":859,"ĠÙĬÙĨ":860,"ĠÙĬØ§Ø±Ø¨":861,"ĠØŃØ§Ø¬Ø©":862,"Ø±Ø¶":863,"Ø§ÙĦÙĦÙĩÙħ":864,"ÙĤÙī":865,"ĠÙĨØªØ§":866,"ÙĩØ§Øª":867,"ĠÙĬÙĪÙħ":868,"Ø§Ø´Ø±":869,"ÙĦÙĨØ§":870,"Ø¯Ø±":871,"Ø·ÙĪØ±":872,"Ø¬Ø¨ÙĨÙĬ":873,"ĠØ¨ÙĦØ§Ø¯ÙĬ":874,"ĠØŃØ¨":875,"ĠØ¨ÙĬÙĨ":876,"Ø¯Ùĩ":877,"ĠØ§Ø³Øª":878,"Ø§ÙģÙĬ":879,"ĠØ§ÙĦÙħØ´":880,"ĠØªØ§Ø¹Ùĥ":881,"ØªØ¨":882,"ÙģØ¶ÙĦ":883,"Ø§ØµØ©":884,"Ø¬Ø§ØŃ":885,"ĠÙĨÙĤÙĪÙĦ":886,"Ø®ÙĪÙĬØ§":887,"ØŃØ¨Ø§":888,"ØºÙĬØ±":889,"er":890,"ĠØ§ÙĦØ®ÙĬØ±":891,"ÙĥØ±Ø©":892,"ĠØ§Ø¯":893,"ĠØ±Ø§ÙĨØ§":894,"ĠÙĬØ¹Ø·ÙĬÙĥ":895,"Ø±Ùī":896,"is":897,"Ġs":898,"ĠÙĪØ³ÙĦÙħ":899,"ÙĬÙģ":900,"Ø§ÙĬÙĥ":901,"ĠØ£ÙĨØ§":902,"ĠØªØµ":903,"Ø¬Ø¹":904,"Ø´Ø§Ùħ":905,"ĠÙĬØ³Øª":906,"ĠØ§ÙĦØ¹Ø¸ÙĬÙħ":907,"ĠØ±Ø§Ø¦Ø¹":908,"ĠÙĤÙĦØª":909,"Ø§Øº":910,"ĠÙĨØ®":911,"ĠØ§ÙĦÙħØ¹":912,"ĠÙĦØ§ÙĨ":913,"ĠØ§ÙģØ¶ÙĦ":914,"ĠÙĨØªØ§Ø¹":915,"ÙĨÙĪ":916,"Ø§ÙĪØ¯":917,"ĠÙĪØ£":918,"Ġa":919,"ÙĦÙĩÙħ":920,"ĠÙĬØªÙģØ±Ø¬":921,"ĠÙħØ³ÙĦØ³ÙĦ":922,"ĠØ§ÙĦØŃÙħØ¯":923,"Ø±ÙĬØ¨":924,"ĠØ§Ø´":925,"ĠÙħØ§Ø´Ø§Ø¡":926,"ĠÙĨØ¨":927,"ĠÙħØ±Ø©":928,"ÙĦÙĪØ¯":929,"ØªÙĨØ§":930,"ĠÙĥØ§ÙĨØª":931,"ĠÙħØ§ÙĬ":932,"ĠØ£ÙĪ":933,"ĠÙħØ¬":934,"Ġv":935,"ĠÙĦÙĤ":936,"ĠØ¥ÙĦÙī":937,"Ø¨Ø·":938,"ĠØ¬Ø¯ÙĬ":939,"Ø±ÙĪØ³":940,"ĠØ§Ø°":941,"Ġf":942,"ÙħÙĥÙĨ":943,"Ø¹Ø±Ùģ":944,"Ø¹ÙĪ":945,"Ø±ÙĬÙĥØ§":946,"ĠÙĩÙĥ":947,"ĠØ£Ø®ÙĬ":948,"ĠÙĦØŃ":949,"ĠØ¬Ø¯Ø§":950,"ÙħØ«ÙĦ":951,"Ø±ÙĬÙħ":952,"ĠÙħÙĦÙĬØŃ":953,"ØºÙĦ":954,"ĠØªÙĤÙĪÙĦ":955,"ĠØ¨Ùĩ":956,"ĠØ§ÙĦØªÙĬ":957,"ĠÙĦÙĬÙĥ":958,"Ø²ÙĤ":959,"ĠÙĬØŃÙģØ¶":960,"ÙĨØ§ÙĨ":961,"ĠÙĥÙĪÙĨ":962,"ĠØªÙģ":963,"ÙĬØŃ":964,"ĠØ§ÙĦÙĩ":965,"ĠÙħÙĪ":966,"Ø±Ø¯":967,"ĠØ¹Ø§Ùħ":968,"ØªÙħ":969,"Ø±Ø§Ùħ":970,"Ġb":971,"Ø±Ø§Ø¡":972,"ĠØ¨ÙĬÙĥ":973,"ĠÙĪÙĥ":974,"ĠØ±ÙĪØ¹Ø©":975,"ĠØ§ÙĦØ§ÙĨ":976,"ĠØ¨ÙĦØ§":977,"ĠØ§Øµ":978,"ĠØ®Ø§ÙĪ":979,"ĠØ§ÙĦÙħØŃ":980,"ĠØ¹ÙĦÙĬÙĩØ§":981,"ÙĤÙĦ":982,"Ø«ÙĬØ±":983,"ar":984,"Ø¨ØŃØ§ÙĨ":985,"ĠØ£Ùħ":986,"ÙĪÙĬÙĦØŃ":987,"Ø§Ø¹Ø©":988,"ĠÙĪØ±Ø¨ÙĬ":989,"Ø§Ø´ÙĬ":990,"ĠØ¨ÙĦØ§Ø¯ÙĨØ§":991,"ĠØ³Ø¨ØŃØ§ÙĨ":992,"ĠØŃÙĨØ§":993,"ØŃØ´":994,"ÙĪØ²":995,"ĠÙģÙĦ":996,"ĠØ§ÙĦØ¹Ø§Ø´Ø±":997,"Ø·Ø©":998,"ĠØŃØ¨ÙĬ":999,"ĠØµÙĦ":1000,"ĠØ§ÙĦÙĦ":1001,"ĠØ´ÙĥÙĪÙĨ":1002,"ĠÙħÙĥØ§ÙĨ":1003,"ĠØ§ÙĦØ§Ø®":1004,"qu":1005,"Ø§ÙĬØ§":1006,"Ø²Ø§ÙĬØ±":1007,"Ø±ÙĬØ©":1008,"ÙĩØ¯Ø±":1009,"ĠÙĬØŃØ¨":1010,"ĠØªÙĥ":1011,"ĠØ³Ùħ":1012,"ĠØ®Ø·":1013,"Ø§ÙĦØ©":1014,"ĠØ§Ø³Ùħ":1015,"ĠÙħÙĦ":1016,"ĠÙĤÙĦ":1017,"ĠÙĥÙĬÙģØ§Ø´":1018,"ĠÙĬØ§Ø®":1019,"ÙĦØ§ÙĤ":1020,"ĠØ§ÙĦÙĦÙĩÙħ":1021,"ĠØ¹ÙĦÙĬÙĨØ§":1022,"ĠØ³ÙĦØ³ÙĦ":1023,"ÙĦÙĬÙĨ":1024,"ÙĪÙĬØ©":1025,"Ø±Ø§ÙĩÙħ":1026,"ĠØ§ÙĪÙĦ":1027,"ÙĪÙĩØ§":1028,"ĠÙĥÙħØ§":1029,"ĠÙĬØ·":1030,"ĠÙĨØ³Øª":1031,"ĠÙħØ§Ùĥ":1032,"ĠÙħÙĦÙĬÙĪÙĨ":1033,"ĠÙĪÙĤ":1034,"Ø§Ø³Ùħ":1035,"ĠÙĥØ¨ÙĬØ±":1036,"ÙĤÙĬÙĤØ©":1037,"ĠØ³ÙĦØ³ÙĦØ©":1038,"ĠØ³ÙĬØ¯":1039,"ÙĪÙĦØ©":1040,"ĠØ¹ÙħÙĬ":1041,"Ø²ÙĬØ²":1042,"Ø±ÙĪØª":1043,"Ø§ÙĦØ¨":1044,"ĠØ§ÙĦØ°ÙĬ":1045,"Ø³Ø·":1046,"ĠØŃÙĦÙĤØ©":1047,"ĠØªØŃÙĬØ©":1048,"Ø¬Ø²Ø§Ø¦":1049,"ĠØ¹ÙĨØ¯ÙĨØ§":1050,"ĠØ§ÙĦÙĨÙĪØ±ÙĬ":1051,"ÙĥÙĪ":1052,"ĠØ§ÙĦØ§Ùħ":1053,"ĠÙħØ³Øª":1054,"ĠØ§ÙĨØ³Ø§ÙĨ":1055,"Ø·ÙĬÙĥÙħ":1056,"ĠÙħØ®":1057,"ĠÙĪÙĤØª":1058,"ĠÙĨØµ":1059,"ØºÙĬ":1060,"ĠÙĤØ¯":1061,"Ø´Ø±":1062,"ĠÙĤØ§Ø¹":1063,"ĠØ§ÙĦÙĬÙĪÙħ":1064,"ÙħØ§Ø´":1065,"ÙģØ©":1066,"ÙĬÙĨØ©":1067,"Ø§ÙĦÙĩ":1068,"ÙħØ³":1069,"ÙĦÙĪÙħØ§Øª":1070,"Ø¯Ùĥ":1071,"ĠØ§ÙĦØ¬ÙĨØ©":1072,"Ø³ÙĦÙħÙĬÙĨ":1073,"ĠÙĦØ¨":1074,"Ø®ÙĬØ±":1075,"ĠÙĥÙĪÙħ":1076,"Ø¹ÙĬ":1077,"ĠÙģÙĤØ·":1078,"ĠÙĨÙĪØ±ÙĬ":1079,"ĠØªØ´ÙĪÙģ":1080,"ĠØ§Ø°Ø§":1081,"re":1082,"ÙĨÙĬØ©":1083,"ĠÙħÙĥ":1084,"ĠÙĦÙĦÙħ":1085,"ØµØ©":1086,"ÙĦÙĪØ§":1087,"ĠØ§ØŃØ³ÙĨ":1088,"Ø§ÙĪÙĨ":1089,"ĠØµÙĪÙĬÙĦØŃ":1090,"ÙĦÙĬÙĤ":1091,"ĠÙĩØ°Ø§Ùĥ":1092,"ĠÙĬØ´ÙģÙĬ":1093,"ĠØ§ÙĦØŃÙĦÙĤØ©":1094,"Ø±ØŃ":1095,"Ø¨Ø©":1096,"ĠÙĬÙĩ":1097,"ĠØ§ÙĦÙħÙĨ":1098,"Ø¬Ø¨ØªÙĨÙĬ":1099,"Ø¯ÙĬÙĥ":1100,"Ø±Ø¨Ø©":1101,"ĠÙģÙĪ":1102,"ĠÙĩØ´Ø§Ùħ":1103,"Ø±Ùĩ":1104,"ĠÙĨØ¬":1105,"ØºÙģØ±":1106,"ĠÙĨÙĪØ±":1107,"ĠØªØ¹Ø±Ùģ":1108,"Ø¯ÙĤ":1109,"ĠØµØ§ØŃ":1110,"ĠÙħØ§ÙĨ":1111,"ĠØ±Ø³":1112,"ĠØŃØ§Ø¨":1113,"ĠØ´ÙģØª":1114,"ĠØ²Ø¹":1115,"Ø¹ÙĦÙħ":1116,"ĠÙħØº":1117,"ĠØ´ÙĬØ¡":1118,"ĠØ§ÙĨØ´Ø§Ø¡":1119,"ÛĮ":1120,"ĠÙħÙĤ":1121,"ÙĦÙĬØ©":1122,"ÙĬÙĪ":1123,"Ø§ÙĥÙĦ":1124,"Ø±Ø§Ùĥ":1125,"ÙħØ§Ø´Ø§Ø¡":1126,"ĠØ¨Ø§Ø¨":1127,"ĠØ§ÙĦØ³ÙĬ":1128,"ĠØ¯Ø±":1129,"ĠØ¥ÙĦØ§":1130,"Ø§ØªÙĬ":1131,"ÙĨÙī":1132,"ĠØ¨Ø§ÙĦÙĦÙĩ":1133,"ĠÙĬØ´ÙĪÙģ":1134,"ĠÙĤØª":1135,"ÙħÙĩ":1136,"ĠÙĪÙĦÙĥ":1137,"ĠØ¨Ø§ÙĦØªÙĪÙģÙĬÙĤ":1138,"Ø§ÙĪÙĦ":1139,"ĠØŃÙĤ":1140,"Ø¨Øª":1141,"ØªØ±ÙĪØ³":1142,"ØŃÙĤ":1143,"ĠÙĪØ§ØµÙĦ":1144,"Ø¯Ø®ÙĦ":1145,"ÙĦÙĬÙĩ":1146,"ĠØµÙĦÙī":1147,"ĠÙĪØµ":1148,"ØªØ§Ø¬":1149,"ĠÙĪØ§ÙĨØ§":1150,"Ø§ÙģØ¶ÙĦ":1151,"ĠØ´Ø¨Ø§Ø¨":1152,"ĠØ´Ø®Øµ":1153,"ĠØ§ÙĦÙĪÙĤØª":1154,"Ø§Ø«":1155,"ĠØ´ØŃØ§ÙĦ":1156,"ÙģÙĪ":1157,"ĠØ±Ø§ÙĬ":1158,"ÙħÙĪØª":1159,"ĠØ´ÙĪÙģ":1160,"ĠØ£Ùĥ":1161,"ĠØ§ÙĦÙħØºØ±Ø¨":1162,"Ø¬ÙĦ":1163,"ØªÙĪØ¨":1164,"ÙĪØ±Ø©":1165,"Ø§Ø·ÙĦ":1166,"ĠØ§ÙĦÙħØ³":1167,"Ġqu":1168,"ĠÙĨØ¹Ø±Ùģ":1169,"ĠÙĩØ¯":1170,"ĠØ£ØŃ":1171,"ĠØ§ÙĦÙħÙĪ":1172,"Ø§Ø°Ø§":1173,"Ø³Ø©":1174,"ÙĨÙĬØ§":1175,"ĠØ±Ø§":1176,"ĠÙĥÙħÙĦ":1177,"ĠÙĬØŃÙģØ¸ÙĥÙħ":1178,"Ø¬Ø§Ø¨":1179,"ra":1180,"Ø§ÙĬØ´":1181,"ÙĥØ±Ùĩ":1182,"ĠÙħØ²Ø§ÙĦ":1183,"ĠÙĦÙĥÙħ":1184,"Ø§ÙħÙĬ":1185,"ĠØ£ÙĬ":1186,"ĠÙĦÙĨ":1187,"Ø¨Ø§ÙĦ":1188,"ĠÙĪÙħÙĨ":1189,"ĠÙģÙĩÙħ":1190,"ĠØ£ÙĨØª":1191,"est":1192,"ÙħØ¬":1193,"ĠØ¬Ø²":1194,"Ø§ÙģÙĪ":1195,"ØµÙĪ":1196,"ĠØ´Ø§Ø¨Ø©":1197,"ĠÙĩØ°ÙĬ":1198,"ÙĪÙĨØ³":1199,"ĠØ§ÙĥØ«Ø±":1200,"ĠØ§ÙĦØ¨ÙĦØ§Ø¯":1201,"ØªØ±Ùĥ":1202,"ÙĦÙħØ©":1203,"ĠØŃØ³":1204,"ĠÙħØ§ÙĦ":1205,"Ø§ÙħØ©":1206,"ĠØ¨Ø´":1207,"ĠÙĬÙĪ":1208,"ĠØ±Ø§ÙĩÙħ":1209,"ĠØ§ÙĦØ¹Ø§ÙĦÙħÙĬÙĨ":1210,"ĠÙĬØ±ØŃÙħÙĥ":1211,"ĠØ³ÙĨ":1212,"ĠÙħØ±ØŃØ¨Ø§":1213,"ĠØ§ÙĦÙĤØ±":1214,"Ġj":1215,"Ø¯ÙĬØ©":1216,"Ø¬ÙĪØ§Ø¯":1217,"ĠÙĩØ§ÙĬ":1218,"ĠÙĬØµ":1219,"ĠØ§ÙĨÙĬ":1220,"ĠØªÙĤØ¯Ø±":1221,"Ø¶Ø±":1222,"ĠÙĪØ§ÙĨ":1223,"ĠØ¹Ø¨Ø¯":1224,"ÙĦÙĬØ´":1225,"Ø§ÙĩØ¯":1226,"ÙĬØ·":1227,"ĠØ¯Ø®ÙĦ":1228,"ĠÙĪØ§ÙĦÙħ":1229,"ĠØ²ÙĪØ¬":1230,"ĠØ§ÙĦØ§Ø³":1231,"ÙĦÙĬÙĦ":1232,"ĠÙĪÙĦØ¯":1233,"ĠÙĦØ£ÙĨ":1234,"ĠØ¹ÙĦØ§Ùĩ":1235,"as":1236,"ĠÙĬÙĥ":1237,"ĠÚ¨":1238,"Ø²ÙĪØ¬":1239,"ĠØ±ØŃ":1240,"ĠÙħØ§Ø²":1241,"ÙĪÙĦÙĨØ§":1242,"Ø¬Ø²Ø§Ø¦Ø±":1243,"ĠØ¨Ø¹Ø¶":1244,"ĠØ³ÙĬØ¯ÙĨØ§":1245,"ÙĦÙĬÙĥ":1246,"ĠÙĪØ®":1247,"ĠØ¯Ø±Øª":1248,"al":1249,"ĠØªØ±ÙĪØŃ":1250,"ĠØªØŃØ¨":1251,"ĠÙĥÙħ":1252,"ĠØ¹ÙĦØ§Ø´":1253,"Ø§ÙģØ©":1254,"ÙĦÙĪÙĤ":1255,"ĠÙħØ¯":1256,"ĠÙĪÙģ":1257,"ĠÙĦÙĬØ³":1258,"ĠÙħØ¨":1259,"ØŃÙĬ":1260,"ĠÙģÙĪØ±":1261,"il":1262,"ĠØ¬ÙħÙĬØ¹":1263,"ÙħØ¯":1264,"Ø¬Ø©":1265,"Ø§ØªÙĩ":1266,"ĠØ§ÙĦØ¹Ø§Ùħ":1267,"Ø¨ØµØŃ":1268,"Ø§Ø§Ùģ":1269,"Ø´ÙĥØ±Ø§":1270,"ĠØ¯ÙĤÙĬÙĪØ³":1271,"ĠØ§ÙĦØ´Ø¹Ø¨":1272,"ÙħÙĬÙĨ":1273,"ĠÙĦØ§ÙĬÙĥ":1274,"ĠØ£Ø¬":1275,"ĠØ§ÙĦÙħØ³ÙĦØ³ÙĦ":1276,"ĠÙĥÙĦØ´":1277,"ĠØ¹Ø´":1278,"ĠÙĬØ¹Ø±Ùģ":1279,"ĠÙĨÙĩØ§Ø±":1280,"Ø§Ø³ÙĬ":1281,"ĠØªÙĦÙĤ":1282,"ĠÙħØ«ÙĦ":1283,"ĠØ´Ùģ":1284,"Ø§ÙĥÙĨ":1285,"ĠÙĪÙĦÙĥÙĨ":1286,"ÙĪØ§ÙĨ":1287,"ĠØŃÙĬ":1288,"ÙĪÙĥØ§ÙĨ":1289,"ĠØŃÙĬØ§Øª":1290,"ØºØ©":1291,"ĠÙĪÙĦØ§ÙĬØ©":1292,"ĠØ§ÙĦÙħØ¬":1293,"Ø±ÙĪØ§":1294,"ĠÙĪÙģÙĬ":1295,"ĠÙĪÙĦØ§Ø¯":1296,"ÙĤØ¯Ùħ":1297,"ĠÙĨØ±ÙĪØŃ":1298,"ØªÙĥÙħ":1299,"Ø³Ø±":1300,"ĠÙģÙĬÙĥÙħ":1301,"it":1302,"ØŃØ§ÙĨ":1303,"ÙģØ¹":1304,"ĠØ®Ø¯Ùħ":1305,"ĠÙĬØ±ØŃÙħÙĪ":1306,"ĠØŃØ§Ø¬Ùĩ":1307,"ĠØ¨Ø§Ùĩ":1308,"ĠÙĬØŃÙģØ¶Ùĥ":1309,"ĠÙĪØµØŃ":1310,"Ø±Ø¬Ø¹":1311,"ĠØ¨ÙĦØ¯":1312,"ĠØºÙĬ":1313,"ĠØ§ÙĤ":1314,"ĠØ®Ø§ÙĪØªÙĬ":1315,"ÙģØ¸":1316,"Ø¨ÙĬØ¹":1317,"ĠØ¹Ø§ÙĬØ´":1318,"Ø±ÙĪØ¹":1319,"Ø¹Ø±":1320,"ÙĪØ§ÙĦ":1321,"ĠÙĬØ±":1322,"ÙĪØ§Ø±":1323,"ĠÙĤØ±":1324,"ĠØ§ÙĦÙħØ³ÙĦÙħÙĬÙĨ":1325,"ĠÙĪÙĥÙĦ":1326,"ĠÙĤÙĦØ¨ÙĬ":1327,"ÙħØªØ¹":1328,"ĠØ®Ø±Ø¬":1329,"ÙĦØ§ÙĦ":1330,"ĠØ±ÙĪØŃÙĥ":1331,"ĠØ§ØŃÙĨØ§":1332,"ĠØ¬Ø§":1333,"ÙĬØ¯ÙĬ":1334,"ĠØ¨ÙĩØ§":1335,"ĠØªØ³ØªØ§ÙĩÙĦ":1336,"ĠÙĦÙĪÙĥØ§ÙĨ":1337,"Ġde":1338,"Ġe":1339,"Ø¨Ùĥ":1340,"ĠØ¨Ø²Ø§Ø§Ùģ":1341,"ĠØ®Ø§Ø·":1342,"ØªØ¹":1343,"ĠØªØŃÙĬØ§ØªÙĬ":1344,"ĠØ±Ø§ÙĩÙĬ":1345,"ĠÙħØ§Ø±":1346,"ĠØ§ÙĦÙĨØ¬Ø§ØŃ":1347,"ĠØ³ÙĨØ©":1348,"ĠÙĩØ¯Ø§":1349,"ĠØ§ÙĨÙĩ":1350,"Ø²ÙĪØ±":1351,"ĠÙĤØ§Ø¯Ø©":1352,"ĠÙĪØ¹ÙĦÙī":1353,"ÙĤØ¨ÙĦ":1354,"ĠØ§ÙħØ±ÙĬÙĥØ§":1355,"ÙĪØ§Øª":1356,"ÙĪØ¯Ø©":1357,"ĠÙħÙĨÙĩØ§":1358,"ĠÙĥØ«ÙĬØ±":1359,"Ø¢ÙĨ":1360,"ĠØ§ÙĦØ¨Ø±":1361,"ĠØ¹Ø¯":1362,"ĠÙĩÙħ":1363,"ÙĩÙĬ":1364,"ĠØ®ÙĦØ§Øµ":1365,"ĠØ±Ø§ÙĥÙħ":1366,"ÙģØ±ØŃ":1367,"ĠÙĩÙĨØ§Ùĥ":1368,"ĠÙĪØ³":1369,"Ø§ÙĩØ§":1370,"ĠØ§ÙĦØ¬Ø²Ø§Ø¦Ø±ÙĬØ©":1371,"Ø§Ø±ÙĬØ®":1372,"ĠØ¹Ø±Ùģ":1373,"ĠÙĪØ²":1374,"om":1375,"Ø±Ø´":1376,"ØªÙĩÙħ":1377,"ĠØ®Ø¯":1378,"ĠØ´ÙĪÙĬ":1379,"Ø±Ø§ÙĨ":1380,"Ø¬Ø²":1381,"Ø§ÙĦØ³ÙĦØ§Ùħ":1382,"ĠØ¯Ø±Ø§ÙĩÙħ":1383,"Ø°Ùĩ":1384,"Ø§ÙĦØ¹":1385,"ĠÙĤÙĦØ¨":1386,"Ø¥ÙĨ":1387,"ĠØ±Ø§ÙĩÙĪ":1388,"ĠÙħØ§Ø¹":1389,"ĠÙģØ·ÙĪØ±":1390,"ĠÙĪØ§ÙĨØª":1391,"ĠØ¬Ø§ÙĬ":1392,"Ø§ÙģÙĬÙĩ":1393,"ÙħØ«ÙĬÙĦ":1394,"ĠØ®Ø§ØµØ©":1395,"ÙĢÙĢ":1396,"ĠÙĬØ¬ÙĬ":1397,"Ø£Ø³":1398,"ĠÙħØ«ÙĦØ§":1399,"ĠØ¹ÙĨØ¯ÙĩÙħ":1400,"ĠÙģÙĬÙĩÙħ":1401,"ĠØ§ÙĨÙĥ":1402,"ĠØ·ÙĬØ¨":1403,"at":1404,"ÙĬØ³":1405,"ĠØ¨ØŃ":1406,"ĠØ§Ø¨ÙĪÙĨÙĬ":1407,"ĠÙĩÙĦ":1408,"Ø²Ø§ÙĨ":1409,"ĠØªØ§ÙĨÙĬ":1410,"ĠÙĨØªÙĪ":1411,"ĠÙĬØ¹Ø·ÙĬÙĥÙħ":1412,"Ø±ÙĬÙĨ":1413,"Ø±Ø§ÙĨÙĬ":1414,"ÙĩØ§ØªÙĥ":1415,"ĠØ§ÙĦÙħÙĩÙħ":1416,"ĠÙħØ´ÙĬ":1417,"Ø¯Ø¹":1418,"ĠÙħÙĬÙĦÙĪØ¯":1419,"ĠÙĬÙģ":1420,"Ø±ÙĬÙĤØ©":1421,"ØªØŃÙĬØ©":1422,"ÙĨØ¯ÙĬ":1423,"ĠØªØŃÙĬØ§":1424,"ĠÙħØµ":1425,"ÙĩØ°Ø§":1426,"Ø·ÙĪ":1427,"ĠØ³ÙĦÙħ":1428,"ÙĪØªÙĬÙĪØ¨":1429,"ĠØ¬Ø¯ÙĬØ¯":1430,"ÙĨØ§ÙħØ¬":1431,"ĠØ¹ÙĦØ§":1432,"ĠÙĪØŃØ¯":1433,"ĠØ¹ÙĤ":1434,"ĠØ§ÙĦØŃÙĤ":1435,"ÙĨØ³Ø§":1436,"ĠØ§Ùĩ":1437,"ÙĨØ§Ø³":1438,"ĠØ¹ÙĨØ¯Ùĩ":1439,"Ø§Ø²ÙĬ":1440,"ÙĥÙħÙĦ":1441,"Ø¨ÙĬÙĦ":1442,"ĠØ´ØºÙĦ":1443,"Ø£ÙĨØ§":1444,"ĠØªÙĩ":1445,"ĠØ²ÙĬ":1446,"ĠØ§ÙĦØ¨ÙĦ":1447,"ĠØ¹ÙĦÙĬÙĩÙħ":1448,"Ø¯ÙĬÙħ":1449,"ĠØ¹ÙĬÙĨ":1450,"Ø¯ÙĬÙĨØ©":1451,"Ø¨ÙĪ":1452,"Ø¶Ø§":1453,"ĠÙħØ§Ø¯":1454,"un":1455,"Ø±ÙĪÙģ":1456,"ĠØ§ÙĦØ´ÙĬ":1457,"ÙĨØ¹":1458,"Ġla":1459,"ĠØ¨ÙĬÙĩ":1460,"ĠÙĦØ£":1461,"ĠØŃÙħ":1462,"ĠØªØ®Ø¯Ùħ":1463,"ĠØ±Ø³ÙĪÙĦ":1464,"ĠÙĬÙħ":1465,"ĠØ¹ÙĬØ¯":1466,"ÙģÙĦ":1467,"ĠÙħÙĩ":1468,"ØŃÙĬØ¯":1469,"ĠØªØ±":1470,"ĠØªØ§Ø¹ÙĬ":1471,"ĠÙĦØª":1472,"ĠØ§ÙĦÙĤÙħØ©":1473,"ÙĥØ³":1474,"ĠØ§ÙĦÙħØŃØªÙĪÙī":1475,"Ø§ÙĥÙħ":1476,"ĠĠĠ":1477,"ĠØ¹ÙĨØ¯ÙĪ":1478,"ĠÙĦÙĨØ§":1479,"ĠÙĥØ§Ø´":1480,"ĠÙĩÙĥØ°Ø§":1481,"ĠØ®ÙĦÙĬ":1482,"ĠÙģØ¶":1483,"ĠØ¨Ø§ÙĦØ¹":1484,"ĠÙħØªØ§Ø¨Ø¹":1485,"Ø§Ø±Ø¬":1486,"ĠØ´ÙĪÙĬØ©":1487,"ĠØ±ÙĪØŃÙĬ":1488,"ĠØ§ÙĦØ¬Ø²Ø¡":1489,"ĠÙĪÙħØ§":1490,"ÙĬØ±Ø§":1491,"ĠØ£ÙģØ¶ÙĦ":1492,"ĠØŃØ¨ÙĬØª":1493,"ĠØ´Ø¹Ø¨":1494,"Ø§Ø¨ÙĬ":1495,"Ø§ÙĦÙĪ":1496,"ĠØ¬ÙĬØª":1497,"ĠØ¨Ø·":1498,"ĠÙĥØª":1499,"ÙĪÙĦÙĪ":1500,"ĠÙĩØ§Ø°ÙĬ":1501,"ĠÙģÙĪÙĪØ±":1502,"ĠÙĪÙĦÙĬØ¯":1503,"ĠÙĪÙĬØ±":1504,"ĠØ¬Ø¯":1505,"ÙĪØ§ÙĤ":1506,"ĠØ§ÙĦØªØ¹":1507,"Ø±Ø§Øª":1508,"ĠØŃØ§ÙĦ":1509,"ĠÙĬØ®Ø¯Ùħ":1510,"Ġn":1511,"ĠØ§ÙĦÙģÙĬ":1512,"ing":1513,"ÙĪØ¶":1514,"ĠÙĥØ¨ÙĬØ±Ø©":1515,"ĠØ¨Ø§ÙĦØ¶ØŃÙĥ":1516,"Ø±Ø³":1517,"ÙĦÙĦÙĩ":1518,"ĠÙĪÙĩÙĪ":1519,"Ã©":1520,"Ø¹ÙĬØ¯":1521,"ĠØ¨Ø¬":1522,"ent":1523,"ĠÙĨÙĪØ±ÙħØ§ÙĦ":1524,"Ø§Ø¦ÙĬ":1525,"ĠØ´Ø§Ø¨":1526,"Ø§ÙħØ§":1527,"Ø§Ø¦ÙħØ§":1528,"ĠØ¬ÙĬ":1529,"ĠØ³Øª":1530,"ĠÙħØ´Ø§Ø¡":1531,"ÙĪÙĥÙħ":1532,"ĠÙħÙħÙĥÙĨ":1533,"ÙĤØ±":1534,"Ø²Ø§":1535,"and":1536,"ÙĬØ±ÙĬ":1537,"Ø·ÙĨ":1538,"ĠØ´ÙĩØ±":1539,"ÙĦØ¹Ø¨":1540,"ĠÙĤÙĪØ©":1541,"ĠÙħÙĪÙĦ":1542,"Ø¬ØŃ":1543,"ha":1544,"Ø¯Ø§Ø±":1545,"ĠØ¹ÙħÙĦ":1546,"ĠØ§ÙĦØ§ÙĪÙĦ":1547,"ĠØ§ÙĦØ¨ÙĬ":1548,"ÙĤÙĩ":1549,"ĠØªØ¬ÙĬ":1550,"ĠØ£Ø¹":1551,"ĠÙĥÙĨ":1552,"ÙĪØ§ØŃ":1553,"ĠÙĨÙģ":1554,"ĠØªØ¹ÙĬØ´":1555,"ĠÙĩØ§Ø¯ÙĬ":1556,"Ø¨ÙĬØ©":1557,"ĠØ¬ÙĨ":1558,"our":1559,"le":1560,"ĠÙĦÙĩØ§":1561,"ĠØ±ÙĬ":1562,"ĠØ¯ÙĬÙĨ":1563,"Ø§Ø¬Ø©":1564,"ĠØ§ÙĦÙĥØ±ÙĬÙħ":1565,"Ġg":1566,"ÙĩÙĪ":1567,"Ø±ÙĪÙĥ":1568,"ĠÙĨØ®Ø¯Ùħ":1569,"Ø§ÙĨÙĬØ©":1570,"ĠØ¯Ø§ÙĬØ±":1571,"ĠØ²ÙĪ":1572,"ĠØ§ÙĦÙģØ±":1573,"Ø§Ø¦ÙĦ":1574,"ĠØ³Ø¨":1575,"ĠØ§ÙĦÙħØª":1576,"Ø§Ø¬ÙĦ":1577,"ĠØ§ÙĩÙĦ":1578,"ÙĨØ§Ø©":1579,"ÙĪØ¯Ùĥ":1580,"ĠÙĤØ±ÙĬØ¨":1581,"ĠØ¯ÙĪÙĨ":1582,"ĠØ¹Ø¬Ø¨ØªÙĨÙĬ":1583,"or":1584,"ĠØ¨Ø¯ÙĪÙĨ":1585,"ĠØ¹Ø¨":1586,"Ø³ÙĬÙĤÙī":1587,"ĠØ¨Ø§ÙĬÙĨ":1588,"ĠÙĬØ§Ø®ÙĪÙĬØ§":1589,"ĠØ¸":1590,"ĠØªØ¹ÙĦÙħ":1591,"ĠØ¨ÙĪ":1592,"ĠØªØ·":1593,"Ø¬Ø±":1594,"ĠÙĥÙĦØ§Ùħ":1595,"Ø±Ø§Ùĩ":1596,"ĠØ¨Ø§ÙĦÙĥ":1597,"Ø®ÙĦØµ":1598,"ĠÙĤÙĨØ§Ø©":1599,"ÙĬØ¹Ø·ÙĬÙĥ":1600,"ĠØ§ÙĦØ³ÙĦ":1601,"ĠØ§Øº":1602,"ĠÙĤÙħØ©":1603,"ĠØ·Ø±ÙĬÙĤ":1604,"ĠÙĪÙĨØª":1605,"ĠÙĦÙħØ§":1606,"ĠØªÙĪØŃØ´":1607,"ĠÙĪØ§ØŃ":1608,"ÙħÙĬÙĦÙĪØ¯":1609,"ĠØ§ÙĦØ§Ø±":1610,"ĠØ§ÙĦØ¶":1611,"ĠØªØ±Ùĥ":1612,"Ø¯ÙĬØ¯":1613,"Ø§Ø¬ÙĬ":1614,"ÙĤÙĬØª":1615,"ÙĪØ¬Ø¯":1616,"ĠÙĦØ§Ø¨":1617,"ÙĦØŃÙĤ":1618,"ĠØ´Ø§Ùģ":1619,"ĠØ²ÙĬØ¯":1620,"Ø³Ø¨ØŃØ§ÙĨ":1621,"ÙĨØ§Ø´":1622,"ĠÙħØ§Ø²Ø§ÙĦ":1623,"ÙħÙĨØ§":1624,"Ø²Ø©":1625,"ĠØ¨Ø³ÙĥØ±Ø©":1626,"ÙĪÙĦÙĩ":1627,"ĠØ§ÙĦØ¹Ø±Ø¨ÙĬØ©":1628,"ĠØ§ÙĦØ¹ØªØ±ÙĪØ³":1629,"ĠØ§ÙĦØŃÙĬ":1630,"ĠÙĪÙĬØ¹":1631,"ĠØ¨Ø±Ø§ÙģÙĪ":1632,"ĠØµØ§ÙĨ":1633,"Ø³ÙĦØ³ÙĦØ©":1634,"Ø¨Ø¯Ø¹":1635,"Ø³Ùĥ":1636,"ĠÙħÙĨÙĥ":1637,"ĠØŃÙĥ":1638,"Ø±ÙĬØ¯":1639,"ĠØ¯Ø¹":1640,"ÙħÙĬØ¹":1641,"ĠØ·ÙĪÙĦ":1642,"Ø¬ÙĦÙĬ":1643,"ĠÙĨØ¸":1644,"ĠÙħØ¹Ùĥ":1645,"ĠØ¨Ø§ÙĦÙĨ":1646,"Ø¬ÙħØ§ÙĦ":1647,"ĠÙĩØ§Ùĥ":1648,"ĠØ§ÙĦÙħØ³Øª":1649,"ĠÙĨØªÙħÙĨÙī":1650,"ØªØ§":1651,"ĠÙĦÙĥÙĦ":1652,"ĠÙģÙĬØ¯ÙĬÙĪÙĩØ§Øª":1653,"ØŃØ±":1654,"ÙĦÙĬÙĪÙĨ":1655,"ĠØ³ÙĪ":1656,"ÙħØ´":1657,"ĠÙĦØ®":1658,"Ø·Ø§ÙĨ":1659,"Ø¨Ø§ØŃ":1660,"ĠØ±Ø§Ø³":1661,"ĠØ¯ÙĪØ±":1662,"ĠØ§ÙĦØ¯ÙĬÙĨ":1663,"ĠØ¨ÙĬÙĩØ§":1664,"ĠÙĦØ¹Ø²ÙĬØ²":1665,"ĠØ¯ÙĬÙħØ§":1666,"Ġcest":1667,"ĠÙħÙĩÙħ":1668,"Ġles":1669,"ĠØ¨ÙĤ":1670,"ĠÙĦÙģ":1671,"ØºÙħ":1672,"Ġque":1673,"ĠØ§ÙĦÙĪØŃÙĬØ¯":1674,"ĠØ§ÙĦØµÙĦ":1675,"Ø§ÙĦØ§":1676,"Ø§Ø±Ùĩ":1677,"ĠØ§ÙĦØ¯ÙĨÙĬØ§":1678,"ĠØ¨ÙĨØª":1679,"ĠÙĪØ§ÙĦØ¹":1680,"ĠÙħÙĨØ§":1681,"Ø¹Ùĩ":1682,"Ø¨ÙĬØ§":1683,"ÙĪÙĦÙĥ":1684,"ĠØ¯Ø§Ø¦ÙħØ§":1685,"ĠÙĤØµ":1686,"Ø°Ø¨":1687,"ĠØ³ÙĦØ§Ùħ":1688,"ĠØªØ¯":1689,"ÙĬØŃØ©":1690,"ØªÙĪØ§":1691,"ĠÙĨØŃÙĨ":1692,"ÙħØ¹ÙĬÙĨ":1693,"ĠØŃØ·":1694,"Ø§ÙĬÙĩ":1695,"ĠØ§ÙĦØ³ÙĦØ§Ùħ":1696,"ĠØ±Ø¬":1697,"ÙĦÙĪØ¨":1698,"Ø³Ø¨Ø©":1699,"ĠØ¬ÙħÙĬÙĦ":1700,"ĠØªÙĬ":1701,"ĠÙĨØ·":1702,"ĠÙĥØ«Ø±":1703,"ÙĤÙħ":1704,"Ø§ÙģÙĬØ©":1705,"ÙĤØµ":1706,"ĠÙĦÙĩÙħ":1707,"Ø±ÙĬÙĥ":1708,"ĠØ·ÙĦØ¹":1709,"Ġk":1710,"Ø®ÙĬ":1711,"ĠØ§ÙĦØ¹ÙħÙĦ":1712,"ĠÙĨØ¯":1713,"ĠÙĤØ§Ø¯":1714,"ĠØ¨Ø§Ø³":1715,"Ø§ÙĦØ«":1716,"ĠÙĪØ¯":1717,"ØŃØ¯":1718,"Ø±Ø¨ØŃ":1719,"ĠØ§ÙĪÙĤ":1720,"ÙĪØ±ÙĪÙĨØ§":1721,"ĠÙĦÙĤÙħØ§ÙĨ":1722,"ĠØ´Ø¹":1723,"ĠÙģØ±ÙĨØ³Ø§":1724,"ĠÙĪØ§Ø¹":1725,"ĠÙħÙģ":1726,"ch":1727,"ĠÙĩÙĥØ§":1728,"ĠØŃØ³ÙĨ":1729,"ion":1730,"ĠÙħÙĪØ±":1731,"ĠØ¨Ø§Ø·ÙĦ":1732,"ĠØ£ÙĥØ«Ø±":1733,"ĠØ¬Ø¹":1734,"Ġfa":1735,"ĠÙģØ·ÙĪØ±ÙĥÙħ":1736,"ÙĪØ¯ÙĥØ§Ø³Øª":1737,"ĠØªÙĪÙĦÙĬ":1738,"ĠØ¹ÙĦÙħ":1739,"ĠØ§ÙĦØŃØ±":1740,"ĠÙĬÙĪÙģÙĤÙĥÙħ":1741,"ÙĨÙĩ":1742,"ÙĪØ§Ø´":1743,"ĠØ¬Ùħ":1744,"ĠØ£Øµ":1745,"ĠØ¨Ø§":1746,"ĠÙĨÙĩ":1747,"ĠØ§ÙĨÙĪ":1748,"ĠÙĪÙĩØ±Ø§ÙĨ":1749,"ĠØ²Ø¹ÙħØ§":1750,"ĠØ¹ÙħØ±":1751,"ĠØ®ÙĪØªÙĬ":1752,"ĠØ§ÙĥØ¨Ø±":1753,"ĠØŃÙĪ":1754,"ĠØ§Ø®Ø±":1755,"Ġun":1756,"ĠØ§ÙĦØ§Ø¹":1757,"ĠØ¨Ø£":1758,"ĠØªÙģØ±Ø¬":1759,"ĠÙĥÙĬÙĨ":1760,"Ø®Ø±Ø¬":1761,"Ø¯ÙĬØª":1762,"Ø§ÙĦÙĬØ©":1763,"ĠÙĨÙĬ":1764,"ĠÙĨÙĥ":1765,"ØµÙĪÙĬØ±":1766,"ÙĥÙĬÙĨ":1767,"ĠØ§ÙĦØ¬Ø²Ø§Ø¦Ø±ÙĬÙĬÙĨ":1768,"wa":1769,"ĠØŃÙĬØ§ØªÙĬ":1770,"ĠØ§ÙĦÙĤÙĦØ¨":1771,"ĠØµØ§ØŃØ¨ÙĬ":1772,"ĠØªØ¨Ø§Ø±Ùĥ":1773,"ĠØ®ÙĦÙĤ":1774,"Ø³ÙĬØª":1775,"ĠÙĥÙĬÙģØ§Ùĩ":1776,"ĠÙĬØ±ÙĪØŃ":1777,"ĠØ¨Ø±ÙĪ":1778,"ĠÙĪØ´ÙĥØ±Ø§":1779,"Ø§ØŃØ³ÙĨ":1780,"ĠÙĪØ§ÙĦØª":1781,"ĠØ§ÙĦØ±Ø¬":1782,"ĠÙģØ¹":1783,"ĠØµØ±":1784,"ĠÙĪØªØŃ":1785,"ĠØ«Ùħ":1786,"ÙĨØ§Ùĥ":1787,"ĠØ¬Ø§Ø¨":1788,"ÙĤØ§ÙĦ":1789,"ĠØ±ØŃÙħ":1790,"ĠØ±Ø¬Ø¹":1791,"ĠØµÙĦÙĬ":1792,"ĠÙĪØ¨Ø§Ø±Ùĥ":1793,"ĠØ¨Øª":1794,"Ø·Ø§Ø±":1795,"ÙĬØ¨Ø©":1796,"ĠØ³ÙħÙĬØ±":1797,"ÙĨØ§Ø¡":1798,"Ø±ÙĬØª":1799,"ĠÙģÙĬØ¯ÙĬÙĪÙĩØ§ØªÙĥ":1800,"ÙĥÙĬÙģ":1801,"ÙĩØ§Ø´":1802,"ĠØ§ÙħÙĬÙĨ":1803,"ÙĪØ§ÙĤØ¹":1804,"ĠØµØ§ÙĨØ¹":1805,"ĠÙħÙĬÙĨ":1806,"ĠØªÙĦÙħ":1807,"ĠØ¯Ø²Ø§ÙĬØ±":1808,"Ø§Ø®ÙĬ":1809,"ĠØ§ÙĦØ¬Ø²Ø§ÙĬØ±":1810,"ĠØ¨ÙĦØ§ØŃØ©":1811,"ĠÙĦØ¨ÙĦØ§Ø¯":1812,"ĠÙĥÙĨØ§":1813,"ĠÙĨØ¹Ùħ":1814,"ĠØ¨Øº":1815,"ĠÙħØ¹Ø§ÙĬØ§":1816,"ÙĦÙĤØ§Øª":1817,"ĠØ«Ø§ÙĨÙĬ":1818,"ĠØ§ÙĦØµÙĦØ§Ø©":1819,"ÙĪØ¨Ø±":1820,"Ø¯Øª":1821,"Ġpas":1822,"Ø·Ø±":1823,"ĠØ¯Ùĥ":1824,"ĠÙħØ´ØªØ±Ùĥ":1825,"Ø§ÙĪÙĬ":1826,"ĠØ§ÙĦØ±Ø³":1827,"ĠØ°ÙĦÙĥ":1828,"el":1829,"ĠÙģÙĪÙĤ":1830,"ĠÙĨÙĪ":1831,"ĠØ¯Ø§ÙĬ":1832,"ro":1833,"ĠÙħØ¨Ø§Ø±Ùĥ":1834,"ĠØªÙĩØ¯Ø±":1835,"Ø§Ø¦Ø¹":1836,"ĠØ§ÙĦØ£Ùħ":1837,"ĠÙħØ±ÙĬ":1838,"ĠØ¨Ø§Ùĥ":1839,"ĠØŃØ³Ø¨":1840,"ĠØ¹ÙĦØ§Ø¨":1841,"em":1842,"ĠÙĥÙĦÙħØ©":1843,"ĠÙĪÙħÙĬÙĦÙĪØ¯":1844,"ĠÙĩØ§":1845,"ĠÙħÙĨÙĩÙħ":1846,"ĠØ§ÙĦØ¹Ø±Ø¨":1847,"ĠØ±Ø§ÙĬØŃ":1848,"ĠÙĥØ«ÙĬØ±Ø§":1849,"ĠØŃØ¯":1850,"ĠÙĪØ·":1851,"ĠÙĬÙĤØ¯Ø±":1852,"ĠØ¨Ø®ÙĬØ±":1853,"Ø¶Ø¹":1854,"Ø§Ø¹Ø¯":1855,"ĠØ¹ÙĦÙĬØ§":1856,"ĠØ§ÙĦÙħØ¹ÙĦÙĪÙħØ§Øª":1857,"Ø§ÙĤØ©":1858,"ĠØ¨ÙĥÙĦ":1859,"Ø£ÙģØ¶ÙĦ":1860,"Ø§ÙĦÙī":1861,"Ø¹Ùĥ":1862,"us":1863,"Ġy":1864,"Ø§ÙĨØ©":1865,"Ø§ÙģÙĬÙĥ":1866,"ÙĪØ±Ùĥ":1867,"im":1868,"ĠÙĦØ¬":1869,"Ø³Ø·ÙĬÙĨ":1870,"ĠØ§ÙĦØ§ÙĪ":1871,"ĠÙģØ§Øª":1872,"Ø®Ø¨ÙĬØ¨":1873,"ĠÙĨØªØ¨Ø¹":1874,"ĠØ§Ø®Ø±Ùī":1875,"ĠÙĦØ¯":1876,"ĠØ£Ø¨":1877,"ĠØ¥ÙĦÙĩ":1878,"ĠÙĦÙĦØ¹":1879,"Ġpar":1880,"Ø¦Ø©":1881,"ĠØ£Ø³":1882,"ĠØ§ÙĦØ±ØŃ":1883,"Ø§Ø±Ø§Øª":1884,"ØªÙĥÙĦÙħ":1885,"Ø¹ÙĦØ§Ùĩ":1886,"ĠÙħÙĦØ§ØŃ":1887,"ÙĦØ§Øª":1888,"ĠØ±Ø§Ø¦Ø¹Ø©":1889,"ĠØ¯ÙĪÙĦ":1890,"ĠÙĪÙĩØ°Ø§":1891,"ĠØ£Ø³Øª":1892,"ĠÙĨØ¹Ø§ÙĪØ¯":1893,"ĠÙĦØº":1894,"ĠÙħÙĦÙĬØŃØ©":1895,"ÙĨØ§Øª":1896,"Ø²ÙĬØ©":1897,"ĠÙĬØ¬ÙĬØ¨":1898,"ÙĨÙĪØ§Øª":1899,"ĠØ§ÙĦØªÙĪÙģÙĬÙĤ":1900,"ĠØ¬ÙħÙĬÙĦØ©":1901,"ĠÙĨØªÙĪÙħØ§":1902,"Ø§ÙĦÙģ":1903,"Ø¹ÙĦÙī":1904,"ĠÙħØ¹ÙĦÙĪÙħØ§Øª":1905,"ĠÙĪÙĦÙĦÙĩ":1906,"ĠÙħØ¯ÙĬÙĨØ©":1907,"ĠÙĪØŃØ¯Ø©":1908,"ÙĩØ©":1909,"ÙĩØ§Ø¯":1910,"ĠÙģÙĨØ§ÙĨ":1911,"Ø°ÙĬ":1912,"ĠØ®ÙĪÙĨØ§":1913,"ĠØ¹ÙĨØ¯ÙĩØ§":1914,"Ø§ØµÙħØ©":1915,"ĠÙģÙĦÙĪ":1916,"ÙħÙĥ":1917,"ÙĦØ§Ø¨":1918,"ĠÙĪØ§":1919,"ĠÙĨÙĤØ¯Ø±":1920,"ĠØµØºÙĬØ±":1921,"Ġle":1922,"Ġma":1923,"Ø·ÙĤØ©":1924,"ĠÙħØ¹Ø§ÙĥÙħ":1925,"ĠÙħÙĥØ§ÙĨØ´":1926,"ĠÙģØ¯ÙĬÙĪ":1927,"ĠØªØ£":1928,"ĠØ¬Ø§Øª":1929,"Ø¶Ø±Ø¨":1930,"ĠØ±ØŃØª":1931,"Ø®ÙĦÙĪ":1932,"ĠÙĤØ§Ø³Ùħ":1933,"ĠØ¨Ø¹ÙĬØ¯":1934,"Ø§ÙģØ±":1935,"ĠÙĩØ§ÙĬÙĦ":1936,"ÙĩØ§ÙĩØ§":1937,"ÙĩÙĪØ¯":1938,"ÙĤØªÙĦ":1939,"Ø°ÙĦÙĥ":1940,"ĠØ¨Ø§ÙĦÙĬ":1941,"ÙĦÙģØ©":1942,"ÙĪØªÙĬÙĪØ¨Ø±":1943,"ĠØ¹Ø·":1944,"ĠÙĬØ®Ø±Ø¬":1945,"ĠØŃÙĬØ§ØªÙĥ":1946,"ĠØ§ÙĦØªÙĪ":1947,"ÙĪÙħØ©":1948,"ĠØªØ¹ÙĦÙĬÙĤ":1949,"ĠØ§ÙĦØ«Ø§ÙĨÙĬ":1950,"Ø§Ø¸":1951,"Ø¨Ø§Ø±":1952,"ĠÙħÙħØ«ÙĦ":1953,"ĠØ¨Ø¥":1954,"ĠØ¹Ø¬Ø¨":1955,"ĠØ³ÙħØ¹":1956,"ĠØ«ÙĤ":1957,"ĠØ§ÙĦØ§ØŃ":1958,"ĠØ§ÙĦØ¹Ø²ÙĬØ²":1959,"Ø§Ø¯Ùħ":1960,"ĠØ³ÙĨÙĬÙĨ":1961,"ĠØ§ÙĪÙĤØ±ÙĪØª":1962,"ĠÙĬØ±ØŃÙħÙĩ":1963,"ĠÙĤØ¨":1964,"ĠØ¥ÙĦÙĬÙĩ":1965,"ĠÙħØ§Ùħ":1966,"ĠÙĨØ´ÙĪÙģÙĪ":1967,"ĠÙĦØ§ÙĬ":1968,"Ø¹ÙĨØ¯":1969,"ĠÙĬØ¶ØŃÙĥ":1970,"ĠØªØ²ÙĬØ¯":1971,"ĠØ§Ø¬ÙħÙĦ":1972,"ĠØ£ÙĩÙĦ":1973,"ĠÙĪÙĬØ¬":1974,"ĠØ§ÙĦØ±ØŃÙħ":1975,"ĠÙĥØ±ÙĬÙħ":1976,"ÙĪÙĨØªØ§Ø¬":1977,"ÙĪØ³Ø¹":1978,"Ú©":1979,"ĠØ§Ø·":1980,"ĠØ¯ÙĬØ±ÙĪ":1981,"ĠÙĥØ±":1982,"Ø¸Ø±":1983,"ĠÙĪÙĬØ´":1984,"ce":1985,"ĠÙĥØ±ÙĬ":1986,"ĠÙĬØ®Ø¨Ø·":1987,"ĠÙģØ¶ÙĦÙĥ":1988,"ĠÙħØ·":1989,"Ø³ÙĪ":1990,"Ø²ÙĬØ±":1991,"ĠØ¨Ø§ÙĦÙĦÙĬ":1992,"ÙĨØ´":1993,"ØªØ§Ø±":1994,"ÙģÙĥ":1995,"Ø§ÙĩÙĬ":1996,"ÙĪÙĬÙĨ":1997,"ĠØªØ®Ø±Ø¬":1998,"Ø²ÙĦ":1999,"Ø¸Ø©":2000,"Ø¹ÙĦØ§Ø´":2001,"ÙħØ±ØŃØ¨Ø§":2002,"ĠÙĥØ§Ùħ":2003,"ĠÙĤÙĪÙĦ":2004,"ØºØ±":2005,"ĠØ§ÙĦØµØŃØ±Ø§Ø¡":2006,"Ø¨Ø¹Ø¯":2007,"ĠÙĨÙħÙĪØª":2008,"ĠÙĩÙħØ§":2009,"ĠØµØŃØ§":2010,"ĠÙĬØ±Ø²ÙĤ":2011,"Ø¨ÙĬÙĨ":2012,"ĠØ´Ø±":2013,"ĠØ¨Ø±ÙĨØ§ÙħØ¬":2014,"ĠØ§ÙĦÙĤÙĬ":2015,"ĠÙĬÙħÙĥÙĨ":2016,"ĠØ§ÙĦÙħØµ":2017,"Ø§ÙĪØªÙĬ":2018,"ĠØ§ÙĦÙģÙĬØ¯ÙĬÙĪÙĩØ§Øª":2019,"Ø¬Ø§Ø¨ÙĬØ©":2020,"Ø¯ÙħÙĪ":2021,"ĠØ¹Ø§Ø¯":2022,"ÙĦÙĪÙħØ©":2023,"ĠÙĪÙĬØ³":2024,"ĠÙĥÙĦÙħ":2025,"ĠØ®Ø³":2026,"ĠØ´ÙĪÙĬÙĩ":2027,"ÙģØ¶":2028,"Ø§ÙĦÙĤ":2029,"Ø§Ø±Ùģ":2030,"ĠØ§ÙĦØºØ±Ø¨":2031,"ĠØªÙĦÙħØ³Ø§ÙĨ":2032,"ØªÙħØ¹":2033,"ĠÙĥÙģ":2034,"ĠØ£ÙĪÙĦ":2035,"Ø¬Ø¯":2036,"ĠØµØ¯ÙĬ":2037,"Ø¤Ø§ÙĦ":2038,"ÙģÙĬØ¯":2039,"hand":2040,"ĠØ´Ø±Ùĥ":2041,"ÙĦÙĥÙħ":2042,"ĠÙĨÙĥÙĪÙĨ":2043,"ĠØ§ÙĦØ¬ÙħÙĬ":2044,"ĠØ§ÙĦØ§Ø¨":2045,"ĠØ´Ùĩ":2046,"ĠØ§ÙĦÙĤÙĨØ§Ø©":2047,"ĠØ¬Ø¯ÙĬØ¯Ø©":2048,"Ø±Ø§ÙĤ":2049,"ĠØ§ÙĦØ·Ø±ÙĬÙĤ":2050,"Ø´Ùģ":2051,"Ø¬Ø§":2052,"ĠÙħÙĤÙĬÙĪØ³":2053,"ØŃÙĦÙĬ":2054,"ĠØ¹Ø§Ø¯ÙĬ":2055,"ĠÙħØ¹Ø§Ùĩ":2056,"ĠØ¨ÙĥØ±ÙĬ":2057,"ÙĬØ§Ø®":2058,"Ø¨Ø®":2059,"ĠØµÙĪ":2060,"ÙħØ«ÙĦÙĬÙĨ":2061,"Ø¬Ùħ":2062,"ĠØ§ÙĦØ£Ø®":2063,"ĠÙĬØº":2064,"ĠÙĩÙĪÙħØ§":2065,"ÙĤØ·Ø¹":2066,"ĠÙģÙĦÙĪÙĤ":2067,"Ø¶ÙĬ":2068,"ĠØ§ÙĦØ¹Ø±Ø¨ÙĬ":2069,"ĠÙħØ´ÙĥÙĦ":2070,"ĠÙĬØ§Ø±":2071,"ĠÙĨØ´Ø§ÙĦÙĦÙĩ":2072,"ĠØ§ÙĦØ§Ø¬":2073,"Ø´Ø¹Ø¨":2074,"Ø§Ø¨ÙĦ":2075,"ĠØ²ÙĪÙħ":2076,"Ø§Ø²ÙĬØº":2077,"ØµÙģ":2078,"ĠØªØ§Ø¹ÙĨØ§":2079,"Ø²ÙĬÙĪÙĨ":2080,"ur":2081,"ĠÙħØ¹ÙĦÙĬØ´":2082,"ĠØ§ÙĦØŃÙĬØ§Ø©":2083,"ĠØ¹Ø¬Ø¨ÙĨÙĬ":2084,"Ø®ÙĦØ§Øµ":2085,"ĠØ§ØŃØªØ±":2086,"ĠÙĪØ¬Ùĩ":2087,"ĠØ¬Ø§ÙħÙĬ":2088,"ÙĤØ³":2089,"ĠÙĨØŃÙĪØ³":2090,"ĠØ¯ÙĪ":2091,"ĠÙĬØ·ÙĦØ¹":2092,"Ġje":2093,"ÙħØŃ":2094,"Ø³ÙĨØ·":2095,"ĠØ¹ÙħØ±ÙĬ":2096,"ÙĤØ§Ø¯":2097,"ĠØªØŃØª":2098,"ĠØµØŃØ©":2099,"ĠØ§ÙĨØ³":2100,"ĠØŃØ³Ø§Ø¨":2101,"ÙĥØ§ÙĬÙĨ":2102,"Ø¬Ø±Ø©":2103,"Ø³ØªØ§ÙĨ":2104,"ĠÙĬØ¹Ø§ÙĪÙĨ":2105,"ÙħÙħ":2106,"ĠØ§ÙĦØ§Ø³Øª":2107,"ĠÙĬØ¬Ø¨":2108,"ĠÙĨÙĤÙĪÙĦÙĥ":2109,"ĠØ¬ÙĪ":2110,"ĠÙĪÙħÙĤÙĬÙĪØ³":2111,"ving":2112,"ÙĤÙĪ":2113,"ĠÙĬÙħØ§":2114,"ĠÙĦÙĤØ¯":2115,"Ø§Ø±Ø³":2116,"Ø¶ÙĪØ¹":2117,"Ø§ÙĩØ¯Ø©":2118,"ink":2119,"ĠÙĪÙĬØŃ":2120,"ÙĪØ¨Ø§":2121,"ĠÚ¨Ø§Ø¹":2122,"am":2123,"ÙĨÙĬÙĨ":2124,"ĠØ¥Ø°Ø§":2125,"ĠØ±ÙħØ¶Ø§ÙĨÙĬØ©":2126,"ĠÙĪÙĦÙĬØª":2127,"ĠØŃØ¨ÙĬØ¨ÙĬ":2128,"ĠØ¬Ø¹ÙģØ±":2129,"ĠÙħØ³ÙĥÙĬÙĨ":2130,"ÙĦØ§Ø«":2131,"ĠØ¯Ø§Ø®":2132,"ĠØ§ÙĦÙħØ±":2133,"Ø¸Ùħ":2134,"ÙĪØ³Ùħ":2135,"ĠØ£ØŃØ³ÙĨ":2136,"Ø²ÙĪ":2137,"Ø²Ø¹":2138,"ĠÙĤÙĬ":2139,"ĠÙħØ²ÙĬØ¯":2140,"ĠÙĨØ¬ÙĬ":2141,"ĠØ§ÙĦÙĬÙĪØªÙĬÙĪØ¨":2142,"Ġw":2143,"ÙĤÙģ":2144,"ĠØ§ÙĦÙĥØ±":2145,"ÙĤÙĬÙĤ":2146,"Ø¨Ø¯ÙĦ":2147,"ĠØ§ÙĦØºØ±Ø¨Ø©":2148,"ĠØ§ØªÙħÙĨÙī":2149,"pink":2150,"Ø¨ÙĬØ±":2151,"Ø§ÙĨÙĬØ§":2152,"waving":2153,"Ø§ÙĦØ·":2154,"ĠÙĬØ²ÙĬØ¯":2155,"ĠØ§ÙĦØ§ÙĨØ³Ø§ÙĨ":2156,"ĠÙħÙĥØ§Ø´":2157,"handpink":2158,"handpinkwaving":2159,"ĠÙĬØ¹ÙĬØ´":2160,"ĠØ§ÙĦØ¯Ø§Ø±":2161,"ĠØ¹Ø¯Ø¯":2162,"ĠØ®Ø¯ÙħØ©":2163,"ÙĪÙĩÙħ":2164,"ĠØ¹Ø§ÙĦÙħ":2165,"ĠØ§ÙĦØ¹ÙĦÙħ":2166,"ĠÙĬØŃØ·":2167,"ĠØ¥ÙĨØ´Ø§Ø¡":2168,"ĠÙģÙĦØ³Ø·ÙĬÙĨ":2169,"ĠØ¯Ø®ÙĦØª":2170,"Ġen":2171,"ÙĬÙĬ":2172,"ĠØ§ÙħØ§":2173,"ĠÙĬÙģÙĩÙħ":2174,"Ø§Ø¦ÙĦØ©":2175,"ĠØ¨ÙĦØ§Øµ":2176,"ĠØ§ÙĦØ§Ø³ÙĦØ§Ùħ":2177,"lo":2178,"ÙĨØ§Ùĩ":2179,"ĠØ§ÙĦØªØ¹ÙĦÙĬÙĤ":2180,"ĠØ¨ÙĨÙĬ":2181,"ĠØµØº":2182,"Ġh":2183,"ĠØ¨Øµ":2184,"ĠØªØ¯Ø®ÙĦ":2185,"ĠØªØ§Ø±ÙĬØ®":2186,"Ø§ÙħØ·":2187,"Ø¯ÙĬÙĦ":2188,"ĠØ§ÙĦÙĤØ±Ø¢ÙĨ":2189,"Ø¹ÙħÙĦ":2190,"Ø§ÙĬØ§Øª":2191,"ÙħÙĬØ²":2192,"ĠÙĬØ¯Ø®ÙĦ":2193,"ÙĬØ¯ÙĬØ§":2194,"ĠØŃØ¨ÙĬØ¨":2195,"ĠØ®ÙĪÙĥ":2196,"Ø§ÙĨÙĬØ´":2197,"ĠÙĩØ§Ø°Ø§":2198,"ĠØ§ÙĦØ¥Ø³ÙĦØ§Ùħ":2199,"ÙģØ§ÙĦ":2200,"ĠÙĨØ¹ÙĬØ´":2201,"ÙĨØ³ÙĬØ©":2202,"ĠØ§ÙĦØ¨ÙĦØ¯":2203,"Ø¨ÙĬÙĩ":2204,"ĠÙĩØ°Ùĥ":2205,"handpinkwavinghandpinkwaving":2206,"ĠØ§ÙĦØ¶ØŃÙĥ":2207,"Ø¨Ø³":2208,"ĠØŃÙĪÙĦ":2209,"Ø¯ÙĬÙĩ":2210,"ĠØ®ÙĬØ±Ø§":2211,"ĠÙĪØµØŃØ¨Ùĩ":2212,"ĠÙģØª":2213,"ĠÙĦØ¹Ø¨":2214,"ĠØ¹ÙĬ":2215,"ĠØ±Ø£":2216,"Ø²Ø§ÙĦ":2217,"ĠØŃÙĦÙħ":2218,"Ø±ÙĬÙģ":2219,"ĠØ¨Ø§ÙĦÙħ":2220,"ĠØ¢Ø®Ø±":2221,"Ú¤":2222,"ĠØ¨Ø§Øº":2223,"ĠØªÙĪÙĨØ³":2224,"Ø±ØŃÙħØ©":2225,"ĠØªÙĪØµÙĦ":2226,"Ø§ØªÙĪ":2227,"ĠØ¢ÙĦÙĩ":2228,"ĠØ§ÙĦØ«Ø§ÙĦØ«":2229,"ÙĨØ§Ø¦ÙĬ":2230,"Ø°ÙĨ":2231,"ĠØªØ§Ø¹ÙĪ":2232,"ĠØ³ÙĬØ¯ÙĬ":2233,"ÙħØ´Ø§Ø¡":2234,"Ø¶Ø©":2235,"ÙĪØ±ÙĪ":2236,"ĠØ¬Ø²Ø¡":2237,"ĠØ²ÙĪÙĪÙħ":2238,"ĠÙĪØ§Ø¬":2239,"ĠØ£ØŃØ¨":2240,"ĠØ§ÙĦØªØŃ":2241,"ÙĬØªÙĥ":2242,"ĠÙĤÙĨØ§ØªÙĥ":2243,"id":2244,"Ø§ÙĦØŃÙħØ¯":2245,"ĠÙĬÙĩØ¯Ø±":2246,"ĠÙħÙĨÙĩ":2247,"ĠØ®Ø§Øµ":2248,"ĠØŃØ±":2249,"ĠØµØ§ØŃØ¨":2250,"ĠØ§ÙĦØ§ÙĬ":2251,"ĠØ®Ø§ÙĦ":2252,"ÙĦÙĬÙħ":2253,"ĠØ³Ùĥ":2254,"ĠØ¹ÙĨØ¯ÙħØ§":2255,"ĠÙĬØ¨Ø§ÙĨ":2256,"ĠØªØ§ÙĪ":2257,"Ø®Ø§ÙĪØªÙĬ":2258,"ĠØ¬ÙĬØ¯":2259,"ĠØªÙĦÙĤÙī":2260,"Ø¨Ø§":2261,"ĠÙģÙĥ":2262,"ĠØ§Ø±ÙĪØ§ØŃ":2263,"ĠØªÙģÙĩÙħ":2264,"ØµÙĦÙĪ":2265,"ĠØ£Ø´":2266,"ÙĪØ¨Ø©":2267,"ĠÙĤØ§ÙĦÙĪ":2268,"ĠØ§ÙĦØ¸":2269,"ĠØ§ÙĦØ´Ø®Øµ":2270,"ĠØ§ÙĦÙĥÙĪÙħ":2271,"Ø§ÙĦÙĨ":2272,"ĠÙħØ¨Ø¯Ø¹":2273,"ØªÙĪÙĨØ§":2274,"ĠØªØ¹Ø§ÙĦÙī":2275,"ĠÙĥØ§ÙĨÙĪ":2276,"ĠØ§ÙĦØ³ÙĦØ³ÙĦØ©":2277,"ĠÙħÙħØª":2278,"ĠÙĨØ¶ØŃÙĥ":2279,"ĠØµØ¹":2280,"ĠØªØº":2281,"ĠØ§ÙĦØ´Ø¨Ø§Ø¨":2282,"ĠØ§ÙĦÙħÙĪØ³ÙĬÙĤÙī":2283,"ve":2284,"ĠØªØ¨Ø¹":2285,"ĠÙħØŃØªÙĪ":2286,"ÙĪÙģÙĤÙĥ":2287,"ĠØ¨ÙĦØ§Ø¯Ùĥ":2288,"ĠØ§ÙĦÙĩØ¯":2289,"ĠÙĦÙģÙĬØ¯ÙĬÙĪ":2290,"ĠÙĪØ§ÙĦÙĨ":2291,"Ø£ÙĦÙĤ":2292,"ØŃÙĨ":2293,"ĠØ¨Ùħ":2294,"ĠØªÙħØ§":2295,"ÙĨØ§ÙĩØ§":2296,"ĠØ³ÙĬØ±":2297,"Ø§ÙĬØ¬":2298,"ØªÙĪØ´":2299,"ĠØªØ¯ÙĬØ±":2300,"ĠØ£Øª":2301,"ĠØ¯ÙĤ":2302,"ÙĪÙĦØ§":2303,"ĠÙĦÙĬØ¨ÙĬØ§":2304,"Ø§Ø·ÙĤ":2305,"ed":2306,"ĠØ¬ÙħØ¹":2307,"Ø¨ÙĦØ©":2308,"ĠØ®Øµ":2309,"ĠØ§ÙĦÙħØ²ÙĬØ¯":2310,"ĠØ³ÙĪÙģ":2311,"ĠÙĬØ®ÙĦÙĬ":2312,"Ø§ÙĦØª":2313,"ĠØ¯ÙĪÙĥ":2314,"ØªØŃÙĬØ§":2315,"ĠØ§Ø±ÙĪØ¹":2316,"ÙĤØ¯Ø±Ø´":2317,"ĠÙĨØ´Ø§ÙĦÙĩ":2318,"ĠØ¬Ø²Ø§Ø¦Ø±ÙĬØ©":2319,"Ø¹Øª":2320,"ĠÙĬÙĤØ¯":2321,"Ø§Ø³Ø©":2322,"ĠØ£ÙħØ±ÙĬÙĥØ§":2323,"ï»":2324,"ĠÙĬØ§Ùĥ":2325,"ĠÙĬÙĪØªÙĬÙĪØ¨Ø±":2326,"ĠØ±ØºÙħ":2327,"ĠØ§ÙĦØŃØ¨ÙĬØ¨":2328,"Ø³Ø¨ÙĪÙĥ":2329,"ĠÙĪØŃØ¯Ùĩ":2330,"ĠÙħØ§Ùĩ":2331,"Ø·ÙĬÙģ":2332,"ĠÙĨØŃØ¨Ùĥ":2333,"ĠØ§ÙĦØ³ÙĬØ§ØŃØ©":2334,"ĠÙĥØªØ¨":2335,"Ø§ÙĬÙĦ":2336,"ĠØºÙĦ":2337,"ÙĦØªÙĨÙĬ":2338,"ĠØ§Ø¨ÙĨ":2339,"ÙģÙĩ":2340,"ĠÙĬÙĪØ¬Ø¯":2341,"ØŃÙĨØ§":2342,"ÙĤØ¯ÙĬØ±":2343,"ĠØ®Ø§Ø·Ø±":2344,"ĠA":2345,"Ø³ÙĬØŃ":2346,"ĠÙĪÙĪ":2347,"ÙģØ§Ø±":2348,"Ø±ÙĬØŃ":2349,"Ø§ÙĨØ§Øª":2350,"ĠØ¹Ø±Ø¨ÙĬ":2351,"Ġr":2352,"ĠÙģØ§ÙĦÙħ":2353,"ĠØ´ÙĪÙĬØ§":2354,"ĠÙĤØ³ÙĨØ·":2355,"ĠÙĪÙĬØ¬Ø¹ÙĦ":2356,"ĠÙĥØ§Ø±":2357,"ĠØ§ÙĦØŃØ§Ø¬":2358,"ĠÙĬØ´Ø§ÙģÙĬ":2359,"Ø¬ÙĦÙĬØ²ÙĬØ©":2360,"ĠØ¯ÙĤÙĬÙĤØ©":2361,"ĠØªØµÙĪ":2362,"ĠØ§ÙĦØªØ¬":2363,"ĠØ§ÙĦØ¨Ø§Ùĥ":2364,"ĠÙĬØŃÙģØ¶ÙĥÙħ":2365,"ĠØ§ÙĦÙĥØ«ÙĬØ±":2366,"ĠÙĦØ´":2367,"ĠÙĨÙģÙĩÙħ":2368,"ĠØ§ÙĦÙĨØ¨ÙĬ":2369,"ĠØ¨ØµØŃØªÙĥ":2370,"ØªØŃÙĬØ§ØªÙĬ":2371,"ĠØ§ÙĦØ¬Ø²Ø§Ø¡":2372,"ĠÙĪÙĦÙĪ":2373,"ĠØŃÙĦ":2374,"Ø§ØŃÙĬØ©":2375,"ĠØ§ÙĦØ¹Ø§ØµÙħØ©":2376,"ĠØªÙĨØ³":2377,"Ø°Ø§Ùĥ":2378,"ĠØ¨Ø±Ø§":2379,"ĠØªØ¶ØŃÙĥ":2380,"Ġdes":2381,"ĠÙĪÙĦÙĬØ³":2382,"Ø§Ø¯Ø±":2383,"ĠØ§ÙĦØ¹ÙĬØ¯":2384,"Ø±ÙĪØ¹Ø©":2385,"Ø³Ø¨Ø¨":2386,"Ġpour":2387,"ai":2388,"ÙĨÙĪØ¨":2389,"ĠØ¨Ø³ÙĬ":2390,"ÙĦÙĬØ§":2391,"ĠÙĦØ§ÙĨÙĩ":2392,"ĠÙĥÙĪÙĥ":2393,"ØªÙĦÙĬ":2394,"ĠÙĪÙĥØ§ÙĨ":2395,"Ø¯ÙħØ©":2396,"ĠÙģÙĥØ±Ø©":2397,"ĠÙĩÙĬØ§":2398,"ĠØ·Ø§ÙĦØ¨":2399,"ĠØ¨ÙĬÙĥÙħ":2400,"ad":2401,"Ø¹ÙĬÙĨ":2402,"Ø¹Ø¬Ø¨ØªÙĨÙĬ":2403,"ĠØ¹Ø³":2404,"ÙĪØ±Ø§ÙĦ":2405,"ĠÙħÙħ":2406,"ÙĤÙĥ":2407,"ĠØ¨Ø¯ÙĬØª":2408,"ĠØ±ÙĤÙħ":2409,"ØºØ±Ø¨":2410,"ĠØ§ÙĦØ¥ÙĨ":2411,"Ø¨ÙĬØª":2412,"ĠØ§ÙĦØ¬Ø§ÙĬ":2413,"ĠØ¹ÙĨØ¯ÙĥÙħ":2414,"ĠØ¹Ø§ÙĬØ´ÙĬÙĨ":2415,"ĠØ§ÙĦØ¯ÙĬ":2416,"ĠØªØ²ÙĪØ±":2417,"ĠÙģÙĬÙĨØ§":2418,"ĠØŃÙĦÙĪ":2419,"ĠØ¯ÙĬØ§ÙĦÙĥ":2420,"ĠÙĬØ¯ÙĬØ±ÙĪ":2421,"ĠØ§ÙĦØŃÙħ":2422,"ĠÙĪØµÙĦ":2423,"ÙĤØ·Ø©":2424,"ĠÙĨØ¬ÙĬØ¨":2425,"ÙĪØ¹Ø©":2426,"ĠØ¬Ø¨":2427,"ĠØ®ÙĬ":2428,"Ø§Ø¹ÙĬ":2429,"ĠØºØ§ÙĦØ¨":2430,"ĠØªØ¹Ø¬Ø¨ÙĨÙĬ":2431,"ĠØªØŃØ³":2432,"ØªØ±Ø§Ùĥ":2433,"ĠÙĨØ³ØªÙĨØ§":2434,"ĠØ§ÙĦØ§Ø±Ø¶":2435,"ÙħØ§Ùħ":2436,"ÙĪÙĨØ©":2437,"ĠØ¥ÙĨØ³Ø§ÙĨ":2438,"Ġet":2439,"ĠÙĪØ§Ø³":2440,"ĠÙħØ¤":2441,"ÙĤØ¨":2442,"Ø¨ÙĬØ¹Ø©":2443,"ĠØ§ØŃØ¨":2444,"ĠØ§Ø¹Ø·":2445,"ÙĪØŃ":2446,"ØªÙĦ":2447,"ĠÙħØŃØ¨":2448,"ĠÙĨØŃÙĥ":2449,"ĠØ±Ø¨ØŃ":2450,"ĠØ§ÙĦØ´Ø¹":2451,"ĠØ§ÙĦØ¢":2452,"ĠÙĪÙĥÙĬ":2453,"ØŃÙĦÙĤØ©":2454,"ĠÙĨÙĪØ¹":2455,"Ø§ØªÙĥÙħ":2456,"ĠØ§Ø®ØªÙĬ":2457,"ĠÙħØ§Ùģ":2458,"ĠÙĥØ§ÙĨÙĪØ§":2459,"ØªØ±Ùħ":2460,"ĠØªØ¨Ø§ÙĨ":2461,"ĠÙĦÙĬÙĨØ§":2462,"ĠØµÙĪØª":2463,"Ø§Ø¬ØŃ":2464,"ĠÙĪÙĩÙĬ":2465,"ĠÙĤØªÙĦ":2466,"ĠB":2467,"ĠØµÙĨ":2468,"ĠØ¨ÙĦØ§Ùĥ":2469,"ĠØ²Ø§Ø¯":2470,"Ø§Ø·Ø©":2471,"ÙĤÙĤ":2472,"ĠÙĨÙĦÙĤ":2473,"ĠØ§Ø¶":2474,"ĠØ¯Ø¹Ùħ":2475,"ĠØ§ÙĦØªØµÙĪÙĬØ±":2476,"ĠØ§ÙĦÙģÙĨ":2477,"ĠØ²Ø¹Ùģ":2478,"ÙĬØ§Ùħ":2479,"ØŃÙĦ":2480,"ĠÙģÙī":2481,"ĠÙĦÙĦÙĤ":2482,"ÙĬÙĨØ§Ø±ÙĬ":2483,"ĠØŃØ±Ø§Ùħ":2484,"ĠÙĦÙĦØ¬":2485,"ĠØ§ÙĦØ¯Ø¹Ùħ":2486,"ĠØŃÙĬØ«":2487,"ĠÙĪØ«":2488,"ĠÙĬØ¯ÙĬ":2489,"ĠØ´Ùĥ":2490,"ĠØ³Ø§Ø¹Ø©":2491,"ĠØ¨Ø§Ø³ÙĥÙĪ":2492,"ÙĪØ§Ùĩ":2493,"ĠÙģÙĥØ±":2494,"ĠØ¬Ø§ÙĪ":2495,"ĠØ¬Ø²Ø§Ø¦Ø±":2496,"ĠÙĬØ´ÙģÙĬÙĩ":2497,"ĠØªÙħØ«ÙĬÙĦ":2498,"ĠØ¬ÙĬØ¨":2499,"ĠØ§ÙĦÙĪØ§ÙĦ":2500,"ÙĤØ§":2501,"ĠÙĥØ§Ø¹":2502,"Ø§ÙģÙĩ":2503,"ĠØ¨ÙĦØ§ÙĦ":2504,"ĠØ¨ÙĦØ§ØµØ©":2505,"ĠÙĪØ¥":2506,"ÙģÙĦØ©":2507,"Ø³ÙĥØ±":2508,"ĠØ¹Ø§ÙĪØ¯":2509,"ĠØ§ÙĦØ´Ø±Ùĥ":2510,"ĠØ§ÙĬØ§Ùħ":2511,"ÙĪÙĦÙĩØ§":2512,"ÙĩÙħØ´":2513,"ĠØ§ÙĦØ¨Ø§Ø·ÙĦ":2514,"ÙĬØ¹Ø·ÙĬÙĥÙħ":2515,"he":2516,"ĠÙĬÙĩØ¯":2517,"ĠÙĦÙĤÙĬØª":2518,"ĠØ¹ÙĬØ¨":2519,"ĠÙĨØ¬Ø§ØŃ":2520,"ĠÙĤØ¹Ø¯":2521,"Ø¯ÙĪØ©":2522,"ĠØ£Ø³ØªØºÙģØ±":2523,"ÙħÙĨÙĬ":2524,"ĠÙĨØ¯ÙĬ":2525,"ĠØ±Ø§Ø¬ÙĦ":2526,"ÙĩØ§ÙĬØ©":2527,"Ø§Ø¹Ùĩ":2528,"ÙĨØ³ÙĬ":2529,"ÙĥÙĨØª":2530,"Ø§Ø³Ùģ":2531,"Ø·ÙĬØŃ":2532,"ĠØ«ÙĦØ§Ø«":2533,"ÙĥØ§Ø±":2534,"ĠÙħÙĨÙĪ":2535,"ĠÙħØ¹Ø±ÙĪÙģ":2536,"ĠØªØŃØ·":2537,"ĠØ«ÙĨØ§Ø¦ÙĬ":2538,"ĠÙħØªÙĪ":2539,"ĠÙĬÙħØ«ÙĦ":2540,"ĠÙĨØ³ÙĬ":2541,"ĠÙĥØ«":2542,"ĠØ®Ø®":2543,"ĠØ§ÙĦØ³ÙĬØ¯":2544,"ĠØ¶Ø±Ø¨":2545,"ĠØªØ¬ÙĬØ¨":2546,"ÙĥØ´":2547,"ÙģÙĥØ±":2548,"ĠØ¹Ùģ":2549,"ĠÙħØ±Ø¶":2550,"ĠM":2551,"ĠÙħÙĨÙĬÙĨ":2552,"ÙģÙĪÙĨ":2553,"ĠÙĪØ§ÙĦØ³ÙĦØ§Ùħ":2554,"Ġcom":2555,"ĠÙĨØªØ§Ø¹Ùĥ":2556,"Ø¬ÙĪ":2557,"ĠÙĤØ§ÙĦÙĬ":2558,"Ø±Ø¬ÙħØ©":2559,"Ø±ØªØ´":2560,"Ø±Ø§ÙĨØ§":2561,"Ø¨Ø²":2562,"ĠÙħÙĨØª":2563,"ĠØ´ÙĬØ¦":2564,"ĠÙĨØ¨ÙĬÙĨØ§":2565,"ĠØªØµÙĪÙĬØ±":2566,"Ø¨ÙĪÙĦ":2567,"ĠÙĪØ²ÙĬØ¯":2568,"ĠÙĨØ¯Ø®ÙĦ":2569,"ĠØ§ÙĨØªÙħ":2570,"ic":2571,"Ø±Ø§ØŃ":2572,"ĠÙĨØ¶":2573,"Ø²Ùħ":2574,"Ø§ØªØ´":2575,"ĠØ´ÙĪ":2576,"ĠØŃÙĥÙħ":2577,"ĠÙĦÙĬÙĪÙħ":2578,"Ø§Ø¶ÙĬ":2579,"ĠÙĨØ³ÙħØ¹":2580,"Ø£Ø³Ùģ":2581,"ĠÙģØ±ÙĬ":2582,"ĠÙĦØ§ÙĦØ§":2583,"Ø±ÙĬÙĬÙĨ":2584,"ÙĩÙĩÙĩÙĩ":2585,"ĠÙĩØ§Ø¯Ø§":2586,"ĠØ§ÙĦÙĬÙĩ":2587,"Ø£Ø©":2588,"ÙĪØ±ÙĬØ§":2589,"ĠÙħÙĬØ²Ø§ÙĨ":2590,"ĠÙĬØ®ÙĦÙĬÙĥ":2591,"Ø¨ÙĨ":2592,"ĠÙĪØ§Øµ":2593,"ĠÙĦØ³":2594,"ĠØ§ÙĦÙħÙĦÙĥ":2595,"ØºØ±Ø§Ùħ":2596,"ĠØ§ÙĦØ¹ÙĬÙĨ":2597,"ÙĨØªØ§":2598,"out":2599,"Ġtr":2600,"ĠÙĪØ§Ø±":2601,"ĠÙĨØªÙĬ":2602,"Ø®Ø¯Ùħ":2603,"ÙĪÙĨØ³ÙĬ":2604,"ĠØ·Ø±ÙĬÙĤØ©":2605,"ĠØ§ÙĦØªÙĦÙģ":2606,"ĠÙĪØªØ¹":2607,"ĠÙĨØŃØ³":2608,"ØŃØ³ÙĨ":2609,"ĠÙģØ³ÙĬØŃ":2610,"ĠÙĨÙĨ":2611,"ĠÙħØ¹Ø§ÙĩÙħ":2612,"ĠÙĬØ´ÙģÙĬÙĥ":2613,"ĠØ£Ø¬ÙħØ¹ÙĬÙĨ":2614,"ĠØ§ÙĦÙĪÙĦ":2615,"ĠØ§ÙĦØ§Øº":2616,"ĠÙĬÙģØ±Ø¬":2617,"ĠØ¹Ø§ÙĦ":2618,"ĠÙģÙĬÙĦÙħ":2619,"Ø²ÙĪÙħ":2620,"ĠØ¯ÙĪÙĦØ©":2621,"Ø§Ø³Ø¨":2622,"ĠØ·ÙĪÙĬ":2623,"ĠD":2624,"ÙĬÙĨÙĥ":2625,"ĠÙħØ¹Ø§":2626,"ĠÙĬØ¹Ø·":2627,"ĠÙĨØ´ÙĪÙģÙĥ":2628,"ĠÙĪØ§Ø¯":2629,"ĠØ¨Ø¶ØŃÙĥ":2630,"ĠØ§Ø«":2631,"ĠØµØ¯":2632,"ĠØ§ÙĦØ£Ø±Ø¶":2633,"ĠØŃØ¨Ø³":2634,"ĠØ§ÙĦÙĦØºØ©":2635,"Ø§Ø¸Ø±":2636,"Ø£Ùĥ":2637,"Ø«Ø©":2638,"ĠØ§ÙĦØ°ÙĬÙĨ":2639,"ĠØ¹ÙĬØ¯ÙĥÙħ":2640,"log":2641,"ÙĪÙĪ":2642,"ÙĤØ³ÙĬ":2643,"Ø§Ø¨Ùĩ":2644,"Ø¬Ø§ÙĨ":2645,"Ø±ÙĪØ´":2646,"ĠØ§ÙĦØ´Ø±":2647,"ÙĥØª":2648,"ĠØªÙĤØ¯":2649,"ĠØ³Ø¹ÙĬØ¯":2650,"ĠÙĪÙħØª":2651,"ĠÙĨØ¹ÙħØ©":2652,"ĠØ¯ÙĪÙĦØ§Ø±":2653,"ah":2654,"Ø¯ÙĤÙĬÙĪØ³":2655,"ÙģÙĤ":2656,"Ø§Ø¦ÙĤ":2657,"Ø³ØªØ§ÙĩÙĦ":2658,"Ġpl":2659,"Ø¹Ø§Ø¯Ø©":2660,"Ø§ÙħØ§Øª":2661,"ØªÙĪØ¨Ø±":2662,"Ġcon":2663,"ĠÙĤØ³ÙĨØ·ÙĬÙĨØ©":2664,"ut":2665,"ÙĥÙĪØ±":2666,"Ø¨ÙĤ":2667,"ĠÙĪÙħØ¹":2668,"ĠØ¹Ø§Ø±Ùģ":2669,"Ø®Ø©":2670,"ĠØ¬Ø§ÙĦ":2671,"ĠØ§ÙĨØ´":2672,"ĠØ§Ø±ØŃÙħ":2673,"ÙħÙĪÙĨ":2674,"Ø±ÙħØ¶Ø§ÙĨ":2675,"ÙĩØ§ÙĨ":2676,"ĠÙĥØ´":2677,"ĠÙħØªØ¹":2678,"ĠÙĬØ´Ø§ÙģÙĬÙĩ":2679,"ĠÙģØ§ÙĦÙĤ":2680,"Ġvo":2681,"ĠÙħØ±ÙĬØ¶":2682,"ĠT":2683,"ĠØ¨Ø§Ø±":2684,"ĠØ§Ø®ÙĪÙĥ":2685,"Ø¹Ø¨Ø©":2686,"ĠØ¨Ø§ÙĦÙĨØ³Ø¨Ø©":2687,"ĠØ§ÙĦÙĪØ§ÙĤØ¹":2688,"ÙĩØ§Ø°":2689,"ØªÙĦÙģ":2690,"ĠØªÙĦ":2691,"Ø®ÙĦÙĬ":2692,"Ø§ÙĬÙĬÙĨ":2693,"Ø§Ø¨Ø¹Ø©":2694,"ĠØ§ÙĦØ¯Ø±":2695,"Ø·ÙĪØ±Ø©":2696,"ĠÙģÙĩÙħØª":2697,"ir":2698,"ĠØ¨Ø§Øª":2699,"ĠØ¨ÙĥÙħ":2700,"ĠÙĩØ°ÙĬÙĥ":2701,"ĠØ§ÙĦÙĨØ³":2702,"ĠØ§ØŃØ¯":2703,"ĠÙħØ§ÙĥØ´":2704,"ie":2705,"ĠØªØ±Ø¬Ø¹":2706,"ĠÙĦØ§Øª":2707,"ĠØ®Ø±":2708,"Ø±ÙĬÙĤÙĬØ§":2709,"ĠÙħØ³ÙĦÙħ":2710,"Ø¹Ø§Ø´ÙĪØ±":2711,"ĠØ¨ÙĪÙĨ":2712,"ĠØ¨ÙĬØª":2713,"Ø·Ùĩ":2714,"ĠØ®ÙģÙĬ":2715,"ĠØµØ¯ÙĤ":2716,"ĠØ¨Ø§ÙĦØª":2717,"ĠÙĪØ¹ÙĨØ¯":2718,"ØµØ±Ø§ØŃØ©":2719,"ĠÙĩØ¯Ø§Ùĥ":2720,"ĠØ§ÙĦØ¹Øµ":2721,"ÙĪØ¬Ùĩ":2722,"ĠØ£ÙĨÙĩ":2723,"Ø³ÙħÙī":2724,"ĠØµØ±Ø§ØŃØ©":2725,"ÙĦÙĦ":2726,"ĠÙĬÙĦØ¹Ø¨":2727,"Ø¬Ùĩ":2728,"Ø²ÙĬÙĨ":2729,"ĠØ¬Ø²Ø§ÙĬØ±":2730,"Ø±ÙĪØ¨":2731,"ĠÙĩØ°ÙĪ":2732,"Ø·ÙĬØ¹":2733,"ĠØ§ØµÙĦØ§":2734,"ĠÙģØ§ÙĬ":2735,"ĠØ±Ùħ":2736,"ĠØ¬ÙĨØ©":2737,"ĠØ§ÙĦÙħØ³ØªÙĪÙī":2738,"ation":2739,"Ø¹Ø§Ø±":2740,"ĠØªÙħÙĨ":2741,"ĠÙĨØ²ÙĬØ¯":2742,"ĠÙĩØ¯ÙĬ":2743,"ĠØ£ØªÙĪØ¨":2744,"ĠØªØ§Ø¹ÙĥÙħ":2745,"ĠØ§ÙĬÙĩ":2746,"ĠØ§Ø³ÙħÙĩØ§":2747,"ĠÙħÙĦØ§":2748,"ĠÙħÙĪØª":2749,"ĠÙĥÙĪÙħÙĬØ¯ÙĬ":2750,"ĠØ£Ø¬ÙħÙĦ":2751,"ĠÙĦÙĬØ§":2752,"Ø§ÙĬÙģ":2753,"Ø§ØŃØ¨":2754,"oo":2755,"ØªØ³":2756,"ĠÙĪØ§ÙĤ":2757,"ĠÙħØ±Øª":2758,"ĠÙĬÙĪÙĦÙĬ":2759,"ĠØ§ÙĦÙģØ¯ÙĬÙĪ":2760,"ĠÙĦÙĦØ´":2761,"Ø¤ÙħÙĨ":2762,"ĠÙħÙĪÙĦØ§ÙĬ":2763,"ÙĬÙĬÙĨ":2764,"Ø¯Ø§Ø¹":2765,"ĠØ®ÙħØ³":2766,"Ø§ÙĩØ©":2767,"ĠØ§ÙĦØµØŃÙĩ":2768,"ĠØ§ÙĦÙĪØ·ÙĨ":2769,"Ġtu":2770,"ct":2771,"ĠÙģÙĨ":2772,"ĠØ§ÙĦØŃÙĥ":2773,"ĠØ¯ÙĪÙĨÙĥ":2774,"Ø³ØªØ±":2775,"ĠØ§ÙĦØªÙħØ«ÙĬÙĦ":2776,"Ġch":2777,"ĠÙĨØªÙģØ±Ø¬ÙĪ":2778,"ĠØ§ÙĦØŃØ±Ø§Ø´ÙĬ":2779,"ÙĩØ´Ø§Ùħ":2780,"ÙģØ§Ø¯":2781,"ĠÙħÙĨÙĥÙħ":2782,"ĠÙĤÙĦÙĬ":2783,"ĠØ±ÙħØ¶Ø§ÙĨÙĥÙħ":2784,"ĠÙĤØ§ÙĦØª":2785,"Ø§Ø¶Ø¹":2786,"ĠØ¹Ø±ÙģØª":2787,"ÙħØ§Øª":2788,"ĠÙĨØ²ÙĪØ±":2789,"ĠÙĪØ§ÙĦØ£":2790,"ÙĨÙĬÙĩ":2791,"ĠÙĪÙĬØ¬Ø¹":2792,"ĠØ§Ø§":2793,"ĠØ§ÙĪØ±":2794,"ÙĤØ§Ø¯Ø©":2795,"ĠØ§Ø²":2796,"ĠØ¯Ø±Ùĥ":2797,"ÙĨØªØ¬":2798,"ĠØªØŃÙĪØ³":2799,"ĠÙĦÙĦØ¬Ø²Ø§Ø¦Ø±":2800,"ØŃØªÙī":2801,"ĠØªØ§Ø¹ÙĩÙħ":2802,"ĠØ§ÙĦÙĨØµ":2803,"ĠØµØŃÙĬØŃ":2804,"ĠØ§ÙĦØ§ÙĪÙĦÙī":2805,"Ġil":2806,"Ø±Ø§Ø³Øª":2807,"ĠØ§ÙĦØ§Ùģ":2808,"Ø§ÙħØ¬":2809,"Ġdon":2810,"ĠÙĨÙģØ³Ùĥ":2811,"ĠÙĩØ§ÙĬÙĦØ©":2812,"ĠØ±ØŃÙĦØ©":2813,"ÙĩÙĦØ§":2814,"ĠÙģÙĤ":2815,"Ø´Ø©":2816,"ĠØ§ÙĦÙħÙĥØ§ÙĨ":2817,"ĠÙĦÙĬÙĩ":2818,"ien":2819,"ÙĬØ²":2820,"ØŃØ³":2821,"ĠØ¹Ø´Ø±":2822,"ĠØ¯ÙĬÙĥ":2823,"Ø°ÙĥØ±":2824,"Ø§ÙģØ¸":2825,"ĠØ§ÙĦØŃØ§ÙĦ":2826,"ÙĬÙĨØ§Ø±ÙĬÙĪ":2827,"ĠÙĪØ§Øª":2828,"ĠÙĪØº":2829,"ĠÙģØ§ÙĩÙħ":2830,"ĠÙĥÙĪ":2831,"ĠÙħØ¹ÙĨÙī":2832,"ØªÙĪÙħØ§":2833,"ĠØ±Ø§ÙĥÙĬ":2834,"ĠÙĬØ¬Ø¹":2835,"ĠØ¨Ø§Ø¨Ø§":2836,"ĠØ¨Ø®":2837,"ĠÙĦØ§Ùħ":2838,"ĠÙĤÙĦÙĪØ¨":2839,"ĠØ¯Ø®":2840,"ĠØ§ÙĦØ¹ÙĤ":2841,"ÙĪÙĬÙĩ":2842,"ĠÙĬØ·ÙĪÙĦ":2843,"ĠØ£ÙĥØ¨Ø±":2844,"ĠÙģØ¹ÙĦØ§":2845,"ĠÙģØ§ÙħÙĬ":2846,"Ú¨Ø±ÙĪØª":2847,"ĠÙħØ³ØªÙĪÙī":2848,"ĠÙĨØ±":2849,"ØµØ¯":2850,"ĠÙĦÙĬØ³Øª":2851,"Ø±Ø¬Ø©":2852,"ĠØ´Ø§Ø¡Ø§ÙĦÙĦÙĩ":2853,"ÙħÙĪÙĩ":2854,"ĠØ§ÙĦØ¢ÙĨ":2855,"ĠÙħØµØ±":2856,"ÙĪØ±ÙĬØ©":2857,"ĠØ§ÙĬØ§":2858,"ĠØ±ÙĪØŃÙĪ":2859,"ĠØ§Ø¯Ø¹":2860,"ĠÙĬÙĩØ¯ÙĬÙĥ":2861,"os":2862,"ĠØ§ÙĦØ®ÙĦ":2863,"ÙĩÙĪØ±":2864,"Ø¨Ø§ÙĨ":2865,"ĠÙħØ§Ø¨":2866,"ĠÙħØ§Ø°Ø§":2867,"ĠØ§ÙĦØ¯ÙĪÙĦ":2868,"ĠØ§ÙĦÙħØ´ÙĥÙĦ":2869,"ĠØ§ÙĦØ±ÙĬ":2870,"ĠÙĪÙĦÙħ":2871,"Ø´ØŃØ§ÙĦ":2872,"Ø§Ø¬ÙħÙĦ":2873,"ĠÙĬÙģØªØŃ":2874,"ĠØ§ÙĦØ±Ø¬Ø§ÙĦ":2875,"ĠØªÙĬÙĨØ§":2876,"ĠÙĦÙĪÙĦ":2877,"Ø§ØªÙĨØ§":2878,"ĠØŃØªØ§":2879,"ĠØ§ÙĦÙħØ®":2880,"ĠØ¥ÙĬ":2881,"ĠÙĥÙĦØ´ÙĬ":2882,"ĠØ§ÙĦØªØ§Ø±ÙĬØ®":2883,"ĠÙĤÙĨØ¯ÙĬÙĦ":2884,"ĠØ§ÙĦØ§Ø´":2885,"ĠØ¨Ø¯Ø§":2886,"ĠØ¹ÙĨØ§":2887,"Ø§Ø¯Ùĩ":2888,"ĠØ³ÙĨÙĪØ§Øª":2889,"ĠØµÙĪØ±":2890,"ĠÙħØ¹ÙĨØ¯":2891,"ĠØ§ÙĦÙģÙĨØ§ÙĨ":2892,"ĠÙĪØŃØ¯Ùĥ":2893,"ĠÙĤØ§ÙĦÙĥ":2894,"ĠØªØªÙģØ±Ø¬":2895,"ĠØ§ÙĦØ±Ø³ÙĪÙĦ":2896,"ÙĤØ³ÙĬÙĥ":2897,"ĠÙĬØ£":2898,"ĠØ³Ø±":2899,"ĠØ§ÙĦØ¬ÙĦÙģØ©":2900,"ĠÙĤÙĨØ§ØªÙĬ":2901,"ĠØ®Ø±Ø¬Øª":2902,"ĠÙĥØ±Ùĩ":2903,"ĠÙĥÙĪØ±ÙĪÙĨØ§":2904,"ĠØ´Ø±Ùģ":2905,"ĠØ®ØªÙĬ":2906,"ĠØ¥Ø®":2907,"ĠØ²ÙħØ§ÙĨ":2908,"ĠØªØŃÙĥÙĬ":2909,"Ø¨ÙĪÙĨ":2910,"ĠÙħÙĪØ¬":2911,"ĠØ¹Ø§Ø´":2912,"ĠØ±Ø§Ø¬":2913,"ĠØ£ÙĦÙģ":2914,"ØªÙĬÙĥ":2915,"ĠØ§ÙĦØ®Ø·":2916,"ĠØªØ¨ÙĤÙī":2917,"ĠØªØ³ØªØŃÙĤ":2918,"ĠÙħØ§ÙĥØ§ÙĨ":2919,"ĠØ¬ÙħØ§Ø¹Ø©":2920,"ĠÙħÙĨÙĬ":2921,"Ø¶Ø§Ø¡":2922,"ĠØ§ÙĦÙħÙĦÙĬÙĪÙĨ":2923,"ĠØ§ÙĦÙħÙĪØ±Ø§ÙĦ":2924,"ĠÙĥØ±ÙĬÙħÙĪ":2925,"Ø¹ÙĨØ§":2926,"ĠÙĪØ§ÙĦØ´":2927,"ĠØºØ§ÙĦØ·":2928,"ĠÙĦÙĥÙĬ":2929,"ĠØ§ÙĦÙĪØ§ØŃØ¯":2930,"ĠÙĦØ§ÙĨÙĪ":2931,"ĠÙĬÙĩØ¯ÙĬ":2932,"ĠØ¯Ø§Ø®ÙĦ":2933,"ĠØ§ÙĦÙĨÙĩØ§Ø±":2934,"ĠØ¯ÙĬØ§ÙĦ":2935,"ĠØ®Ø§ÙĪØ©":2936,"ĠØ§ÙĦØ´ÙĬØ®":2937,"ĠØ±Ø¬Ø§ÙĦ":2938,"ĠÙĦØ§Ùģ":2939,"ĠØ±Ø¬ÙĦ":2940,"ĠØ§ÙĦÙħÙĤ":2941,"ĠØµØ¨Ø§ØŃ":2942,"ĠØ¢ÙħÙĬÙĨ":2943,"ĠÙĪÙĬØ±ØŃÙħ":2944,"if":2945,"ĠÙĬÙĨØª":2946,"ĠØªØ§ÙĥÙĦ":2947,"ĠØ¹Ø²":2948,"ĠÙĤØ·":2949,"ĠÙħØ«Ø§ÙĦ":2950,"ĠØ¯Ø§ÙĬÙħØ§":2951,"ĠØ¹Ø±Ø¨ÙĬØ©":2952,"ĠÙĥØªØ±":2953,"ĠØ§ÙĦÙĥÙĦØ§Ùħ":2954,"ĠÙĬÙĤÙĪÙĦÙĥ":2955,"ĠØ¹ÙħØ±Ùĥ":2956,"Ġune":2957,"ÙħØ§Ø±":2958,"ØªØµ":2959,"Ø¨Ø§Ø¯":2960,"Ø¯ÙĨØ§":2961,"ĠÙĬØ¹Ø¬Ø¨":2962,"Ø§Ø§":2963,"ÙħØ³ÙĦØ³ÙĦ":2964,"ĠÙħÙĬÙħ":2965,"ĠØ§ÙĦØªØ£ÙĦÙĤ":2966,"Ø³Ø¨Ùĩ":2967,"ĠÙħÙĪÙģÙĤ":2968,"ĠØ±Ø²ÙĤ":2969,"Ø£ÙĦ":2970,"ĠØ²ÙħÙĨ":2971,"ĠÙħØ´Ø±ÙĪØ¹":2972,"Ø§Ø·Ø±":2973,"ĠØ¨Ø§ØºÙĬ":2974,"ÙĪØªÙĪØ¨":2975,"ÙĩØ¨":2976,"ÙĩÙĦÙĥ":2977,"ØªÙĬÙĨ":2978,"ÙģÙĪØ±":2979,"ĠÙĦÙĬÙĩØ§":2980,"ØŃÙħØ¯Ùĩ":2981,"ĠÙħØ§ÙĨÙĬØ´":2982,"ĠÙĪØ§ÙĦØŃÙħØ¯":2983,"ĠÙĦÙĬÙĥÙħ":2984,"ÙĨÙĬØª":2985,"ÙģØ¸Ùĥ":2986,"ta":2987,"Ø§ÙĨØ³":2988,"ĠÙĥÙĦÙĬ":2989,"Ø·ÙĪÙĦ":2990,"Ø§ØªÙĩÙħ":2991,"ĠØ®Ø§Ø±Ø¬":2992,"Ø§Ø®Ø±":2993,"ĠØ§ÙĪÙĥÙĬ":2994,"ĠÙĦÙĩØ°Ø§":2995,"ĠØªÙģÙĥØ±":2996,"ïº":2997,"ÙģØ§Ø¡":2998,"ĠÙĦØ¨ÙĦ":2999,"ĠØ¹ÙĬØ´":3000,"ÙĬØ±ÙĪ":3001,"Ø·Ø¨":3002,"ĠØ¯ÙĬØ±ÙĦÙĨØ§":3003,"ĠØ¶ØŃÙĥØª":3004,"ĠÙĦÙĨØ§Ø³":3005,"ĠÙĪÙĬØ´ÙģÙĬ":3006,"ĠØªØ§ÙĪØ¹Ùĥ":3007,"ĠØ§ÙĦÙĦÙĤ":3008,"ĠÙħÙĬØª":3009,"ĠÙĦØ¯ÙĬ":3010,"ÙĩÙħØ§":3011,"ĠØ§ÙĦØ®Ø¯Ùħ":3012,"ØªØ´Ùģ":3013,"Ġal":3014,"ĠÙĤÙĦØ¨Ùĥ":3015,"ĠÙĥÙĦØ§ÙħÙĥ":3016,"ge":3017,"ĠØ±Ø§Ø¨":3018,"Ø§Ø±Ø¹":3019,"ĠØ¬Ø²ÙĬ":3020,"Ø§ØŃÙĩ":3021,"ĠØµØŃØ¨":3022,"ĠØ¹ÙĦØ§Ø¨Ø§ÙĦÙĬ":3023,"Ø¹Ø§Ùħ":3024,"Ø¹ÙħØ§ÙĦ":3025,"ĠØ¨Ø§ÙĨ":3026,"ĠØªÙĤØ¯Ùħ":3027,"ĠØ§ÙĦÙħÙĩ":3028,"ĠØµØŃØ§Ø¨":3029,"ĠÙĪØ¨Ø±Ùĥ":3030,"Ġex":3031,"ĠØµÙĪØ§ÙĦØŃ":3032,"ĠØ¹Ø³ÙĦÙĬ":3033,"ÙĨØµ":3034,"ĠÙĬØŃÙħ":3035,"Ø¬ÙĬØ¨":3036,"ĠÙĥÙĦÙĩØ§":3037,"Ø³ÙĬÙĪÙĨ":3038,"ĠÙĪØŃÙĨØ§":3039,"ĠÙĬÙĤÙĪÙĦÙĦÙĥ":3040,"ĠØ®Ø·Ø±Ø©":3041,"ĠØ§ÙĦØ±ØŃÙħÙĨ":3042,"ĠØ®Ø³Ø§Ø±Ø©":3043,"ĠÙĬØ¹Ø§ÙĪÙĨÙĥ":3044,"me":3045,"ÙĨØ¨":3046,"ĠØ¨ÙĪØ¯ÙĥØ§Ø³Øª":3047,"ĠÙħÙĨØ·ÙĤØ©":3048,"ĠØºØ§Ø¯ÙĬ":3049,"ĠÙĨØªÙħÙĨ":3050,"ĠØ²Ø¹ÙģØ§ÙĨ":3051,"te":3052,"ĠÙĬØ§ÙĪ":3053,"ĠÙĦØŃÙħ":3054,"Ø§Ø³Ø·":3055,"ĠÙĬØ¹Ø§ÙĪØ¯":3056,"ĠØ§Ø¬ÙħØ¹ÙĬÙĨ":3057,"ĠØ´Ø§Ø¨ÙĬÙĨ":3058,"ĠØŃÙĪØ§ÙĬØ¬":3059,"Ġč":3060,"ĠØªØ¯ÙĬ":3061,"Ø§Ø±ØŃ":3062,"ĠØ§ØŃØ¨Ùĥ":3063,"ĠØ§ÙĦÙĦÙĬÙĦ":3064,"Ġpr":3065,"ĠÙĤØªÙĦØªÙĨÙĬ":3066,"ĠØµØ¯ÙĬÙĤÙĬ":3067,"Ø§ÙĦØ§Øª":3068,"ĠØ§ÙĦØªÙģ":3069,"Ø§Ø°ÙĨ":3070,"ĠØªÙħØ´ÙĬ":3071,"ĠØ§ØµØ¨ØŃ":3072,"ĠÙĪØµÙĦØª":3073,"Ø¨ØµØŃØªÙĥ":3074,"ĠØ§ÙĦÙħØ³ÙĦØ³ÙĦØ§Øª":3075,"Ø§ÙĦØ¬":3076,"ÙħÙĦÙĥ":3077,"ĠØ¨ÙħØ§":3078,"ĠÙĨØ§Ø¬ØŃ":3079,"Ø§ÙħÙĬÙĨ":3080,"ĠÙĪØ§ÙĦÙģ":3081,"Ø®ÙĦØ·":3082,"ĠØ¯Ø§Ø±ÙĪ":3083,"ĠÙĨØµÙĬØŃØ©":3084,"ØŃØ§Ø¨":3085,"ĠÙģÙĬØ§":3086,"ĠØ±Ø¢":3087,"Ø²ÙĨ":3088,"ĠØ§ÙĦØ¬Ùħ":3089,"ĠÙħØ¹Ùĩ":3090,"Ø§ÙĪÙĬØ©":3091,"ÙĬÙĥØ§ÙĨ":3092,"Ø¨Ø±Ø©":3093,"ĠÙĪØŃØ¯ÙĪ":3094,"ĠÙħØ±Ø§Ø¯":3095,"ÙĥÙĨÙĩ":3096,"Ø§ÙĤÙĦ":3097,"ĠØªÙħØ±":3098,"ĠÙĦØ§Ø´":3099,"ĠØ¹Ø¨ÙĦØ©":3100,"Ø§ÙħÙĥ":3101,"ĠØºØ±ÙĬØ¨":3102,"Ø±ÙģØ©":3103,"ĠÙĩØ§Ø¯ÙĪ":3104,"Ø¯Ø§Ø¯":3105,"ĠÙĬØ¶":3106,"Ø§Ø±Øª":3107,"ĠØ³Ø¤Ø§ÙĦ":3108,"ĠÙħØ¹ÙĩÙħ":3109,"ĠÙĬØ¹Ø¬Ø¨ÙĨÙĬ":3110,"ĠØ§ÙĦÙĨØ§Ø±":3111,"ĠØªÙĤÙĪÙĦÙĬ":3112,"Ø±Ø¯Ø§ÙĬØ©":3113,"ĠÙĬØ§Ø±Ø¨ÙĬ":3114,"ĠÙħØ¶":3115,"ĠÙĦØµ":3116,"ĠÙĤØ¯Ø±":3117,"ĠØ¨Ø§ÙĦÙģ":3118,"ÙĪÙĬØ³":3119,"ĠØ§ÙĦØ¯ÙĪÙĦØ©":3120,"ĠØ§ÙĦÙħØ¬ØªÙħØ¹":3121,"ĠØªØ®ÙĦØµ":3122,"Ø´ÙĦ":3123,"ĠÙĨÙĪÙĦÙĬ":3124,"Ø±ÙĬÙĩ":3125,"ÙĩØ¯Ø§Ø¡":3126,"ĠÙĦÙħØ§Ø°Ø§":3127,"ÙħØŃØªÙĪÙī":3128,"Ø¹ÙĨØ¯ÙĬ":3129,"ĠÙĬØ§Ø¬":3130,"ĠØªÙĨØª":3131,"Ø§ÙĬØ³":3132,"ÙģÙĬÙĩ":3133,"ĠÙĨÙĤØ¯":3134,"ĠØ³Ø·ÙĬÙģ":3135,"Ø§Ø¦ØŃ":3136,"ĠØ§ÙĦÙĥÙĦÙħØ©":3137,"ĠÙĬØ´Ø§ÙģÙĬÙĥ":3138,"ĠØ¯ÙĬØ¬Ø§":3139,"ĠØ£Ø®Ø±Ùī":3140,"ÙģÙī":3141,"ĠÙĦØ§ØŃ":3142,"ĠÙĤÙĦÙĬÙĦ":3143,"ÙĦÙĪÙĥØ§ÙĨ":3144,"Ø±ÙĪØ¬":3145,"ĠØ§ÙĦØŃØ¨":3146,"ĠØ§ÙĬÙĨ":3147,"ĠØ¹Ø¨Ø§Ø¯":3148,"ĠÙĦØºØ©":3149,"ĠÙĩØ¯Ø±":3150,"ĠÙĤÙĪÙĦÙĬ":3151,"ĠØ£Ø±ÙĪØ¹":3152,"ĠØ§ÙĨÙĩØ§":3153,"Ø§Ø³Ø±":3154,"ĠØ§ÙĦØŃÙĦÙĤØ§Øª":3155,"ĠØ¨Ø§ÙĥØ³ØªØ§ÙĨ":3156,"Ġo":3157,"ĠÙģÙĦØ§":3158,"Ø§ÙħØŃ":3159,"ĠØ§ÙĦÙħØ·":3160,"ĠØµØ§ÙģÙĬ":3161,"ĠØ´ÙģØªÙĪ":3162,"ire":3163,"ĠS":3164,"Ø¯ÙĬÙĪØ§":3165,"ĠØ§ÙĦÙħØ§ÙĦ":3166,"ĠØ§ÙĦØ¬Ø¯ÙĬØ¯":3167,"ĠÙĬØŃÙĥÙĬ":3168,"ĠØ¨ØºÙĬØª":3169,"ÙģÙĬØ±":3170,"ĠØ¨ØªÙĪÙģÙĬÙĤ":3171,"ĠØ³Ø¨ÙĬ":3172,"ĠØ²ÙĬÙĨ":3173,"ĠÙĨÙģØ³ÙĬ":3174,"Ø¯ÙĪØ¯":3175,"ĠÙĦÙħÙĨ":3176,"ĠØ§ÙĦØ³Ø¹ÙĪ":3177,"Ø§Ø±Ø¨Ø©":3178,"ĠÙĪØ±Ø§ÙĨÙĬ":3179,"ĠØ¬ÙĬØ¬ÙĦ":3180,"et":3181,"ĠØ§ÙĦÙĦÙĪ":3182,"ĠØ¨Ø³Ø¨Ø¨":3183,"ÙĪÙĦÙĦÙĩ":3184,"ĠØ§ÙĦØ¬Ø§Ùħ":3185,"ÙĤÙĬÙĤÙĬ":3186,"ĠØ§ÙĦØ¨ØŃØ±":3187,"ÙĪÙĦÙĬÙĨ":3188,"rav":3189,"ĠØ²ÙĬØ§ÙĨ":3190,"ØªØ¨Ø±":3191,"ÙĬØ±Ø§ÙĨ":3192,"Ø§ÙħÙĨ":3193,"ĠØ®ÙĦÙĪ":3194,"ĠØ¥Ø³Ùħ":3195,"ĠØªØ¹ÙĦÙĬ":3196,"ÙĤÙĬÙĦ":3197,"ĠØ¨ÙĬÙĩÙħ":3198,"ĠÙĨØ®Ø±Ø¬":3199,"Ġ_":3200,"ØŃÙĪ":3201,"ĠØªØ¨Ø¯":3202,"ĠØ§ÙĦÙĥÙĪØ±ÙĪÙĨØ§":3203,"ĠÙĬØ¬ÙĪØ²":3204,"ĠÙĨØ¯ÙĬØ±ÙĪ":3205,"ĠÙĥØ¨ÙĬØ±Ùĩ":3206,"ĠØªØ±ÙĥÙĬØ§":3207,"ĠÙĪØ¯ÙĬ":3208,"Ø¯Ø¯":3209,"ĠØªÙĦØŃÙĤ":3210,"ĠÙĨÙħ":3211,"ĠÙĨØ§ÙĤ":3212,"Ø£ÙĨØª":3213,"ØªÙĪØŃØ´":3214,"ĠÙĦÙĦØ£Ø³Ùģ":3215,"ĠØ§ÙĦÙĥØ¨ÙĬØ±":3216,"ĠÙĬØ±ØŃÙħÙĩØ§":3217,"ĠØ¨Ø§ÙĬÙĨØ©":3218,"ay":3219,"ÙĪØ¡":3220,"ÙĥØ±ÙĬ":3221,"ĠÙĨØ¨ÙĬÙĦ":3222,"ĠØ§ÙĦÙħÙħØ«ÙĦ":3223,"ĠÙħØ¹Ø³ÙĥØ±":3224,"ĠÙĨØªØ¹":3225,"ĠØµÙĦØ§Ø©":3226,"Ø¹Ø¬Ø¨ÙĨÙĬ":3227,"ĠÙĬØ±Ø¬Ø¹":3228,"ĠÙĬÙģØ±ØŃ":3229,"ĠØ±Ùĥ":3230,"Ø§Ø±ÙĬØ©":3231,"Ø®Ø§Øµ":3232,"ĠÙĪØ§ÙĦØ¯ÙĬÙĥ":3233,"ĠØ§ÙĦØŃØ³":3234,"ĠØ²Ø±Øª":3235,"ĠØ±ÙĪÙĪØ¹Ø©":3236,"ĠÙĪÙĦØ§Øª":3237,"ĠØ§ÙĬØ¶Ø§":3238,"ĠØ¯ÙĬØ±ÙĨØ§":3239,"ĠØ£ØŃØ¯":3240,"ĠÙħØ¨Ø±ÙĪÙĥ":3241,"ĠØ·ÙĦØ¨":3242,"ĠÙĦÙĦØ§Ø³Ùģ":3243,"ĠÙĬØ³ÙħØ¹":3244,"ĠÙĬØ³ØªØ§ÙĩÙĦ":3245,"ÙĪØ§ÙĨÙĨØ§":3246,"ĠÙĪØ§Ø®":3247,"ĠÙĬÙĪØªÙĬÙĪØ¨":3248,"ĠØªØªØŃ":3249,"Ø§ÙĨØ¨":3250,"ĠØ§ÙĦÙĥØ§Ùħ":3251,"ĠØ±Ø§ØŃØª":3252,"ĠÙĬØ¬Ø¹ÙĦ":3253,"ĠÙĬÙĤÙĪÙĦÙĪ":3254,"ĠÙħØºØ§Ùħ":3255,"Ø¨Ø§ÙĦØªÙĪÙģÙĬÙĤ":3256,"ĠØ¬ÙĨØ§ØªÙĩ":3257,"ØµÙĪØ±":3258,"ĠØŃØµØ©":3259,"ÙĪÙĨØªØ§Ø±":3260,"Ø±ÙĥØ©":3261,"ĠØ§Ø¨ÙĪ":3262,"ĠÙģØ±ØŃØª":3263,"ĠØ´ÙĬØ®":3264,"ĠØµØºÙĬØ±Ø©":3265,"Ø±Ø§Ø±":3266,"Ø´ÙĤ":3267,"Ø®Ø±Ø©":3268,"ĠÙħÙĨØ°":3269,"ĠØŃØ§ÙĦØ©":3270,"ĠÙĤØ¯Ùħ":3271,"ĠÙĪØ§ÙĦØŃ":3272,"ØµØŃØ§":3273,"ĠØ§ÙĦØ±Ø§Ø¦Ø¹":3274,"ĠÙĦÙĩÙĨØ§":3275,"ĠÙĬØ¨ÙĤÙī":3276,"ĠØ£ÙĬØ¶Ø§":3277,"ĠÙģØ¹ÙĦ":3278,"ĠØ´Ø§":3279,"ĠØ§ÙĦÙħÙħØ«ÙĦÙĬÙĨ":3280,"Ø§ÙĥØª":3281,"ĠØµÙģ":3282,"ÙĦÙĪØ´":3283,"ĠÙĥÙĬÙģÙĬ":3284,"ĠÙħØ´Ø§ÙĩØ¯Ø©":3285,"ĠÙĪØŃØ¯ÙĬ":3286,"ĠÙĨØ³ÙĤØ³ÙĬÙĥ":3287,"ĠØ§ÙĦØ²ÙĪ":3288,"ĠÙĪÙĥØ§ÙĬÙĨ":3289,"ĠØ§ÙĦØ¬ÙħÙĬÙĦØ©":3290,"Ġdonc":3291,"Ø±Ø¹":3292,"ĠÙĬÙĦ":3293,"ĠØ¹Ø±Ø¨":3294,"Ø§Ø±ÙĤ":3295,"ĠÙĪØ§ÙĦØ³":3296,"Ø³ØªØºØ±Ø§Ùħ":3297,"ĠÙĪÙĬÙĪØ³Ø¹":3298,"ØªØ±Ø§Ùħ":3299,"ĠÙĤØ§ÙĦÙĩØ§":3300,"ĠÙħØ¬ÙĩÙĪØ¯":3301,"ĠØ¨Ø¬Ø§ÙĬØ©":3302,"ĠØªÙħÙĨØ±Ø§Ø³Øª":3303,"ĠÙĥÙĪØ±":3304,"Ø¶ØŃ":3305,"ĠØ§ÙĦØ¹Ùħ":3306,"ĠØ·Ø§ØŃ":3307,"ĠØ§Ø¹ÙĦÙħ":3308,"Ø¹Ø±ÙģØ´":3309,"ÙĬØ§Ø®ÙĪÙĬØ§":3310,"ØªÙĤ":3311,"Ø¨ÙĦÙĬ":3312,"ĠØ¨ÙĪÙĥ":3313,"ĠÙĨÙģØ±ØŃ":3314,"ĠØ§ÙĦÙħÙĦ":3315,"ÙĬØ§Ùĩ":3316,"Ø±ÙĪÙĨØ§":3317,"ÙĨØªØ§Ø±":3318,"ĠØ§ÙĦØ£ÙĪÙĦ":3319,"ĠÙģØ±ØŃ":3320,"ĠØ¢ÙĦ":3321,"ĠÙĦØŃÙĤ":3322,"Ġplus":3323,"ne":3324,"ÙĪØµ":3325,"ĠØ§ÙĦØ±ÙĪ":3326,"ĠÙĬØ±Ùģ":3327,"ant":3328,"Ġfr":3329,"ĠÙĪÙģÙĤÙĥ":3330,"ĠÙħØ§Ø¹ÙĨØ¯":3331,"ĠØ§ÙĦØ¨ÙĬØª":3332,"ÙĬØ§Ø±":3333,"ĠØ£Ø¯":3334,"Ø§Ø¹Ø±":3335,"Ø§Ø¦Ø¹Ø©":3336,"ĠØ°ÙĥØ±":3337,"ĠØ§ÙĪÙĦØ§Ø¯":3338,"Ø§Ø³ÙĬÙĪÙĨ":3339,"ĠØ³ÙĪØ±":3340,"ĠÙħØ¹ÙĨØ§":3341,"ĠÙĨØªÙĦØ§ÙĤ":3342,"ÙħÙĬÙĦ":3343,"Ø§Ø²Ø©":3344,"ĠØµØŃØ±Ø§Ø¡":3345,"ĠÙĨØŃØ¨ÙĥÙħ":3346,"ĠÙĬØ¯ÙĪÙħ":3347,"ĠÙħØºØ±Ø¨ÙĬ":3348,"ĠØ¨Ø¥Ø°ÙĨ":3349,"ĠØ«ÙĤØ§ÙģØ©":3350,"ĠÙħÙģÙĬ":3351,"ĠÙħÙģÙĩÙħ":3352,"ĠÙģØªØŃ":3353,"ĠØ§ÙĦÙħÙĪØª":3354,"Ø§Ø¬Ø¨":3355,"ĠØ§ÙĦØµØ§ÙĦØŃ":3356,"Ø±ÙĬØ¨Ø§":3357,"ĠÙĬØ§Ø®ÙĬ":3358,"ÙĪØ§Ø¡":3359,"ĠØ§ÙĦÙħØ±Ø©":3360,"ÙĬØ§ÙĪ":3361,"ÙĦÙĪÙĩ":3362,"ÙĦÙħØ§Øª":3363,"ĠØ§ÙĦØªØ³":3364,"ĠØªÙĨØ¬ØŃ":3365,"ĠÙĪÙĬØ¯":3366,"ĠÙħÙĨØ§Ø²":3367,"Ø§ÙĬØµ":3368,"Ø§ÙĩÙĬØ©":3369,"ÙĦÙĪÙĥ":3370,"ĠÙĬØŃÙĪØ³":3371,"ÙĨØ¯ÙĤ":3372,"ĠÙĤÙĨÙĪØ§Øª":3373,"ĠÙĪØªÙĪ":3374,"ĠÙĨÙĥØ±Ùĩ":3375,"Ø¯ÙĬØ«":3376,"ĠÙĨØªØ¹ÙĦÙħ":3377,"ĠØ§ÙĦØ¯Ø¹":3378,"ĠØ¨ÙĦØ§Ø¯ÙĥÙħ":3379,"ĠÙĩØ§Ø¯ÙĬÙĥ":3380,"Ġpro":3381,"ÙĬÙģØ©":3382,"ĠØ§ÙĦØ¥ÙĨØ³Ø§ÙĨ":3383,"ĠØ§ÙĦØ®Ø¯ÙħÙĩ":3384,"ØŃÙĬÙĦ":3385,"ĠØªÙĦÙģ":3386,"ĠØ¹Ø§ÙĪÙĨ":3387,"ĠØ±Ø¯":3388,"ĠÙĩØ§ÙĩØ§":3389,"ĠØŃÙĦÙĤØ§Øª":3390,"ĠØ³Ùĩ":3391,"ĠØ§ÙĦØ¹ÙĦÙĬ":3392,"ĠØªØ¹Ø·":3393,"ĠØ¨ÙĨØ§Øª":3394,"ĠÙĬÙĨØ¬ØŃ":3395,"ĠØ§ÙĦØŃØ§Ø¬Ùĩ":3396,"ĠÙģØ¶ÙĦ":3397,"Ø§ÙģÙĤ":3398,"ĠØ§ÙĦØ¨ÙĪØ¯ÙĥØ§Ø³Øª":3399,"ĠØ±ÙĪØ§ØŃ":3400,"ĠØ®ÙĦØ§ÙĦ":3401,"ĠØ±ØŃÙħØ©":3402,"Ø¯ÙĨ":3403,"ĠØ§ÙĦÙħØ§Ø¡":3404,"ĠØ§ÙĦØ³ÙģØ±":3405,"ĠÙĬØ¨Ø¯Ø§":3406,"ĠÙĨØ¨Ø¯Ø§":3407,"ĠØ¨Ø§Ø¨Ø§Ùĥ":3408,"ĠÙĪØ¨Ø±ÙĥØ§ØªÙĩ":3409,"Ġin":3410,"ĠÙĪØ±ØŃÙħØ©":3411,"ÙĤØ§ÙģØ©":3412,"Ø³ÙĪÙĨ":3413,"ĠØ¨Ø§Ø°ÙĨ":3414,"Ø´ÙĪ":3415,"ĠØ¯ÙĨÙĬØ§":3416,"ØºØ·":3417,"ĠØµØ§ÙĬ":3418,"ÙĨÙĬÙĥ":3419,"ĠØ§ÙĦØ¹Ø§Ø¯Ø©":3420,"ØªÙĪÙĩØ§":3421,"ĠØ§ÙĦØŃÙĤÙĬÙĤØ©":3422,"ĠÙĦÙĦØ£":3423,"ÙĬØªØ´":3424,"ĠØ¯Ø±ÙĨØ§":3425,"ĠÙĤØ§Ø¯Ø±":3426,"ĠÙĪØ§Ø¨":3427,"ĠÙĬØªÙĥÙĦÙħ":3428,"ĠÙģØ§Ø´":3429,"ĠÙĦÙĤÙĬ":3430,"ĠÙĨØªÙħÙĨØ§":3431,"ĠÙĩÙĥØ¯Ø§":3432,"au":3433,"ĠØ§ÙĦÙĬØ¯":3434,"Ø´Ùħ":3435,"ĠØŃØ§ÙĪÙĦ":3436,"ĠØ£ÙĤ":3437,"ĠØ§ÙĦÙĨØ¸":3438,"ÙħÙĪØŃ":3439,"ĠØ§ÙĦØ·ÙĬØ¨":3440,"ĠÙħØ®Ø±Ø¬":3441,"ĠÙĬÙĤØ¯Ø±Ùĥ":3442,"ĠÙħÙĦØ§ÙĬÙĨ":3443,"ĠØ¬Ø²ÙĬÙĦØ§":3444,"ØªÙĨ":3445,"ĠÙĪØ§Ùĥ":3446,"ĠØ±Ø§Ø³ÙĬ":3447,"ØµØ¯ÙĤ":3448,"ĠØŃÙĤÙĬÙĤØ©":3449,"ĠØ§ÙĦÙħØ³ÙĦÙħ":3450,"ĠØ¥ÙĦÙĬ":3451,"Ø¹Ø¯Ùĥ":3452,"ĠÙħØ«ÙĪØ§Ùĩ":3453,"ĠÙĬØ³ÙĩÙĦ":3454,"ĠÙĬÙħØ´ÙĬ":3455,"ĠÙĩÙĪØ§":3456,"ĠØ´Ø±ÙĬ":3457,"ĠØºØ±Ø¯Ø§ÙĬØ©":3458,"ĠØ§ÙĥØ³":3459,"ĠÙĦÙĩØ¬":3460,"ĠØŃÙĤØ§":3461,"Ġmais":3462,"Ø³Ùĩ":3463,"ĠÙĦØ§Ø®":3464,"Ø®Ø°":3465,"ĠØ¹ÙĨÙĩ":3466,"ÙģÙĬÙĥ":3467,"ÙĥØ±Ùħ":3468,"ĠØ§ÙĦÙĤØ¨":3469,"ĠØ§ÙĦØ¨Ø±ÙĪ":3470,"ĠØ§ÙĦØ³Ø±":3471,"ĠØ±ÙĬØ§Ø¶":3472,"Ø¹ÙĨØ¯Ùĥ":3473,"ĠØ¨ÙĬÙĨØ§":3474,"ĠØªÙĪÙĥ":3475,"ĠØªØ§Ø¹ÙĩØ§":3476,"ĠÙĪÙĬÙĪÙģÙĤÙĥ":3477,"ĠØ¨ØµØŃØªÙĥÙħ":3478,"ĠÙĪÙĨØ¹":3479,"ĠÙĪØ¨Ø§ÙĦ":3480,"ĠÙĨØ´Ø±ÙĬ":3481,"ĠØ³Ø¨Ø¨":3482,"Ġon":3483,"ĠØªØ²":3484,"ĠØªØ«":3485,"ÙĬØ±Ùĩ":3486,"ĠØ§ÙĦÙĦÙĩØ¬Ø©":3487,"Ø§ØŃÙĬ":3488,"ÙĨÙĬØ´":3489,"ØµØŃØ©":3490,"ÙĦÙĤÙĩ":3491,"ĠÙĪÙĬØºÙģØ±":3492,"ĠØ§ÙĦØ£Ø³":3493,"ĠØ§ÙĦØ³Ùħ":3494,"Ø§ÙĦØŃÙĦÙĤØ©":3495,"Ø®Ø±ÙĬÙĨ":3496,"ĠØ§ÙĦØ²ÙĬÙĨ":3497,"ĠØ¨ÙĩØ°Ø§":3498,"ĠØ®Ø¯ÙħÙĩ":3499,"ĠÙĨØŃÙĥÙĬ":3500,"ĠÙħØ§ÙģÙĩÙħ":3501,"ĠØ¨Ø³Ùħ":3502,"Ø·Ø§Ø¡":3503,"Ø³ÙħØŃ":3504,"Ġvlog":3505,"ĠØ§ÙĦØ§Ø®Ø±":3506,"ĠÙĥÙħÙĦÙĪ":3507,"ĠØ¬ÙħÙĬØ¹Ø§":3508,"ĠÙģÙĦÙĪÚ¨":3509,"ĠØ§ÙĦÙĩØ¯Ø±Ø©":3510,"ĠÙħÙĪØ³":3511,"ÙģØ±ÙĬ":3512,"ĠÙĬÙģØ±":3513,"Ø®Ø³":3514,"ĠØ§ÙĦÙħÙĬ":3515,"ĠØ§ÙĦÙħØ§Ùĥ":3516,"ÙĬØ´Ø©":3517,"ĠØ¨ÙĨØ§Ø¯Ùħ":3518,"ĠÙĬØ§Ø®ÙĪ":3519,"ÙĬØ§Ø¡":3520,"Ø§ÙĦØ¬Ø²Ø§Ø¦Ø±":3521,"ĠÙĪØ¯ÙĬØ±":3522,"Ø¹ÙĪÙĨ":3523,"Ø°Ø±":3524,"ĠØ³ÙĥØ§ÙĨ":3525,"Ø§Ø¨Ø§Øª":3526,"ĠØ§ÙĦØ¹Ø§Ø¦ÙĦØ©":3527,"Ġto":3528,"ans":3529,"ĠÙĨØ¨ØºÙĬ":3530,"ĠØªØªÙĥÙĦÙħ":3531,"ĠÙĥØ°ÙĦÙĥ":3532,"ĠØ¬Ø§Ø¡":3533,"ĠÙĦÙĦÙĨØ§Ø³":3534,"ÙħÙĪÙĩØ§":3535,"ĠØ§ÙĦØ®Ø¯ÙħØ©":3536,"ĠØ±ÙħØ¶Ø§ÙĨÙĥ":3537,"ĠÙħØ±Ùĩ":3538,"ÙĪØªÙĨØ§":3539,"Ġmo":3540,"ĠØªØµÙĪØ±":3541,"ĠØ±Ø§Ø³Ùĥ":3542,"ĠØ§ÙĦØ¨ÙĦØ¯Ø§ÙĨ":3543,"ĠØ§ÙĦØŃØ¨ÙĬØ¨Ø©":3544,"ÙĦØ§Ø²Ùħ":3545,"ØªØ³ØªØ§ÙĩÙĦ":3546,"ĠÙĬÙĤØªÙĦ":3547,"ĠØªØ²ÙĪØ¬":3548,"Ø¬Ø§Ùħ":3549,"ÙĪÙĨØ§ÙĦ":3550,"ĠÙĤÙĬÙħ":3551,"Ø³ØªØ§":3552,"ÙĦÙħÙĪ":3553,"ĠØ¥Ø³Øª":3554,"ĠØ·Ø§ÙĤØ©":3555,"Ø§Ø²ÙĬÙĥ":3556,"ĠØ§ÙĦØ´ÙĩØ±":3557,"ĠØ§ÙĦØ¨Ø¯":3558,"Ø¨Ø¯Ø§Ø¹":3559,"ĠÙģØ±ØŃØ§ÙĨ":3560,"Ø¨ÙĪÙĨÙĬ":3561,"ĠÙħØ³ÙĦÙħÙĬÙĨ":3562,"ĠØŃØ§Ø¨Ø©":3563,"ĠÙĤØ¹":3564,"ĠØ§ÙĦØ¬Ø§ÙĬØ©":3565,"ĠØ§ÙĦÙħØ´Ø§ÙĩØ¯":3566,"ĠØ¨Ø·Ø±ÙĬÙĤØ©":3567,"ĠØ§ÙĦØ±ØŃÙĬÙħ":3568,"ĠØ§ÙĦØ¬ÙħÙĬÙĦ":3569,"ak":3570,"ig":3571,"ĠØ§ÙĦÙĪÙĥ":3572,"ĠÙħÙĦÙĥ":3573,"ĠÙĬØ¨Ø¯":3574,"ĠØªØ¶":3575,"Ø§ÙĩØ±":3576,"ĠØ£ÙĨÙĥ":3577,"ĠÙģØ§ÙĦØ¬Ø²Ø§Ø¦Ø±":3578,"ÙĨØ³Ø§Ø´":3579,"ĠØ¹Ø´ÙĪØ±":3580,"Ø°ÙĩØ¨":3581,"ĠØ¨Ø§ÙĬ":3582,"ĠØªÙĪØ¨":3583,"ĠÙĨØ´Ø§Ø¡":3584,"ĠÙĤØ§Øª":3585,"ĠÙħØ´Ø§ÙĥÙĦ":3586,"Ø§Ø·Ø¹":3587,"ĠÙĪØ§ØŃØ¯Ø©":3588,"ĠÙĪÙħØ±":3589,"ĠÙĪÙĨØ´":3590,"ĠÙĥÙĬÙģÙĥ":3591,"ĠÙĨØŃØ·":3592,"ĠØªÙĤØ±ÙĬØ¨Ø§":3593,"ĠØŃØ¨Ø©":3594,"ĠØ´Ø®ØµÙĬØ©":3595,"Ø¬Ø²Ø¡":3596,"ĠØªÙĪØŃØ´ÙĨØ§Ùĥ":3597,"ÙĩØ§ÙĩØ§ÙĩØ§":3598,"ĠÙĬØ±Ø²ÙĤÙĥ":3599,"Ø§Ø²ÙĬØºÙĬØ©":3600,"ĠÙĤÙĬÙħØ©":3601,"ĠØ§ÙĦÙĪØ§ÙĦØ¯ÙĬÙĨ":3602,"ĠØ¨ÙħØ¹":3603,"ĠØ¨Ø£ÙĨ":3604,"ĠØ¹Ø¨Ø±":3605,"ØµØµ":3606,"Ø§ÙħÙĩ":3607,"ĠØ¨Ø§ÙĦØŃ":3608,"ÙĦÙĥÙĨ":3609,"ĠØ¨Ø±ÙĩØ§ÙĨ":3610,"ĠÙĨÙĤØ±Ø§":3611,"ĠØªØ³ÙħØ¹":3612,"ĠØ£Ø¨ÙĪÙĨÙĬ":3613,"ĠØ§ÙĦØ±ØŃÙĦØ©":3614,"ÙĦØ§ÙĨ":3615,"ÙĪØ·":3616,"Ø¯Ø«":3617,"ĠØªÙĦÙĥ":3618,"ĠØ¹ÙĦØ¨":3619,"Ø°Ø§Ø¨":3620,"Ø§ÙĬØ¨":3621,"ĠØ§ÙĦÙģØ±Ø¯":3622,"ĠØ§ÙĦØ¯Ø±Ø§ÙĩÙħ":3623,"ÙĬØ§ØªÙĨØ§":3624,"ĠØ¯ÙĬØ±ÙĪÙĦÙĨØ§":3625,"ĠÙħÙĬØ³":3626,"handpinkwavinghandpinkwavinghandpinkwavinghandpinkwaving":3627,"ĠØµÙĨØ§Ø¹":3628,"ĠØªØ¹ÙĦÙĬÙĤÙĬ":3629,"ĠÙħÙĨØ§Ø²Ø¹":3630,"ÙĨØŃØ¨":3631,"Ø±Ùħ":3632,"ĠØ¨Ø±ÙĬ":3633,"ĠØªÙĦØ§":3634,"ĠØ£Øº":3635,"ĠØ§ÙĦØŃØ§Ø¬Ø©":3636,"ĠØªØ¹ÙħÙĦ":3637,"ĠØ§Ø®ÙĪÙĬØ§":3638,"ÙĪÙĬÙĪØ±Ùĥ":3639,"ĠØ§ÙĦØµØ¨Ø±":3640,"ĠØ¨ÙĦÙĬØ²":3641,"ous":3642,"ĠØ§Ø¬ÙĦ":3643,"ĠØªØ´Ø±ÙĬ":3644,"ĠÙĬØ³ØªØ±Ùĥ":3645,"ĠÙħÙĦÙĬØŃÙĩ":3646,"ĠØ¹ÙĤÙĦÙĥ":3647,"ĠØµØ¹ÙĬØ¨":3648,"ĠØªÙĪØ¬":3649,"ĠØ§ÙĦØ¬ÙĨÙĩ":3650,"ÙħÙĬÙĩ":3651,"ĠØ§ÙĦØªØ±Ùĥ":3652,"Ġtout":3653,"ĠØ¨Ø§ØªÙĨØ©":3654,"ĠÙĪØ§Ø¶":3655,"ĠÙħÙĤØ¯":3656,"ĠÙħØ¯ÙĬØ±":3657,"ĠÙģÙĦÙħ":3658,"ÙĦÙĬØ¨":3659,"ĠØŃØª":3660,"Ø¯ÙĬØ¯Ø©":3661,"ÙĪÙĦØ¯":3662,"ĠÙĪØ§ÙĦØ¯":3663,"ĠÙĪØ§ÙĦØ¯ÙĬ":3664,"ØªÙĪØ¬":3665,"ÙĪÙħÙĬ":3666,"ĠØ¥ÙĨÙĩ":3667,"ÙĪÙĤØ¹":3668,"ÙĪÙĤÙģ":3669,"ĠØ§Ø¯Ø§":3670,"ĠØ¯Ø¹ÙĪØ©":3671,"ĠÙĪØ¹Ø¯":3672,"ĠÙģØ§Ø±Ø³":3673,"ĠØŃØ³ÙĬØª":3674,"ĠØ§ÙĦÙħÙĪØ³Ùħ":3675,"Ø§ÙĬØŃ":3676,"Ø§ÙĪØ´":3677,"ĠÙĬØªØ¨Ø¹":3678,"ĠØªØ´Ø¨Ùĩ":3679,"Ġjai":3680,"ĠØ¨ÙĬØ§":3681,"ĠØŃØ´":3682,"ĠÙĤØµØ©":3683,"ĠØ³ÙĤ":3684,"Ø§Ø¨Ø·":3685,"ĠÙĪØ§ÙĦÙĬ":3686,"ĠÙĩØ°ÙĪÙĥ":3687,"ĠØ§ÙĦÙģÙĤ":3688,"Ġthe":3689,"ĠÙĤØ¯Ø§Ùħ":3690,"ĠØ§ÙĦØ¬Ø²Ø§Ø¡Ø±":3691,"ia":3692,"ÙĨÙĥ":3693,"ĠØ§ÙĦØ§ÙĨØª":3694,"ĠÙħØ§Ø³":3695,"ĠÙĬØ¶Ø±Ø¨":3696,"ĠÙħØ¹ÙĬ":3697,"ÙĤÙĬÙħ":3698,"ĠØ§ÙħØ±":3699,"ĠØ§ÙĦØµØ¨Ø§ØŃ":3700,"ĠÙĨÙģØ³Ùĩ":3701,"ĠÙĩØ¯Ø±Øª":3702,"ĠØ§ÙĤØ³Ùħ":3703,"ĠÙĪÙĦÙĩ":3704,"ÙĦÙĬÙħØ§":3705,"ØµÙĬ":3706,"ĠØ§ÙĦÙħØ±Ø¶":3707,"ØµØŃÙĥ":3708,"Ø§Ø¬Ø±":3709,"Ø§Ø²Ø§ÙĦ":3710,"ĠØ§ÙĦÙĬÙĪØªÙĪØ¨":3711,"ĠÙĪØ´ÙĨÙĪ":3712,"ĠÙħØ¬Ø±Ø¯":3713,"ĠØ§ÙĦÙħÙĪØ¶ÙĪØ¹":3714,"Ø¬Ø§Ø¨ÙĬ":3715,"ĠØ¨Ø§ÙĦÙĨØ³Ø¨Ùĩ":3716,"ĠØŃÙĦÙħÙĬ":3717,"ĠØºÙĦØ·":3718,"Ø±Ø§ÙĪ":3719,"ĠØ¹ÙĬØ·":3720,"Ø§Ø¯ÙĤ":3721,"ÙĪÙĨØ¯":3722,"ÙĬØ¯Ø©":3723,"ĠØ¨ÙĦØ¯ÙĬ":3724,"ĠØ§ÙĦÙģÙĥØ±Ø©":3725,"ØŃØ¨Ø³":3726,"ĠÙĪÙĨØ§Ø³":3727,"ĠØªØ¨Ø¯Ø§":3728,"ĠØ§Ø³ØªÙħØ±":3729,"ĠÙĤØ§Ø¹Ø¯":3730,"Ø§ÙĦØ¹Ø§Ø¯Ø©":3731,"ĠÙĥØªØ§Ø¨":3732,"ĠØªØ·ÙĦØ¹":3733,"ĠØ§ÙĦØ³ÙĦØ·Ø§ÙĨ":3734,"ĠØ¬ÙħØ¹ÙĬ":3735,"ĠÙħÙĪÙĩ":3736,"ØŃØ·":3737,"ĠØ¨Ùģ":3738,"ĠÙĦÙĦÙĬ":3739,"ĠÙĪØ§ÙĦØ¬":3740,"Ø±ÙĪØ¶":3741,"ĠÙĪÙĦØ§ÙĬ":3742,"Ø®ÙĦÙģ":3743,"ĠØ§ÙĦØ®Ø§Ø±Ø¬":3744,"ĠÙĬØ´Ø¨Ùĩ":3745,"ess":3746,"ĠØªÙĤØ¨ÙĦ":3747,"ĠØªÙĤØ¹Ø¯":3748,"ĠÙĬÙĤÙĪÙĦÙĪØ§":3749,"ĠØ³Ø¨ØŃØ§ÙĨÙĩ":3750,"ĠÙĪØ§ÙĨØªÙħ":3751,"ĠØ®ÙģÙĬÙģ":3752,"Ø¨Ø±Ùĥ":3753,"ĠÙĪØºÙĬØ±":3754,"ĠÙģØ§ÙĨ":3755,"ĠÙĨÙĩØ¯Ø±":3756,"ĠÙĥØ¨Ø±":3757,"ĠØ§ÙĦÙħØ®Ø±Ø¬":3758,"ĠØºØ²":3759,"ĠØ§ÙĦØªÙĨ":3760,"ĠØ§ÙĦØªØ´":3761,"ĠØ§ÙĦØ´Ø±ÙĤ":3762,"Ø¨Ø±Ø§ÙģÙĪ":3763,"ĠÙĬØªØ¹":3764,"ĠÙħØ±Ø§Øª":3765,"Ġbon":3766,"ĠØ§ÙĦÙħØ³ØªÙĤØ¨ÙĦ":3767,"ĠØ±Ø¬Ø¹Øª":3768,"ÙĥÙĬÙģØ§Ø´":3769,"Ø§ÙĦÙĥÙħ":3770,"ÙħÙĬØ±":3771,"ĠÙĬØ¨ÙĬØ¹":3772,"ĠÙģØ³":3773,"ĠØªØ§ÙĨ":3774,"Ø§ØªÙĩØ§":3775,"ØºÙģ":3776,"ĠØ§ÙĦØ¬ÙħÙĬØ¹":3777,"ĠØ¹ÙĦÛĮ":3778,"ĠØ±Ø¢Ùĩ":3779,"Ø§ÙĤÙĬ":3780,"Ø§ÙĦØ¯":3781,"ÙĩØ§Ø¨":3782,"ĠÙħØ¯Ø±":3783,"ĠÙģØ®":3784,"ÙĪÙĨÙĥ":3785,"ĠØ³Ø®":3786,"ĠØµÙĪØ±Ø©":3787,"ĠÙħØ¹ÙĥÙħ":3788,"ĠØ§ØŃÙĦÙī":3789,"ĠÙĨØŃÙĬ":3790,"ÙģØªØ®Ø±":3791,"ĠØ§ÙĦÙħÙĨØ·ÙĤØ©":3792,"ĠÙĬÙĪØªÙĪØ¨":3793,"ĠØ¹ÙĦØ§ÙĤØ©":3794,"ĠÙħÙĩÙħØ§":3795,"Ø¯Ø§Ø¡":3796,"Ø¯ÙĪØ§":3797,"ÙĨØ§ÙĪ":3798,"ĠØ£ÙħØ§":3799,"ĠØ³Ø£":3800,"Ø§ÙĬØ¯":3801,"Ø§Ø¦ÙĬØ©":3802,"ĠØ§ÙĦØ¨Ø·":3803,"ĠÙħØªØª":3804,"ĠÙĨÙĤØµ":3805,"ĠØ§ÙĦØ¨Ø±ÙĨØ§ÙħØ¬":3806,"ik":3807,"Ġou":3808,"ĠØ§ÙĦÙĥÙĪÙĨ":3809,"ĠÙĬÙĦØŃÙĤ":3810,"Ø§ÙĨÙĪÙĨ":3811,"ÙĦÙĬÙģÙĪÙĨ":3812,"ĠØ§ÙĦØ¬ÙĨ":3813,"ĠÙĬØ¹Ø·ÙĬ":3814,"ĠÙĦÙĥØ§ÙĨ":3815,"ÙħÙĪØ¹":3816,"ĠØ§ÙĦÙĬÙħÙĨ":3817,"ĠØªÙĤÙĪÙħ":3818,"Ø¨ÙĦØ§Ø¯ÙĨØ§":3819,"ĠÙħÙĦØ§ÙĬÙĬÙĨ":3820,"ĠØ¬Ø²Ø§Ùĥ":3821,"ĠØ®Ø¯ÙħØª":3822,"ement":3823,"ĠØ§ÙĦÙĨØ³Ø§Ø¡":3824,"ĠÙĩØ§ÙĩØ§ÙĩØ§ÙĩØ§ÙĩØ§":3825,"ÙĩØ°ÙĬ":3826,"Ø¯ÙĦ":3827,"ĠÙħØ¯Ø©":3828,"ĠÙĬÙħØ¯":3829,"Ø·ÙĤ":3830,"ÙĪÙĬØ³Ø©":3831,"Ø¹Ø¨Ø§Ø³":3832,"ĠØ¹ÙħØ±ÙĪ":3833,"ĠÙĪØ§ÙĦÙĨØ¬Ø§ØŃ":3834,"ĠØ£ØªÙħÙĨÙī":3835,"ci":3836,"ÙĨÙĤ":3837,"ÙħÙĦÙĬ":3838,"ĠÙģÙĦÙĬ":3839,"Ø¬Ø§Ø±":3840,"ĠÙĥÙĦÙĩ":3841,"ĠØ´Ø§Ùħ":3842,"Ø¯ÙĬÙħØ©":3843,"ĠØºØ§ÙĦÙĬ":3844,"ĠØ§ÙĤØª":3845,"ĠØ§ÙĦØ³Ø¨":3846,"ĠØªØ³ÙĦÙĬÙħØ§":3847,"ĠØ§ÙĦÙħØºØ§Ùħ":3848,"ĠØŃÙĬØ§Ø©":3849,"ĠØ§ÙĦÙĪÙĥÙĬÙĦ":3850,"aw":3851,"ais":3852,"ĠÙĬØ±ÙĬØ¯":3853,"ĠÙģÙĤØ¯":3854,"ĠØªØ±ÙĬ":3855,"ĠÙĦÙĤØ·Ø©":3856,"Ø¬ØŃÙĥ":3857,"Ø§ØŃØ¨ÙĬ":3858,"Ø«ÙħØ±":3859,"ĠÙħØ³ÙĦØ³ÙĦØ§Øª":3860,"ĠÙģØ§Ø±":3861,"ØµØ§":3862,"ØµØ§ÙĦØŃ":3863,"Ø£Ø®ÙĬ":3864,"ĠÙħØ¹ÙĦÙĪÙħØ©":3865,"ĠÙģÙĬØ¯ÙĬÙĪØ§Øª":3866,"Ø¨Ø¹Ø¶":3867,"ĠÙĬØ³ØªØŃÙĤ":3868,"ĠØ¯Ø§ÙĬÙħÙĨ":3869,"Ġyou":3870,"ÙĪÙī":3871,"Ø¨Ø´":3872,"ĠÙĪØ¥ÙĨ":3873,"ĠÙħØ§ÙģÙĬÙĩ":3874,"ĠØªÙħÙĪØª":3875,"ĠØªÙĥÙħÙĦ":3876,"ĠÙĨØ³ÙĬØª":3877,"ĠÙĥÙĪÙĦ":3878,"Ø·Ø§ÙĦ":3879,"ĠØ¬ÙĦ":3880,"ĠÙĤØ¨Ø±":3881,"ĠØ§ÙĦÙħÙĪÙĨØªØ§Ø¬":3882,"ĠØªØ¹Ø¬Ø¨":3883,"ĠØ¨ÙĦØ¹":3884,"ÙĬØªÙĩØ§":3885,"Ø¨Ø¹Ø«":3886,"Ø§Ø¶Ø±":3887,"ĠØ§Ø¹Ø±Ùģ":3888,"ĠØ±Ø§ÙĩØ§":3889,"ĠÙĬÙĪØªÙĪØ¨Ø±":3890,"ĠØªÙĩØ¨ÙĦ":3891,"ĠØ£ØµØ¨ØŃ":3892,"ĠÙħØŃØªÙĪØ§Ùĥ":3893,"ĠØ§ÙĦÙģØ±Ø¯ÙĪØ³":3894,"ab":3895,"Ø§Ø¤":3896,"ÙĩØ°Ùĩ":3897,"ĠØ§ÙĦØ¹Ø¶":3898,"ĠØ¨Ø§ÙĦÙĦ":3899,"ĠØ§ÙĦÙĨÙĪØ¹":3900,"Ø¨ÙĦØ§ÙĦ":3901,"Ø³ÙĬØ§ØŃØ©":3902,"ĠØ§ÙĦÙĥÙĦ":3903,"ĠØ§ÙĦØ¯Ùħ":3904,"ĠÙħØŃØªØ§Ø¬":3905,"ĠØ§ÙĦØ·Ø¨ÙĬØ¹Ø©":3906,"ĠÙĬØ¬Ø§Ø²ÙĬÙĥ":3907,"ĠÙĨØ¨Øº":3908,"ĠØ§ÙĦÙħØ¬ÙĩÙĪØ¯":3909,"ĠØŃØ¨ÙĬØ¨ÙĨØ§":3910,"ĠØ¹Ø§ÙĦÙħÙĬ":3911,"ĠÙģØ§ÙĦÙĤÙħØ©":3912,"ĠÙĪØ³Ø·":3913,"ÙĤÙĪØ¨Ø©":3914,"ĠØ´ÙĥØ±":3915,"ĠØ¬Ø¨Øª":3916,"ĠØ¯Ø§Ùĥ":3917,"ĠØ§ÙĦÙħÙģ":3918,"ĠØ§ÙĦÙģØª":3919,"ĠØ§ÙĦØ¨Ø§Ø¨":3920,"ĠØ§ÙĦØ¯ÙĤÙĬÙĤØ©":3921,"ĠÙģØ·ÙĪØ±Ùĥ":3922,"ĠØ·ÙĬØ¨Ø©":3923,"ĠÙĪÙĨØªØ§":3924,"ĠØ§ÙĨØ´Ø§ÙĦÙĦÙĩ":3925,"ÙĬÙĤ":3926,"ĠÙħØ§ÙħØ§":3927,"ĠØ¹Ø±Ø¶":3928,"Ø®Ø®":3929,"ĠØ·Ø±Ùģ":3930,"ĠØ§ÙĦØ´ÙĬØ¡":3931,"ĠL":3932,"ÙħØ§Ø¬":3933,"ØªØ±Ùģ":3934,"ÙĤÙĦØ©":3935,"ĠÙĬØ«":3936,"ĠØ¨ÙĩÙħ":3937,"Ø§ÙĩÙĦÙĪ":3938,"ĠÙĦÙĬÙĦØ©":3939,"ĠØ¨Ø§ÙĦØ¯":3940,"ĠØ·ÙģÙĦØ©":3941,"ĠØ§ÙĦØ´ÙĥÙĦ":3942,"ĠØ§Ø±Ø¶":3943,"ine":3944,"ĠÙĪØ±Ø§Ùĥ":3945,"ĠÙĨØ·ÙĦØ¹":3946,"ĠÙĨØªÙħÙĨØ§ÙĦÙĥ":3947,"ĠØ§ÙĦØ§Øµ":3948,"ĠØªÙĦØ¹Ø¨":3949,"ĠÙĨØ²":3950,"Ø®Ø·":3951,"ĠØ¬Ø§ÙĬØ©":3952,"ĠØ³Ø§ÙħØ·":3953,"ÙĪÙĦØ§Ø¯":3954,"Ø£Øª":3955,"Ø±Ø¨Øª":3956,"ĠØ§ÙĦØ³ÙĨØ©":3957,"Ø¬ÙĬØ¹":3958,"ĠØ§ÙĦØ¹Ø§ÙĦÙħÙĬØ©":3959,"ĠÙħØ¬Ø§ÙĦ":3960,"ĠØŃØ§Ø¨ÙĬÙĨ":3961,"pr":3962,"ux":3963,"ÙħÙĪØ±":3964,"ĠØ§ÙĦØ§Ø¯":3965,"ĠÙĬØ±Ø¶":3966,"ĠØªÙħØ«ÙĦ":3967,"ĠÙĦØ§Ùĥ":3968,"ÙĪÙĦÙĪØ¬":3969,"ØµØŃÙī":3970,"ĠØ§ÙĦÙģÙĦ":3971,"ĠÙĦÙĦØª":3972,"ĠØ§ÙĦØ¨Ø§Ø³Ø·":3973,"Ø§Ø¶ÙĬØ¹":3974,"ĠÙħÙĪØ³ÙĬÙĤÙī":3975,"ham":3976,"Ø±Ø§ÙĩÙĬÙħ":3977,"ĠØŃØ³ÙĨØ§ØªÙĥ":3978,"ĠØ³ÙħØ¹Øª":3979,"ol":3980,"ĠR":3981,"Ø§ÙĦØ£":3982,"Ø¨Øº":3983,"Ø¨ÙĨÙĬ":3984,"ĠÙħØ§Ø®":3985,"ĠÙĬÙĥÙħÙĦ":3986,"ĠÙĨÙĥÙħÙĦ":3987,"ĠØ´ÙħØ§ÙĦ":3988,"ĠØ³Ø¯ÙĬÙħ":3989,"ĠØªØ®ÙĦÙĬ":3990,"ĠØ¨ÙĨÙģØ³":3991,"ĠØ§Ø³ØªØºÙģØ±":3992,"Ġqui":3993,"ĠÙĬØµÙĦØŃ":3994,"ĠØ§ÙĦÙĪØŃÙĬØ¯Ø©":3995,"Ġï»":3996,"Ø§ÙĦØ³":3997,"Ø§ÙĦØ´":3998,"Ø§ÙĦÙĦÙĬ":3999,"ÙģØ²":4000,"ĠØ´Ø¦":4001,"ĠØ£ÙĪÙĤ":4002,"Ø§ÙĥØ´":4003,"Ø§ÙĩÙĬÙħ":4004,"ĠÙĬØ¹ÙĦÙħ":4005,"ÙĨØªØ´":4006,"ĠØ·ÙĬ":4007,"ĠØ¶Ø¹":4008,"ÙĦØ¨Ø³":4009,"ĠØªØªØ¹ÙĦÙħ":4010,"ĠØ¨Ø¯ÙĦ":4011,"ĠØ±Ø¨ÙħØ§":4012,"ĠØ®Ø¯Ø§Ùħ":4013,"ĠØ£ØŃØ¨Ùĥ":4014,"Ø§ÙĦÙĨØ§":4015,"ÙĤÙĨ":4016,"ĠØªØ§":4017,"ĠÙĦØ¥":4018,"ĠØ´ÙģÙĬ":4019,"ÙĥÙħÙĦÙĪ":4020,"ØªÙĪÙĬ":4021,"Ø§ÙĪØ¯ÙĪ":4022,"ØªÙĬÙĦ":4023,"ĠØªØ¹Ø¨":4024,"ĠØªØŃØ¯ÙĬ":4025,"ÙħØ¹ÙĬ":4026,"ĠØ§ÙĪÙĨ":4027,"ĠÙĨØ¹Ø§ÙĪÙĨ":4028,"ĠØ§ÙģØ±ÙĬÙĤÙĬØ§":4029,"ĠØ§ÙĦØ§Ø®ÙĬØ±":4030,"ĠØªÙĥØªØ¨":4031,"ĠØªØ¹ÙĦÙħØª":4032,"ĠØµØŃØ¨Ùĩ":4033,"Ø±ÙĪÙĨ":4034,"ÙģÙĨ":4035,"ĠÙĬÙĦÙĤ":4036,"ĠØªØ±Ø¨ØŃ":4037,"ĠÙģÙĬØ²Ø§":4038,"ĠØŃØªÙĬ":4039,"Ø±ÙĪÙĤ":4040,"Ø±ÙĪØ§ØŃ":4041,"ĠØ§Ø¨Ø±Ø§ÙĩÙĬÙħ":4042,"Ø§Ø¨Ø¹Ùĥ":4043,"ĠØ¨Ø§ÙĤÙĬ":4044,"ÙħÙħÙĥÙĨ":4045,"ĠØ§ÙĦÙĦØŃ":4046,"ĠÙĪØ§Ùĩ":4047,"ÙģØ§":4048,"ĠÙģØ£":4049,"ĠØ¹Øµ":4050,"ĠØ±Ùĩ":4051,"ÙĬØ±Ø§Øª":4052,"ĠØ´Ø±ÙĬÙĥ":4053,"ĠØ³Ø§Ø¹":4054,"ĠØ¨Ø§ÙĦØ£":4055,"ÙĪØ³Ø·":4056,"ØªØ±ÙĪÙĨ":4057,"ĠØªÙĤØ±Ø§":4058,"Ø§Ø±ÙĬØ³":4059,"ĠÙĩØ§Ø°ÙĪ":4060,"ĠØ¶ØŃÙĥØªÙĨÙĬ":4061,"ĠØ§ÙĦØªÙĦÙģØ²ÙĬÙĪÙĨ":4062,"ÙĬØ§Ø±Ø¨":4063,"ØŃØ¨ÙĬØª":4064,"ĠÙģØ¯":4065,"ĠÙĨÙĩØ§ÙĬØ©":4066,"ÙĪØ±Øª":4067,"ĠØ§ÙĦÙĤÙĨÙĪØ§Øª":4068,"ĠÙĥØ¨Ø§Ø±":4069,"ĠØ¨Ø¯Ø§ÙĬØ©":4070,"ĠÙĪØ£ÙĨØ§":4071,"Ġbe":4072,"ĠØ´ÙģØªÙĩØ§":4073,"ÙĨØ¹Ùħ":4074,"ÙĤØ§Ùħ":4075,"Ø¬ÙĬØª":4076,"ĠÙĤØ¶":4077,"Ø§ØŃØ´":4078,"ĠØµÙĨØ¹":4079,"Ø§Ø¦Ùĥ":4080,"ĠØ®ÙĪÙĬ":4081,"ĠØ¨ÙĦØ¹Ø¨Ø§Ø³":4082,"ĠØ§ÙĦØ¨ØŃ":4083,"ĠØ§ÙĥÙĬØ¯":4084,"ÙģØ³Ø©":4085,"ĠÙĪÙĦÙĬØ¯ÙĬ":4086,"ĠØ¨Ø¯Ø§Øª":4087,"ĠØ§ÙĦÙħØ´Ø§ÙĥÙĦ":4088,"ĠÙħÙĪØ¶ÙĪØ¹":4089,"ØªÙħØ§Ø¹":4090,"ĠØ§ÙĦÙĤØ±Ø§ÙĨ":4091,"ĠÙĪØ¬ÙĩÙĥ":4092,"ÙħÙĥØ§ÙĨ":4093,"ĠÙħÙĪÙĨØªØ§Ø¬":4094,"ØŃÙĩ":4095,"ĠÙĬØ®ÙĦØµ":4096,"ĠØ¨ÙĨØ§":4097,"ĠØªØ¨Ø±":4098,"Ø§ÙĨØ³Ø§ÙĨ":4099,"ĠÙĥØ¹":4100,"ĠÙħÙĨØ§Ø·ÙĤ":4101,"ĠØŃÙĦØ§ÙĦ":4102,"Ø§Ø¦Ø±":4103,"Ø£ØŃØ³ÙĨ":4104,"ĠÙħØ¹Ø§ÙĨØ§":4105,"ĠØ§Ø®ÙĪÙĥÙħ":4106,"ĠÙĪØ§ØŃØ¯Ùĩ":4107,"Ø§ÙĦÙħÙĬÙĨ":4108,"ĠÙĪÙĨØµ":4109,"ĠÙĪØŃØªÙī":4110,"ĠØ¹ÙĦØ§Ø¬":4111,"ĠÙģØ§ÙĦØ¹":4112,"ĠÙĪØ¬Ø²":4113,"ĠÙĪØ¨Ø¹Ø¯":4114,"ĠÙĨØŃØ¨ÙĪ":4115,"ĠØ¹Ø§ÙħÙĬÙĨ":4116,"que":4117,"ĠÙħØ³ØªØ±":4118,"ĠØ¯Ø§ÙĬØ±ÙĬÙĨ":4119,"ĠÙĪÙĬØŃÙģØ¸":4120,"ĠÙģØ¶ÙĦÙĥÙħ":4121,"Ġest":4122,"Ø¨Ø³Ùħ":4123,"ÙģØ§Øª":4124,"Ø³ÙĬØ§":4125,"ĠÙģØ§":4126,"ĠØ¹Ø±Ø´":4127,"Ø²Ø§Ùģ":4128,"ĠØ®Ø¨Ø±":4129,"ĠÙĤØ±ÙĬØª":4130,"ĠØ¯Ùħ":4131,"Ø«ÙħØ§ÙĨ":4132,"ĠØ¥Ø´":4133,"ĠÙĪÙĨØ¹Ùħ":4134,"Ø§Ø¨Ø¹ÙĬÙĨ":4135,"ĠÙĬØŃØ¨ÙĪ":4136,"ĠØ§ÙĦØ§Ø·":4137,"ĠÙĪØ¢":4138,"ĠÙĬÙħÙĪØª":4139,"ĠØªÙĩØ¯":4140,"ĠØ®ÙĦØ§":4141,"Ø±Ø¨Ùĩ":4142,"ĠØµØŃØ¨ÙĬ":4143,"ĠØ§ÙĦØ³Ø§Ø¹Ø©":4144,"ĠÙĪÙħØŃ":4145,"ĠÙĪØ¬ÙĪØ¯":4146,"ĠØ³ÙĬØ§ØŃØ©":4147,"ĠØ¨Ø³Ùĥ":4148,"ĠÙĨÙĬÙĪÙĬÙĪØ±Ùĥ":4149,"ĠÙĤÙĦÙĪØ¨ÙĨØ§":4150,"iv":4151,"ĠC":4152,"ÙĪØ§Ø·":4153,"ĠØ§ÙĦØ§Ùĥ":4154,"ØªÙĪØ±":4155,"ĠÙĪØ±Ø§":4156,"ĠÙģÙĩÙĪ":4157,"ĠÙĦÙĦÙĪ":4158,"Ø´Ø§":4159,"Ø¬Ø§Ø¨Ø©":4160,"ÙĬÙĨÙĩ":4161,"ĠØ£ÙĬÙĨ":4162,"ĠØ§ÙĨÙĩÙħ":4163,"ĠØ§ÙĦÙħØ«":4164,"Ø¸ÙĬ":4165,"ĠØ§ÙĦØŃØ¯ÙĪØ¯":4166,"ĠØ·ÙĬØŃ":4167,"ĠØ§ÙĦØµÙĪØª":4168,"Ø¨ØŃØ«":4169,"ĠÙĪØ±Ø§ØŃ":4170,"ĠÙĨÙĤÙĪÙĦÙĪ":4171,"ĠØ§Ø³ÙħÙĩ":4172,"ĠÙĪØ®Ø§ØµØ©":4173,"ĠÙĪÙħØ±ØŃØ¨Ø§":4174,"Ġra":4175,"ÙħØ¨":4176,"ØªÙĤØ¯":4177,"ĠØ±ÙĬØŃ":4178,"ĠØ®ØµÙĪ":4179,"ÙĪÙĨÙĩ":4180,"ÙħÙĬÙħ":4181,"ĠØ§ÙĦØªÙĤ":4182,"ĠØ§ØŃØ³":4183,"ĠÙħØ±ØŃ":4184,"Ø§ÙĤØ³Ùħ":4185,"ĠÙĬÙĤØ±Ø§":4186,"ĠØªÙħØ¯":4187,"ÙĨÙĪØ§ÙĨ":4188,"ØºÙĦØ·":4189,"ĠÙĦØ£ÙĨÙĩ":4190,"ĠØ¨ÙĦØ¯Ø§ÙĨ":4191,"ul":4192,"ĠÙĪØ±ÙĬ":4193,"ĠÙĦØ·":4194,"Ø®ÙĪØªÙĬ":4195,"ĠØŃØ§Ø³":4196,"Ø§ÙĨÙĬÙĬÙĨ":4197,"ĠØ§ÙĦØ¨Ø³":4198,"ÙģÙĬØ¯ÙĬÙĪÙĩØ§Øª":4199,"ĠØ§ÙĦÙĪØ·":4200,"ĠÙħØ§ØªØª":4201,"ĠØ¬Ø²Ø§Ø¦Ø±ÙĬÙĬÙĨ":4202,"ĠØ§ÙĦÙħØ´Ø±ÙĪØ¹":4203,"ĠÙĪØŃØ¯ÙĩØ§":4204,"ĠØ§ÙĦÙĥÙĪÙħÙĬØ¯ÙĬØ§":4205,"ÙĦØ§Ø¡":4206,"ĠÙĪØ³ÙĬ":4207,"ĠØªÙĬÙĥ":4208,"ĠÙĦÙĦÙĥ":4209,"ĠÙĦÙħØ¹":4210,"ØµÙĪÙĦ":4211,"Ø§Ø¹Ùħ":4212,"ĠÙħØ¹Ø±Ùģ":4213,"ĠÙĬØ¹ÙħÙĦ":4214,"ÙĬØªÙĨØ§":4215,"ĠÙĩÙĨØ§ÙĬØ§":4216,"Ø¨Ø¹Øª":4217,"Ġdz":4218,"ØºÙĬÙĬØ±":4219,"ĠØªÙĤØ¯Ø±Ø´":4220,"ĠÙĥÙģØ§Ø´":4221,"ĠÙĤØªÙĦÙĨÙĬ":4222,"Ġcomm":4223,"ĠØ§ÙĦØ³Ø¹ÙĪØ¯ÙĬØ©":4224,"ÙĪÙĦÙĩÙħ":4225,"Ø¨Ø§Øª":4226,"ĠÙħØ±Ø§":4227,"Ø¬ÙĬÙĨ":4228,"Ø®ÙĪ":4229,"Ø§Ø´Ø©":4230,"Ø§Ø¨ÙĪÙĨÙĬ":4231,"ĠØµØ§ÙħØ·":4232,"ĠÙĬØŃÙĥÙħ":4233,"Ø¨Ø¹Ø§":4234,"ĠØ§ÙĦØ²ÙĪØ¬":4235,"ĠØªÙĥÙĦÙħ":4236,"ĠØ´Ø®ØµÙĬØ§":4237,"ĠØ¹ÙĬØ¯Ùĥ":4238,"ĠÙĪÙĬØ±Ø²ÙĤ":4239,"ĠØ§ÙĦÙģØ±ÙĨØ³ÙĬØ©":4240,"ĠØ§ÙĦØ§ÙģØ¶ÙĦ":4241,"Ø¯ÙĪÙĬ":4242,"ÙĤØ§Øª":4243,"Ø¬ÙħÙĦ":4244,"ĠÙĩØ¯ÙĬÙĥ":4245,"ĠØ´Øº":4246,"ÙĦÙĪÚ¨":4247,"ĠĠĠĠĠ":4248,"ĠØªØ¹Ø§ÙĪÙĨ":4249,"ĠØªØŃÙĥÙħ":4250,"ÙħÙĨØ´":4251,"ĠØ§ÙĦØ¯ÙĪØ±":4252,"ĠÙĬØ®Ø¯ÙħÙĪ":4253,"Ġce":4254,"ĠØªØ¬Ø±Ø¨Ø©":4255,"Ġsu":4256,"ĠÙħØ§ÙĦØ§":4257,"ĠØ§ÙĦÙģÙĬÙĦÙħ":4258,"ĠØªÙģØ±Ø¬Øª":4259,"Ø§Ø£":4260,"Ø³ÙĪØ±":4261,"ĠÙĬØ²":4262,"ĠØªØ±Ø¬ÙħØ©":4263,"Ø®Ùģ":4264,"ĠØŃØ¶":4265,"ØºØ±Ø¨Ø©":4266,"Ø§Ø¦Ùħ":4267,"Ø³ÙĦØ§ÙĬÙĥ":4268,"ĠØªØŃØ³Ø¨":4269,"ĠØ§ÙĦØ´ÙĩØ¯Ø§Ø¡":4270,"ĠØ§Ø³ÙħØ¹":4271,"Ø§ÙĦÙħÙĩÙħ":4272,"ĠØ£ÙĨÙĪ":4273,"Ø³ÙħÙĬØ±":4274,"Ø¦ÙĬØ³":4275,"ĠÙĥØ§ÙĬÙĨØ©":4276,"ØµÙĦØ§Ø©":4277,"ĠÙĬÙĥØªØ¨":4278,"ĠØ±Ø§ÙĬØŃÙĬÙĨ":4279,"Ø§Ùī":4280,"ÙĪØ§Ø³":4281,"ĠÙĪÙĨØ§":4282,"ĠÙĪØ®ÙĦØ§Øµ":4283,"ĠØ¹ØªØ±ÙĪØ³":4284,"Ø·Ø§Ø¬":4285,"ĠØ´ÙĪÙģÙĬ":4286,"ĠØ£ÙĦ":4287,"ĠÙĦÙĬÙģÙĬØ¯ÙĬÙĪ":4288,"ÙĪÙģØ±":4289,"ĠØ§ÙĦØ¬ÙĬ":4290,"ØµØŃØ§Ø¨":4291,"Ø§ÙĨÙĬÙĩ":4292,"ĠØ§ÙĦÙģÙĦÙĪÙĤ":4293,"ÙĪØ³Ùģ":4294,"ĠØ§ÙĦÙĥÙĦÙħØ§Øª":4295,"ĠÙĬØ±ØŃÙħÙĪØ§":4296,"ĠØ§ÙĦØºØ§ÙĦÙĬ":4297,"ĠØ±ØŃÙħÙĩ":4298,"ĠØ§ÙĦØªØ¹ÙĦÙĬÙĤØ§Øª":4299,"ĠØ¹Ø¯Ùħ":4300,"Ø®Ø§Ùģ":4301,"Ø¨ÙĬÙĬÙĨ":4302,"ĠØ§ÙĦÙħÙĨØªØ¬":4303,"ĠØµØ¹Ø¨":4304,"ÙĨØªÙħÙĨÙī":4305,"ĠÙħØ´ÙĥÙĪØ±":4306,"ĠØ§ÙĦØ¨ÙĤ":4307,"ĠÙĦÙĬÙĥÙĬØ¨":4308,"ĠØµØ¯ÙĬÙĤ":4309,"ĠÙĨØ§ÙĤØµ":4310,"ÙĩØ±Ø©":4311,"ĠÙĪØ¶Ø¹":4312,"ĠÙħØ§Ø±Ùĥ":4313,"ĠØªØŃÙħ":4314,"ĠØªÙģØ±":4315,"ĠØªØ¨Ø¯ÙĦ":4316,"ĠØ§ÙĦÙħØ¯ÙĬÙĨØ©":4317,"Ø§ÙģØ§Øª":4318,"ĠÙħØ¹Ø§ÙĩØ§":4319,"ĠØ§ÙĦØŃØ¬Ø±":4320,"ĠÙħØªØŃ":4321,"ĠÙĬÙĤØ¹Ø¯":4322,"ĠÙĦØŃÙĤØª":4323,"ĠØ³ÙĨÙĩ":4324,"ĠØ´ÙģØ§Ø¡":4325,"ĠÙĦØ§Ø¨Ø§Ø³":4326,"ĠÙĥØ§ÙħÙĬØ±Ø§":4327,"ĠG":4328,"ĠÙħÙħÙĨ":4329,"Ø·ÙĦØ¹":4330,"ÙĪÙĨØª":4331,"ĠØ£Ø±":4332,"ĠØ£Ùĩ":4333,"ĠØ³ÙĪÙĤ":4334,"ØºÙĩ":4335,"ĠØ§ÙĦØ¬ÙĨÙĪØ¨":4336,"Ø§Ø¬Ø¯":4337,"ĠØªØ§Ø¹Ùĩ":4338,"ĠØ§ÙĦØ£ÙĪ":4339,"Ġcar":4340,"ĠÙĨÙĤØ¹Ø¯":4341,"ĠÙĤÙĦØªÙĦÙĥ":4342,"ĠØŃØ§ÙĦÙĬØ§":4343,"ĠØ®Ø§ÙĦØ¯":4344,"Ġz":4345,"Ø§ÙĦÙĬØ´":4346,"ÙħØ§Ø¹":4347,"Ø±Ø§Ø³":4348,"ĠØ§ÙĦØ§ÙĤÙĦ":4349,"ĠÙħÙħØ«ÙĦÙĬÙĨ":4350,"Ø¹ÙĪØ¯":4351,"ÙģØªØŃ":4352,"ĠÙģØ´":4353,"ĠÙĥØ£ÙĨ":4354,"ĠØ¬ÙĪØ²":4355,"ĠØ³Ø§Ùħ":4356,"ØºØ§ÙĨ":4357,"ØµØŃÙĬØŃ":4358,"Ø¸ÙĨ":4359,"ĠØ¥ÙĨÙĬ":4360,"ĠØ§ÙĦØŃÙĤÙĬÙĤÙĬ":4361,"ĠÙĦÙĦØŃ":4362,"ĠØ§ÙĦÙĥÙĪ":4363,"ĠØ§ÙĦØ¯Ø§Ø®":4364,"ĠØµØŃÙĩ":4365,"ĠÙĦØ§ÙĨÙĥ":4366,"ĠÙĦØŃØ¯":4367,"Ġbien":4368,"ĠÙħØ§Ø¯ÙĬØ±":4369,"ĠÙĨØ³ØªÙĨØ§ÙĪ":4370,"ĠØ§ÙĪØ±ÙĪØ¨Ø§":4371,"ÙĩØ¯Ø§":4372,"Ø¨ÙĩØ§":4373,"ĠÙĪØ¹ÙĦØ§Ø´":4374,"ÙģÙĬØ©":4375,"ĠØªØ§Ø¨Ø¹":4376,"Ø±ÙĬØ³":4377,"Ø§ÙĪØ²":4378,"ĠÙħØ´ÙĩÙĪØ±":4379,"ĠÙĪÙĨØ¨":4380,"Ġpe":4381,"ĠÙĨØ³ÙĥÙĨ":4382,"ĠÙħÙĥØªÙĪØ¨":4383,"ĠØ±Ø³Ø§ÙĦØ©":4384,"ĠÙĬÙĥØ«Ø±":4385,"ĠØ§ÙĦÙħØ¬Ø§ÙĦ":4386,"ĠØ²ÙĬØ§Ø±Ø©":4387,"ĠØ´ÙĩÙĬØ¯":4388,"ĠÙħÙĪØ¬ÙĪØ¯":4389,"Ø§Ø±ÙĬÙĥØ§ÙĨ":4390,"ĠØŃÙģØ¸":4391,"Ø§Ø´Ø±Ø©":4392,"ĠÙĦÙĬØ²ÙĪÙħ":4393,"ÙĦÙħÙĬ":4394,"ĠØªØ¹ÙĪØ¯":4395,"ÙĤÙĬÙĤÙĩ":4396,"ĠÙĪØªÙĤ":4397,"ĠØ¶Ø¯":4398,"ĠØ§Ø¨Ø¯Ø§":4399,"Ø¹ÙĦØ§Ùħ":4400,"ĠØ±ÙĪØŃÙĩ":4401,"Ø§Ø³ØªØºÙģØ±":4402,"ers":4403,"ĠÙĨØ³ØªÙĨÙī":4404,"Ø¬ÙħØ§Ø¹Ø©":4405,"ĠØ§ØŃØªØ±Ø§Ùħ":4406,"ot":4407,"ĠØ¹ÙĥØ³":4408,"ĠØ±Ø¤":4409,"Ø¨ÙĬÙĥ":4410,"ĠØ£ÙĨÙĬ":4411,"Ø§ÙĬÙĤ":4412,"ØªÙĪÙĩ":4413,"Ø§ÙĪØ©":4414,"Ø¨ÙĦØº":4415,"ĠÙħØ´Ø§ÙĩØ¯":4416,"Ø¯ÙĬØ±ÙĪ":4417,"ĠØ§ÙĦØµÙĬÙģ":4418,"ĠÙĪØ¹ÙĦÙĬ":4419,"ĠØ§ÙĦØ§ÙħÙĪØ±":4420,"ĠØ§ÙĦÙħÙĨØ§Ø·ÙĤ":4421,"ĠÙĪØªØŃÙĬØ©":4422,"ĠÙĥÙĦÙħØ§Øª":4423,"ĠÙħÙħØªØ¹Ø©":4424,"ĠÙĥØ§Ø±Ø«Ø©":4425,"ĠØ§ÙĦÙĥØ§ÙħÙĬØ±Ø§":4426,"Ġre":4427,"Ø±Ø§Ø¨":4428,"ÙĥÙĦØ©":4429,"ĠÙĪØ§ÙĬ":4430,"ĠÙħØ§ØŃ":4431,"ĠÙĬØºÙģØ±":4432,"ĠØªØ§Ùĥ":4433,"ĠÙĦÙĪÙĨ":4434,"ĠÙĨØ±Ø¬Ø¹":4435,"ĠÙĨÙĪØ¶":4436,"ĠØ£Ø¹ÙĦÙħ":4437,"ĠØ¯ÙĬØ¯":4438,"ĠØ§ÙĦÙħÙħÙĦÙĥ":4439,"ĠØ³ÙĪØ±ÙĬØ§":4440,"Ø§Ø¹Ø¯Ø©":4441,"ĠÙĪØ§ÙĦØ¥":4442,"ĠØ§ÙĦØ¬ÙĪ":4443,"Ø±ÙĪÙĬ":4444,"ĠØªØ¹ÙĬ":4445,"ĠØ§Ø³Ø¨":4446,"ĠØ£ÙĨØ³":4447,"ĠØ¨ÙĥÙĬØª":4448,"ØŃØªØ§Ø¬":4449,"ÙĨØ¯ÙĬØ´":4450,"ĠÙĨÙĪØ±ÙħØ§ÙĦÙħÙĪ":4451,"ØŃØ¯Ø«":4452,"ĠÙĬÙĩØ¯ÙĬÙĨØ§":4453,"Ġïº":4454,"ÙĨÙĪØ±ÙĬ":4455,"Ø³ÙħØ¹":4456,"ĠÙĬÙĦØ§":4457,"ĠÙĥØ§Ø´ÙĬ":4458,"ĠØŃÙĪÙħ":4459,"Ø¶Ùī":4460,"Ø¶Ø¨Ø·":4461,"ĠÙĤØ±ÙĬ":4462,"ĠØ§ÙĦØ¹Ø´":4463,"ÙĪÙħÙĪ":4464,"ĠØ§ÙĦØŃÙĦ":4465,"ĠØªØ¹Ø·ÙĬ":4466,"ÙħÙĬØª":4467,"Ø¨Ø±Ø§":4468,"ÙĬØªÙĩ":4469,"ĠØ§ÙħØ«":4470,"ĠÙħØŃØªØ±Ùħ":4471,"ĠÙħÙĦÙĬØ§Ø±":4472,"ĠÙĨÙĤÙĦÙĥ":4473,"ĠÙĨØ¨ÙĥÙĬ":4474,"ĠÙĬÙĪØµÙĦ":4475,"ĠØªÙĪØŃØ´ÙĨØ§":4476,"ĠÙħÙģÙĩ":4477,"ĠÙħØ§Ø¬":4478,"ĠÙĨØ§":4479,"ĠØ§ÙĦÙħØ¤":4480,"ÙĦÙĤØª":4481,"ĠÙĦÙĦØ¨ÙĦØ§Ø¯":4482,"ĠØ§ÙĦÙĤØ§Ø¯":4483,"ĠØ§ÙĦØ±Ø§Ø¦Ø¹Ø©":4484,"ĠØ§ÙĥØªØ´":4485,"ĠØ§ÙĦØ·ÙģÙĦ":4486,"Ø±Ø§ÙħØ§":4487,"Ø¯ÙĤØ§Ø¡":4488,"ĠØ§ÙĦÙĦÙĤØ·Ø©":4489,"Ġx":4490,"ĠØ§ÙĦÙĪØ±":4491,"ĠÙĦØ®Ø±":4492,"ĠØ±Ø§ÙĬÙĥ":4493,"Ø§Ø¯Ø§":4494,"ĠÙĪØ§ÙĦÙĤ":4495,"ĠĠĠĠ":4496,"Ø¸ÙĩØ±":4497,"ĠØ®ÙĪÙĥÙħ":4498,"ĠÙĪÙĦØ¯ÙĬ":4499,"ÙĪÙĬÙĤ":4500,"Ø¹Ø¨Ø¯":4501,"ĠØ¨ÙĦØ§Ø¯ÙĩÙħ":4502,"ĠØ°Ø§Ùĥ":4503,"ĠØªÙĨØŃÙĬ":4504,"ĠØ§ÙĦØ²ÙĬØª":4505,"ĠØ´Ø§Ø¨Ùĩ":4506,"ĠØŃØ¯ÙĪØ¯":4507,"ĠØ³ÙĬØ±ØªÙĪ":4508,"ĠØ±ÙħØ²ÙĬ":4509,"Ø³ÙĬÙĨ":4510,"ĠØ¹ÙĬÙĨÙĬ":4511,"ĠÙĨÙħÙĪ":4512,"Ø²ÙĬØ±ÙĬ":4513,"Ø§Ø¨ÙĤ":4514,"ĠØ·ÙģÙĦ":4515,"ĠØ§ÙĪÚ¨Ø±ÙĪØª":4516,"ĠÙĬØªØ¹ÙĦÙħ":4517,"ĠÙģØ±ØŃØ©":4518,"ĠÙĪØ¬ÙħÙĬØ¹":4519,"ĠÙĦØ¹Ø§Ùħ":4520,"ĠÙĨØµÙģ":4521,"ĠØ§ÙĦÙħØ³Ø¤":4522,"ĠØ£ÙĬØ§Ùħ":4523,"ĠØªØŃØ¨ÙĪ":4524,"ØªÙģØ±Ø¬":4525,"ĠÙĪØ§ÙĪ":4526,"ĠÙĬØ§ÙĥÙĦ":4527,"ĠØ¨ÙĪÙħ":4528,"ĠÙģÙĬØ³Ø¨ÙĪÙĥ":4529,"Ø²Ø§Ø¡":4530,"ĠØ´Ø§ÙĩØ¯":4531,"ĠØŃÙħØ¯":4532,"ĠÙĪØ§ÙĦÙĥ":4533,"ĠØ§ÙĦØ¬Ø¯ÙĬØ¯Ø©":4534,"Ø³ÙĦÙĥ":4535,"ĠØ¨Ø§ÙĦØ¬":4536,"ĠØ¨Ø§ÙĦØ·":4537,"ĠØ§ÙĦÙĨÙĤ":4538,"Ø±Ø¨ÙĪ":4539,"Ø±ÙĥØ²":4540,"Ø§Ø·ÙĬ":4541,"ĠØ¬Ø¯ÙĬØ¯Ùĩ":4542,"ĠØ§ÙĦØ§Ø®ÙĬØ±Ø©":4543,"ÙħØªØ¹Øª":4544,"ya":4545,"ĠH":4546,"ÙĨÙģØ³":4547,"Ø±Ø£":4548,"ĠÙĪØ³Ùħ":4549,"ĠÙģØ§ÙĦØŃ":4550,"ĠÙģØ®Ø±":4551,"ĠØªØ±Ø¬":4552,"ĠÙĦØ§Ùĩ":4553,"ĠÙĨØ§ÙĥÙĦ":4554,"ĠÙĥØ§":4555,"ĠØ®ÙĪÙģ":4556,"ĠØ£Ø±Ø¶":4557,"Ø§ÙģØ¹":4558,"ĠØ§ÙĦØ¹Ø±Ø§ÙĤ":4559,"Ø±Ø¨ÙĬØ¬Ø§ÙĨ":4560,"ĠØ²ÙĬØª":4561,"ÙĪØ¬ÙĬ":4562,"ĠØ·ÙĪÙĦØª":4563,"ĠÙĪÙĬØ³ÙĥÙĨÙĩ":4564,"ĠØ§ÙĦØ´Ø¹ÙĪØ¨":4565,"ib":4566,"Ġan":4567,"ÙħØŃÙħØ¯":4568,"ÙĥØ«Ø±":4569,"ĠÙĪÙĩÙħ":4570,"ĠØ¬Ø§Ø²":4571,"ĠØ³ÙħØ§ÙĨ":4572,"ØºØ§Ùħ":4573,"ĠÙĪØ§ÙĦØ¨":4574,"ĠØ¨Ø§ÙĦØ´":4575,"ĠØºØ¯ÙĪØ©":4576,"ĠØ§ÙĦØ¨Ø§Ø¬ÙĬ":4577,"ĠØ§Ø±ÙĬØ¯":4578,"ĠØ§Ø³ØªØ§Ø°":4579,"Ġso":4580,"ĠÙĦØ¨Ø³":4581,"ĠØ´ÙģØªÙĥ":4582,"ĠÙĩÙħÙħ":4583,"ĠØ®ÙĦÙĤÙĩ":4584,"ĠØ§ÙĦÙĩÙħ":4585,"ÙĩØ§Ø¯ÙĬ":4586,"Ø¹ÙħÙĬ":4587,"ĠÙĬØ§ÙĦ":4588,"ĠØ¨Ø±Ø¬":4589,"ĠØªØ¨ÙĬØ¹":4590,"ĠÙĥØ§ÙĦØ¹Ø§Ø¯Ø©":4591,"ĠØ±Ø²Ø§ÙĨ":4592,"Ø±ÙĬÙĦ":4593,"ĠØ³ÙĬÙĨØ§Ø±ÙĬÙĪ":4594,"ÙĪØ±ÙĥÙħ":4595,"ĠØµØ¹Ø¨Ø©":4596,"ĠØ¨Ø§ÙĦØ³":4597,"ĠØ§ÙĦÙĨÙģØ³":4598,"ĠØ§ÙĦØªØ¹Ø¨":4599,"ĠØ¯ÙĬØ±ÙĬ":4600,"ĠÙĩØ§Ø¯Ø§Ùĥ":4601,"ĠØ§ÙĦÙģÙĬØ¯ÙĬÙĪØ§Øª":4602,"ĠØªØ¬Ø¯":4603,"ĠØ§ÙĦØŃÙħØ¯ÙĦÙĦÙĩ":4604,"ĠØ£ÙħÙĬÙĨ":4605,"ĠÙħØ³ØªÙĤØ¨ÙĦ":4606,"ÙĦØ§ÙĦØ§":4607,"ĠÙĪØ§Ø¹Ø±Ø©":4608,"ÙĬØ§Ø®ÙĪ":4609,"ĠØ§ÙĦÙħØ±Ø£Ø©":4610,"ĠØ§ÙĦØ´Ø±ÙĥÙĩ":4611,"ĠK":4612,"ĠN":4613,"Ø³ÙĢÙĢ":4614,"ĠØ¨Ø±ØŃÙħ":4615,"ĠÙĥØ§Ø³":4616,"ØµÙĩ":4617,"Ø±ÙĬÙĥØ§ÙĨ":4618,"ÙĦØ§ÙĪÙĬ":4619,"ĠØ§ÙĦØŃØµØ©":4620,"ĠØ§ÙĦØªØ±Ø¨ÙĬØ©":4621,"ĠØ§ÙĦØ´Ø§Ø¨":4622,"ĠØ§Ø³ÙħÙĪ":4623,"ÙĬØ´Ø§Ùħ":4624,"ĠÙĪÙħØ²Ø§ÙĦ":4625,"Ø§ÙĦÙĬÙĪÙħ":4626,"ĠÙģØ§ÙĦØª":4627,"ĠØ³ÙĦØ·Ø§ÙĨ":4628,"ĠÙħØ®ØªÙĦÙģ":4629,"ĠÙĥÙħÙĦØª":4630,"ĠÙĨØ¯Ø¹Ùħ":4631,"ĠØ§ÙĦØ±Ø¬ÙĦ":4632,"ĠØ¹ÙĬØ§ÙĨ":4633,"ĠØ·ÙĪÙĬÙĦ":4634,"ĠØ§ÙĦØ²ÙĪØ§Ø¬":4635,"ĠÚ¤":4636,"Ø±ÙģÙĬ":4637,"ÙĩÙĪØ©":4638,"Ø¹Ø§Øª":4639,"ĠØ¨ÙĬØ¯":4640,"ĠÙĦØ§Ø³":4641,"Ø¬Ø§Øª":4642,"ĠÙĨÙĨØ³":4643,"ĠØŃÙĪØ³":4644,"ĠØ¯ØŃÙħ":4645,"ĠØ¯ÙĦÙĬÙĦ":4646,"ĠÙħØ¹ÙĬØ§":4647,"ĠØºØ§ÙĬØ©":4648,"ĠÙĥÙĦÙĨØ§":4649,"ĠØ§ÙĦØ¨Ø¹":4650,"ĠÙħØªØ¹Ø©":4651,"ĠØ§ÙĤÙĦ":4652,"ĠØ§ÙĦØ³Ø¤Ø§ÙĦ":4653,"ĠØ§ØŃÙħØ¯":4654,"ĠØ§ÙĦØµØŃÙĬ":4655,"ĠØ§ÙĦØ±Ø§Ø¨Ø¹":4656,"ĠØªÙħÙĨÙĬØª":4657,"ĠØ§ÙĦÙĩÙĨØ¯":4658,"ĠÙĪØ²ÙĬØ±":4659,"ĠØ¨Ø§ÙĦØ¹ÙĥØ³":4660,"ĠØ¯ÙĤÙĦØ©":4661,"ĠØ§ÙĦÙĪÙĦØ§ÙĬØ§Øª":4662,"Ø¯Ø§Ùħ":4663,"ĠÙĦØ§Ø¹":4664,"Ø§Ø±ÙĪØ§ØŃ":4665,"ĠÙħÙĨÙĨØ§":4666,"ĠØ¬Ø¨Ø§ÙĦ":4667,"ĠÙĤÙĦÙĨØ§":4668,"ĠØ¨Ø§ÙĦÙĤ":4669,"ĠØªØ¹ÙĨØ§":4670,"ĠÙĪÙĨØŃØ¨":4671,"ĠÙĬØ®Øµ":4672,"Ø¹ÙĦØ§Ø¨":4673,"ĠÙģØ±ÙĤ":4674,"ÙĦÙĪÙħÙĩ":4675,"ĠÙĪØ§Ø¹Ø±":4676,"ĠÙħØ§ÙĥØ§ÙĨØ´":4677,"ĠÙĬÙģØ±ØŃÙĥ":4678,"ger":4679,"ĠØ§ÙĦÙĥÙħ":4680,"ÙĩÙĨØ§":4681,"ÙĩØ°":4682,"ØªÙĦÙĥ":4683,"ĠÙħØ§ÙĨÙĬ":4684,"ĠÙħØ§ÙĦÙĥ":4685,"ÙģÙĬÙĨ":4686,"ĠØ¨ÙĪØ±":4687,"ĠØªØ±Ø¨ÙĬØ©":4688,"Ø¬Ø§Ø²":4689,"ÙĪÙĨØ¯ÙĬ":4690,"ĠÙĤØ¯ÙĪØ©":4691,"ĠØ³Ø·":4692,"ĠÙĪØ§ÙĦØ·":4693,"ĠØ¹ÙĨÙĩØ§":4694,"ĠØªØ¹Ùĥ":4695,"ÙĦÙĤÙħØ§ÙĨ":4696,"ÙħÙĬØ³":4697,"Ø¯ÙĬØ±ÙĪÙĦÙĨØ§":4698,"ĠÙĪØªØ´":4699,"ĠÙĪÙħØ´":4700,"ĠÙĪÙħØ§Øª":4701,"Ø¨ÙĬØ¨ÙĨØ§":4702,"Ø§ÙĦØŃØ§Ø¬Ø©":4703,"ĠØ§Ø¨ÙĬ":4704,"Ø¨ØŃØ±":4705,"ĠÙħØ§Ø´Ø§Ø¡Ø§ÙĦÙĦÙĩ":4706,"Ġfait":4707,"ĠØ´Ø±ÙĥÙĩ":4708,"ĠØ¬Ø²Ø§ÙĬØ±ÙĬ":4709,"ĠØ¨ÙħØ¹ÙĨÙī":4710,"ive":4711,"ĠÙĪØ°":4712,"ĠÙĬÙĤØª":4713,"ĠØªØºÙĬØ±":4714,"ĠÙĦØ¯Ø§Ø±":4715,"ĠØ¹Ø§Ø´Ø±":4716,"ĠØ¬ÙĪØ±":4717,"ĠØ¯Ø§":4718,"ĠØ§ÙĦØ¨ÙĦÙĬ":4719,"ĠÙĬØªÙĤØ¨ÙĦ":4720,"ĠÙħØ«ÙĦÙĥ":4721,"Ġdu":4722,"ĠÙĨØ³ØªØ¹Ø±Ùģ":4723,"Ø¬Ø²Ø§Ø¦Ø±ÙĬÙĬÙĨ":4724,"ĠÙħØªØ§Ø¨Ø¹Ùĥ":4725,"Ø±ÙĬÙĥÙĬØ©":4726,"ĠÙĪØªØŃÙĬØ§":4727,"Ø§ÙĦÙĨÙĪØ±ÙĬ":4728,"ĠØ§Ø¯Ø¹ÙĪÙĦÙĬ":4729,"ĠØ´Ø§ÙħÙĪØªÙĬ":4730,"ĠØ£ÙĪÙĤØ±ÙĪØª":4731,"ÙĪØ§ÙĨÙĬ":4732,"Ø¨ÙĪØ±":4733,"ĠÙĬÙĪØ³Ùģ":4734,"Ø¬ÙĪØ²":4735,"ĠØ±ÙĨÙĬ":4736,"Ø²Ø§Ùħ":4737,"Ø®ÙĬÙĦ":4738,"ĠÙħÙĨØ§Ø¸Ø±":4739,"ĠØ£Ø¬ÙĦ":4740,"Ø§Ø¦Ø¯":4741,"ÙĪÙħÙĬØ¯ÙĬØ§":4742,"ÙĥØ±Ùĥ":4743,"ĠØªØ¹Ø§ÙĪØ¯":4744,"ÙĨØªÙĩØ§":4745,"ĠØªØŃØ±":4746,"ĠØ§ÙĦØªÙħØ±":4747,"ĠÙĥØ§ÙĬÙĨÙĬÙĨ":4748,"ĠØ³ÙĬØ§Ø±Ø©":4749,"ĠÙĪØ¨ØŃÙħØ¯Ùĩ":4750,"Ø¯ÙĬÙĨÙĩ":4751,"ØªÙĩØ§Ø´":4752,"ĠÙĦÙĦÙħÙĦÙĬÙĪÙĨ":4753,"ĠÙĦØ£ÙĨÙĥ":4754,"ĠØ¹Ø¯ÙĨØ§":4755,"ĠØ§ÙĦØºØ±Ø¨Ùĩ":4756,"ĠÙĪØ¨Ø§ÙĦØªÙĪÙģÙĬÙĤ":4757,"ĠÃ":4758,"ÙĪØ§ØµÙĦ":4759,"Ø§ÙĦÙħÙĪ":4760,"ĠÙĦØ§ÙĨÙĬ":4761,"ĠÙĨØ±Ø¨ØŃ":4762,"Ø¨ÙĬØ¹ÙĬ":4763,"ĠØ¬Ùĩ":4764,"ĠØ¯ÙĪØ±Ø©":4765,"ĠØ§ÙĦÙħÙĥ":4766,"ÙĪØ±Ùĩ":4767,"ĠØ¨Ø§ÙĦØ§Ùĥ":4768,"ĠØ¨ÙĦØ§ÙĬØµ":4769,"ĠÙĬØ¹ÙĬØ·":4770,"ĠØ§Ø®ÙĪØªÙĬ":4771,"ĠØ§Ø¨Ø§Ø±Ùĥ":4772,"ĠÙĬÙĨØ¬ØŃÙĥ":4773,"ĠÙĬØ³ØªØ±":4774,"ĠÙħØ³ØªØŃÙĬÙĦ":4775,"ĠÙĨØ¹Ø±ÙģÙĪ":4776,"ĠØ§ÙĦØ¨Ø±Ø§ÙħØ¬":4777,"ĠØ¨Ø§ÙĦØ¹Ø±Ø¨ÙĬØ©":4778,"ĠØ¨Ø¬Ø§Ùħ":4779,"ĠÙĤØ§Ø¯Ø§":4780,"ĠØ§ÙĦØ§Ø¹ÙħØ§ÙĦ":4781,"ØµÙĦÙĪØ³ÙĢÙĢ":4782,"oom":4783,"ĠØ§ÙĦØ§Øª":4784,"ĠÙħØ£":4785,"ĠÙħÙħØªØ¹":4786,"ĠÙĬØ§ÙĨ":4787,"ĠÙģØ¥ÙĨ":4788,"ØµÙĦÙĬ":4789,"Ø·Ø§Øª":4790,"Ø§ÙħØŃÙħØ¯":4791,"ĠØ´Ø§Ø±Ùĥ":4792,"Ø£ÙĪÙĦ":4793,"ĠÙĪØªÙĨ":4794,"Ø¨Ø¹ÙĬÙĨ":4795,"Ø¬Ø¹ÙģØ±":4796,"ĠÙĪØµØŃØ§":4797,"Ã©r":4798,"ĠÙħÙħØªØ§Ø²":4799,"ÙĨÙĪÙĨ":4800,"ĠØ§ÙĦÙĤØ¯ÙĬØ±":4801,"Ø¨Ø§Ø¹":4802,"Ø¯ÙĪÙĨÙĬ":4803,"ĠØªØ·ÙĪØ±":4804,"ĠØ¬Ø±":4805,"Ø§Ø¯ÙĪ":4806,"ĠØ£Ùģ":4807,"Ø§ÙĬÙĦÙĬ":4808,"Ø¸Ø±ÙĪØ§":4809,"ĠØ¥ÙĨØª":4810,"ØŃØ¨Ø©":4811,"ÙħÙĪØ´":4812,"ĠØ¥ÙĨÙĥ":4813,"ĠÙĩØ§Ø°ÙĬÙĥ":4814,"ĠØ§Ø¹ÙħØ§ÙĦ":4815,"Ø±Ø§ÙĥÙħ":4816,"ØªØ¹ÙĦÙĬÙĤ":4817,"ort":4818,"ĠÙĪØ§Ùħ":4819,"ĠÙĪÙĤØ¯":4820,"ĠÙĬÙĥØ±Ùĩ":4821,"ĠØªÙĪØ¹":4822,"ĠØªÙģØ±ØŃ":4823,"ĠØ§ÙĨØªÙĬ":4824,"ĠØ³ÙģÙĬØ±":4825,"ÙĪØ±ÙĨØ§":4826,"Ø«Ùħ":4827,"ÙĤÙĬÙĦØ§":4828,"ĠØ§ÙĦÙĥØª":4829,"Ø±Ø§ÙĤÙĬ":4830,"ÙĪØ¨Ø§Ø¡":4831,"ÙĪÙĩØ§Ø´":4832,"ĠÙĦÙĩØ¬Ø©":4833,"ĠØ³ÙĬÙĤ":4834,"Ġth":4835,"ĠÙĬØ¯ÙĪØ±":4836,"ĠÙĬØªÙģØ±Ø¬ÙĪ":4837,"ĠØ§ÙĦØ§ÙħØ§ÙĥÙĨ":4838,"Ø±ØŃÙĦØ©":4839,"ĠØ§ÙĤØ±ÙĪØª":4840,"ĠÙģÙĥØ±ØªÙĨÙĬ":4841,"ĠØ·ÙĪÙĬÙĦØ©":4842,"ÙĨØŃ":4843,"ĠØ¨Ø¯ÙĬ":4844,"ĠØ¨ÙĦÙĪ":4845,"ĠØ¹Ø§Ø¦":4846,"ĠØ¹ÙĪØ¯":4847,"ĠØ¹Ø§Ø¦ÙĦ":4848,"ĠÙĥÙĦØ§":4849,"ĠØŃÙĬÙĨ":4850,"ĠØ¯ÙĪÙħ":4851,"Ø§Ø¦ÙĨØ§":4852,"ĠÙĪØ§ÙĦØ«":4853,"Ø£ÙĬ":4854,"ĠØºÙĨÙĬ":4855,"ĠØ§ÙĦØŃÙĦØ§ÙĦ":4856,"ĠØ§ÙĦÙģÙĥ":4857,"ĠØ§ÙĦØ³ÙĪÙĤ":4858,"Ø±ØªÙĩØ§":4859,"ĠÙģØ§ÙĦØ¯":4860,"Ø¦ÙĦØ©":4861,"ĠØªØ¨ÙĪÙĨ":4862,"ĠÙĦÙĪØ§ØŃØ¯":4863,"ĠÙħØ§ÙĩÙĪØ´":4864,"ĠÙĬÙĩØ¯Ø±ÙĪ":4865,"Ø§ÙĦÙĬÙĩ":4866,"ÙħØ´ÙĬ":4867,"ĠØ§ÙĦÙĤØ¯":4868,"ĠÙĬØ·ÙĬØŃ":4869,"ĠÙģØ§ÙĦÙĬ":4870,"ĠÙĥØ§ÙĦ":4871,"Ø§Ø¯Ø¹":4872,"ĠÙĤØ§Ø±":4873,"Ø§ÙĬØ¹":4874,"ÙĥÙħØ§":4875,"ÙĨÙĬØªÙĬ":4876,"ĠÙħØ¹ÙĨØ§ÙĩØ§":4877,"Ø³ÙĬØ§ÙĦ":4878,"Ø¨Ø§Ø±ÙĥØ¹ÙĦÙī":4879,"Ø¨Ø±ÙĨØ§ÙħØ¬":4880,"ĠØ§ÙĦÙģÙĤØ±":4881,"ÙĤÙĪÙĦÙĥ":4882,"ĠÙħØªØ§Ø¨Ø¹Ø©":4883,"ĠØ§ÙĦÙĥØ¨":4884,"ĠØ§ÙĦØ£Ø¹ÙħØ§ÙĦ":4885,"ĠÙĪÙĨØŃÙĨ":4886,"Ø²ÙĬØ¯Ø´":4887,"ĠØ§Ø±Ø¬":4888,"Ø¤ÙĦØ§Ø¡":4889,"ĠÙĪØ¨ÙĬÙĨ":4890,"ĠÙĬØ³ÙĩÙĦÙĥ":4891,"ÙĬØ¹ÙĨÙĬ":4892,"ĠÙĪÙĤØ§ÙĦ":4893,"ĠØ§ÙĦØ§ÙħØ±":4894,"ĠÙĪÙĤØªØ§Ø´":4895,"ĠØ±Ø§ÙĤÙĬ":4896,"ĠÙĪØ§ÙĦØ¹Ø§ÙģÙĬØ©":4897,"ĠÙħÙģÙĬØ¯Ø©":4898,"Ġu":4899,"ÙĨØ¨ÙĬÙĨ":4900,"ÙħÙĬØ©":4901,"ĠÙĪÙģØ±":4902,"ĠÙĬØ³ÙĦÙħ":4903,"ĠØ¨ØŃÙħØ¯Ùĩ":4904,"ĠÙĦÙģØ±":4905,"ĠÙĥØ°Ø§":4906,"ĠØ³ØŃ":4907,"ĠØ¥ØŃ":4908,"ĠØ§ÙĦØŃØ§ÙĦØ©":4909,"ĠØ·Ø¨ÙĬØ¹":4910,"ĠÙħØ«ÙĤÙģ":4911,"ĠØ§ÙĦØºÙĨÙĬØ©":4912,"Ġcou":4913,"Ø´ÙĬØ§Ø¡":4914,"ĠÙĨØ³Ø§Ø¡":4915,"ĠØ¹ÙĤÙĦÙĬ":4916,"ĠØŃØ·ÙĬØª":4917,"Ġkh":4918,"ÙĤÙĬÙĤÙĬØ©":4919,"ĠØµØºØ§Ø±":4920,"ĠÙĥØ«ÙĬØ±Ø©":4921,"ravo":4922,"ĠØºØ²Ø§ÙĦÙĬ":4923,"ÙĨØ¨ÙĬÙĨÙĢÙĢ":4924,"ĠØ§ÙĦØ±ÙĪØŃ":4925,"ĠÙĩÙĨ":4926,"ÙĬØ±ØŃÙħ":4927,"ØµÙĪÙĬÙĦØŃ":4928,"ĠÙĤØ¯ÙĬÙħ":4929,"ĠØ£ÙħØ±":4930,"Ø§ÙĬÙĦØ©":4931,"Ø§Ø³ÙĬØ©":4932,"ĠÙħØ§ÙĤ":4933,"ĠØ¹ÙĨØ§Ø¨Ø©":4934,"ĠØ¨ÙĦØ¯ÙĬØ©":4935,"ĠÙĪÙĬØª":4936,"ĠÙĪÙĬØ¨Ø§Ø±Ùĥ":4937,"ĠÙħØªØ´":4938,"ĠØ§ÙĦØ³Ø¹Ø§Ø¯Ø©":4939,"ĠØ§ÙĬØ¬Ø§Ø¨ÙĬØ©":4940,"ĠØ§ÙĦØµØº":4941,"ĠØ§ÙĥØªØ±":4942,"ĠØ§ÙĦØ·Ø±ÙĬÙĤØ©":4943,"Ġse":4944,"ĠØ§ÙĦÙħØ¹ÙĦÙĪÙħØ©":4945,"ĠØªÙģØªØŃ":4946,"ĠØ§ÙĦÙĦØŃÙħ":4947,"ĠØ¹Ø´Øª":4948,"ĠÙĪÙĬØ¹Ø·ÙĬÙĥ":4949,"ĠØ¨Ø³ÙĬØ·":4950,"Ġcont":4951,"ÙĪÙĦÙĪØ¬ÙĬØ§":4952,"Ã¨":4953,"ÙĪØ§ÙĪ":4954,"ĠØ§ÙĦÙĨÙĬ":4955,"ĠØ§ÙĦÙĬÙĥ":4956,"Ø¯ÙĦÙĬ":4957,"ĠØ¨Ø§Ùħ":4958,"ĠØªÙĤØªÙĦ":4959,"ĠÙĥØ§Ø¨":4960,"ÙĦÙĬØ³":4961,"Ø·ÙģÙī":4962,"ĠÙĦÙĬØ§Ùħ":4963,"ĠÙĩÙĩÙĩÙĩ":4964,"ĠÙĥØ§ÙĨØ´":4965,"ĠØ§ÙĦØ¯Ø®":4966,"ÙĦØªÙĩ":4967,"ĠØ£ÙĨÙĩØ§":4968,"ĠÙĬØ®ÙĬ":4969,"ĠØ«Ø§ÙĨÙĬØ©":4970,"ĠØªØªØ¹":4971,"ĠØ´ÙĥØ±Ø§Ø§":4972,"end":4973,"ĠØ³Ø¨ØŃØ§ÙĨÙĥ":4974,"ĠÙĬØŃØ¨Ø³":4975,"ĠØ³ÙħØŃÙĦÙĬ":4976,"ĠÙĦØ¨ÙĨØ§ÙĨ":4977,"ĠÙĬÙĪÙħØ§":4978,"ØªØ¹Ø¬Ø¨ÙĨÙĬ":4979,"ĠØ§ÙĦÙģÙĬØ²Ø§":4980,"ĠØ£Ø¹Ø·":4981,"ĠØ³ÙĪØ§Ø¡":4982,"ĠÙĨÙĥØªØ¨":4983,"ĠØ³Ø¹ÙĬØ¯Ø©":4984,"pp":4985,"ÙĦÙĪÙĨ":4986,"ĠÙĪØ¶":4987,"ĠÙĪØ£ÙĨ":4988,"ĠØªÙĪØ¬Ø¯":4989,"ÙĦÙĬØª":4990,"Ø¨ÙĬÙĤ":4991,"ĠØ¬Ø¯Ùĥ":4992,"Ø§Ø¯Ø§Øª":4993,"ĠØ£ÙĪØ±":4994,"ĠØ§ÙĦÙħØ¨":4995,"ĠÙħØ¹ÙĩØ§":4996,"ÙģÙĬØ²":4997,"ĠØ¥ÙĦÙĬÙĥ":4998,"ĠØªØŃØªØ§Ø¬":4999,"ĠØ§ÙĦØ´ÙħØ³":5000,"ĠØ§ÙħÙĬ":5001,"ĠÙĬÙĥÙĪÙĨÙĪØ§":5002,"Ġvid":5003,"ĠØµÙĦØ§ØŃ":5004,"ĠÙħÙĬØ³Ø§Ø¬":5005,"ĠØ§ÙĦÙĤØ§Ø¯ÙħØ©":5006,"ter":5007,"ÙĨØ¨ÙĬÙĦ":5008,"Ø¯ÙĪÙĩ":5009,"ĠÙħÙģÙĬØ¯":5010,"ĠÙĬÙĤØ¯Ùħ":5011,"ĠØªØ±Ùģ":5012,"ĠØªÙĥÙĨ":5013,"ĠØªØ³ÙħÙī":5014,"ĠØ¹Ø¸ÙĬÙħ":5015,"ĠÙģÙĬÙħØ§":5016,"ØµØ¨ØŃ":5017,"ĠØ´ÙĥÙĦ":5018,"ÙĪÙĨÙĪ":5019,"ĠÙĤØ±Ø§":5020,"ÙĤÙĬØªØ´":5021,"ÙħØ¹ÙĦÙĪÙħØ§Øª":5022,"ĠØ§ÙĦØ£Ø®ÙĬØ±":5023,"ĠØ§ÙĦØµØºÙĬØ±":5024,"ĠÙħØŃÙħØ¯Ø§ÙĦÙĦÙĩÙħ":5025,"ĠÙħØ³Ø¤":5026,"ĠØ®ÙĦØµ":5027,"ĠØ¯Ø±ØªÙĪ":5028,"ĠØ¯ÙĬÙĨØ§Ø±":5029,"ĠØ§ÙĦØ±ØŃÙħØ§ÙĨ":5030,"ĠØ´Ø±ÙĥØ©":5031,"ĠØ±Ø£ÙĬ":5032,"ĠÙĪØ§ÙĤØ¹":5033,"ĠÙħÙģÙĩÙħØªØ´":5034,"ÙĦÙħÙĪØ¨Ø§Ø±ÙĥØ¹ÙĦÙī":5035,"ØµÙĦÙĪØ³ÙĢÙĢÙĦÙħÙĪØ¨Ø§Ø±ÙĥØ¹ÙĦÙī":5036,"ÙĨØ¨ÙĬÙĨÙĢÙĢØ§ÙħØŃÙħØ¯":5037,"ØµÙĦÙĪØ³ÙĢÙĢÙĦÙħÙĪØ¨Ø§Ø±ÙĥØ¹ÙĦÙīÙĨØ¨ÙĬÙĨÙĢÙĢØ§ÙħØŃÙħØ¯":5038,"ĠI":5039,"Ġha":5040,"ÙĨÙģ":5041,"ĠØ§ÙĦØ§Ø³Ùħ":5042,"ĠÙģÙħ":5043,"ĠØªÙĬØ¨":5044,"ĠÙĦØ³Øª":5045,"ĠØ¬ÙĪØ¯Ø©":5046,"ĠÙĤÙĪÙĦÙĪ":5047,"ĠÙĪØ§ÙĦØ®":5048,"ĠÙħØ¹ÙĦÙħ":5049,"ĠØ¨Ø§ÙĦØ®ÙĬØ±":5050,"ÙĪÙħÙĩ":5051,"ĠØ§ÙĦÙĨØ¹":5052,"ĠØ²Ø¯Øª":5053,"ĠØ§ÙĦØ®Ø§Øµ":5054,"ĠØ§ÙĦØ¥Ø³Øª":5055,"ĠØªÙģÙĥ":5056,"ØºÙĬØ³":5057,"ĠØ¯Ø±ØªÙĩØ§":5058,"ĠÙĥØ±Ùħ":5059,"ĠÙģÙĥØ§ÙĩÙĬ":5060,"ÙĦØ¬":5061,"Ø¯ÙĪÙĨ":5062,"ĠØ¨Ø¨":5063,"ĠÙĨÙĦØŃÙĤ":5064,"ĠÙĥØ§Øª":5065,"ĠÙĥÙĦÙĩÙħ":5066,"ØµÙĦÙĪØ§":5067,"Ø§ÙħÙĦØ©":5068,"ĠØ´Øª":5069,"ĠØ¬ÙĬÙĪ":5070,"Ø«ÙĬ":5071,"ĠÙĬØ¹ÙĪØ¯":5072,"ĠÙĦÙĦØ³":5073,"ÙĦØªÙĩØ§":5074,"ĠØ¶Ø±Ùĥ":5075,"Ø±ØªØ§ØŃ":5076,"ĠÙĤØ§ÙĦÙĪØ§":5077,"ĠÙĨØŃØªØ§Ø¬":5078,"Ġdans":5079,"ĠØ°Ø§":5080,"ĠØŃØ¨Ø³Øª":5081,"ĠÙĬØ´ÙĪÙģÙĪ":5082,"ĠØ¨Ø´ÙĥÙĦ":5083,"ĠØ³ÙĪØ¡":5084,"ĠØµØ¹ÙĬØ¨Ø©":5085,"ĠÙĨØ±ÙĤØ¯":5086,"od":5087,"ÙĪØ®":5088,"ĠÙħÙĦØŃ":5089,"ĠÙĬØ³Ø¨":5090,"ĠÙĬÙĥÙĨ":5091,"ĠØªÙĪÙģÙĬÙĤ":5092,"ĠØªØ±Ø¯":5093,"ĠÙĦØ§Ø²":5094,"ĠÙĦØ§ÙĥÙĨ":5095,"ĠØ¹Ø²ÙĬØ²":5096,"ĠÙĩØ§Ø±Ø¨":5097,"ÙĨØ§Ùħ":5098,"ØµÙĬÙĦ":5099,"Ø·Ø¹":5100,"Ø§Ø¯ÙĬØ©":5101,"ĠØ³ÙĬÙĨ":5102,"ĠØ³ÙħØ§":5103,"Ø§Ø³Ø¹Ø©":5104,"Ø§ÙĩØ¯ÙĬÙĨ":5105,"ĠØ¨Ø§ÙĦÙģØ±":5106,"Ø§Ø±ÙĥØ©":5107,"ĠØ§ÙĦØŃØ±Ø¨":5108,"ĠØ·ÙĦØ©":5109,"ĠØ§Ø®ÙĦØ§ÙĤ":5110,"ØŃØ¨Ø´":5111,"ĠØ§ÙĦØ¬Ø²Ø§Ø¦Ø±ÙĬÙĨ":5112,"Ø§Ø·Ø§":5113,"ĠØ§Ø³Ø·ÙĪØ±Ø©":5114,"ĠØ§ÙħØ§Ùħ":5115,"Ø¹ÙĦÙĨØ§":5116,"ĠØ§ÙĦØ«Ø§ÙĨÙĬØ©":5117,"ĠØ§Ø¯Ø®ÙĦ":5118,"ĠØ¨Ø§Ø¨ÙĪØ±":5119,"ĠÙĪÙģÙĤ":5120,"ĠÙĨØ±ÙĪØŃÙĪ":5121,"ĠØ²ÙĪØ§Ø¬":5122,"ĠØ§ÙĦÙħØªØ§Ø¨Ø¹ÙĬÙĨ":5123,"Ø²ÙĪÙĪÙħ":5124,"ĠÙĬØ¬Ø¹ÙĦÙĩØ§":5125,"Ø§ÙĦÙģÙĬØ¯ÙĬÙĪ":5126,"Ø±Ø§ØŃØ©":5127,"ÙĥØ§ÙĦ":5128,"Ø¯Ø¨":5129,"ĠÙħØ§ÙĦÙĬ":5130,"ĠÙħÙĤØ·Ø¹":5131,"ĠÙģÙħØ§":5132,"Ø§ÙĨÙĩ":5133,"Ø§ÙĨÙĥ":5134,"Ø²ÙĪÙĨ":5135,"ĠÙħÙĨØ¹Ø±Ùģ":5136,"ĠØ§ÙĦÙħØ¤ÙħÙĨ":5137,"Ø°Ùĥ":5138,"ĠÙĦÙĬØ´":5139,"ĠØ§ÙĦØŃÙĥÙħ":5140,"ØªÙĥØ´":5141,"ĠØ§ÙĥÙĦ":5142,"ĠØ¥ÙĨÙĩØ§":5143,"ĠÙĪØ¬Ø¹":5144,"ĠÙĨØ´Ø±":5145,"ĠØ´ÙģÙĨØ§":5146,"ĠÙĩØ§ÙĥØ§":5147,"ĠÙĦØ§Ø´Ø§ÙĨ":5148,"ma":5149,"ÙĪØ§Ùĥ":5150,"ĠØ§ÙĦÙĪØ¨Ø§Ø¡":5151,"ĠÙĪÙĬÙĥ":5152,"ĠÙħÙĪÙĨ":5153,"Ø¹Ø¬Ø¨":5154,"ĠØªÙĥÙĦ":5155,"ĠÙĦØ¢":5156,"ĠÙĩØ¨ÙĦ":5157,"Ø·Ø±Ø©":5158,"ĠØ´Ø¹Ø±":5159,"ĠØ´Ø§ÙĬÙģ":5160,"ĠØ®Ùħ":5161,"ĠØ®Ø¨ÙĬ":5162,"ĠØŃØ§Ø´":5163,"Ø¶ÙĬÙģ":5164,"Ø±ÙĬÙħØ©":5165,"ĠØ¯Ø¬":5166,"ĠØ§ÙĦÙħØªÙĪ":5167,"Ø§Ø¨ÙĦØ©":5168,"ØºÙĨÙĬØ©":5169,"ØªÙĬØ´":5170,"ĠØ·Ø¨":5171,"ĠÙĪÙĬÙĥÙĪÙĨ":5172,"ĠØ§ÙĦÙĤØ¯ÙĬÙħ":5173,"ĠØ§ÙĦØ·Ø§ÙĤØ©":5174,"ĠØªØ³ÙħØ§":5175,"ĠÙĥÙĪÙħÙĬØ±":5176,"ĠØ±Ø§ÙĬØŃØ©":5177,"ĠØ¹ÙĤÙĦÙĬØ©":5178,"ĠØŃÙħÙĬØ¯":5179,"ĠÙĬØ®Ø¯ÙħÙĪØ§":5180,"ĠØ·ÙĦØ¹Øª":5181,"ĠØ§ÙĦÙĤÙĬÙħØ©":5182,"Ø§ÙĦÙĨØ¬Ø§ØŃ":5183,"ĠÙĦØ§ØŃØ¸":5184,"ĠÙĥÙĪØ±Ø§Ø¬":5185,"ĠP":5186,"ĠØ©":5187,"ÙħØ§Ø´ÙĬ":5188,"ØªØ®Ø±":5189,"ĠÙħØ±ÙĪ":5190,"ĠÙħÙħÙĬØ²":5191,"ÙĤÙĬØ©":5192,"ĠÙĬØ±Ø¨ØŃ":5193,"ĠØ¨Ø§Ø³Ùħ":5194,"ĠØ¨ØŃÙĤ":5195,"ĠØªØ±Ø¨":5196,"ĠØªÙĥØ±Ùĩ":5197,"ĠÙĨØµØŃ":5198,"ĠÙĨØ¨ÙĬØ¹":5199,"ĠØ±Ùģ":5200,"Ø¨ÙĬØ§Ø¡":5201,"Ø¯ÙĬØ§":5202,"ĠØ³ÙĦÙĬ":5203,"Ø§Ø¦Ø¯Ø©":5204,"ĠØ§ÙĦØ¬ÙħØ§ÙĦ":5205,"ĠÙħØ¹Ø¬Ø¨":5206,"ØªÙĬÙħ":5207,"ÙĪÙħÙĨ":5208,"ĠØ§ÙĦØªØ±Ø¬ÙħØ©":5209,"ĠÙĦÙĦÙģ":5210,"Ø´ÙĪÙģÙĪ":5211,"ĠØ§ÙĦØ£ÙĨ":5212,"ÙĥÙĬÙħØ§":5213,"ĠØ§Ø¨Ø¯Ø§Ø¹":5214,"ÙħØ«ÙĦØ©":5215,"ĠØªÙĤØ¯ÙĬÙħ":5216,"ĠÙĬØ¬ÙĪ":5217,"ĠØªØªÙħÙĨÙī":5218,"ĠØ§ÙĦØ¥ÙĬ":5219,"ĠÙĬØ³ÙĥÙĨ":5220,"Ġmon":5221,"ĠÙĬÙĪÙħÙĬÙĨ":5222,"ĠØ§Ø³ØªÙģ":5223,"ĠÙĥÙĪÙĨØª":5224,"ÙĪØ§Ø±Ø¹":5225,"ĠØŃÙĥØ§ÙĬØ©":5226,"ĠØ§ÙĦØ±Ø³Ø§ÙĦØ©":5227,"ĠØ¹ÙĦØ§Ø¨Ø§ÙĦÙĥ":5228,"ĠØªÙĨØ³Ùī":5229,"ĠØŃÙĦÙĪØ©":5230,"Ø±ØºÙħ":5231,"ÙĩØ¯ÙĬ":5232,"ØªØ±ÙĬ":5233,"Ø¨ÙĤÙī":5234,"Ø¹Ùī":5235,"Ø³Ø§":5236,"ĠØ±Ø®ÙĬ":5237,"ĠØ¬ÙĩØ©":5238,"ĠØ¯ÙĬØª":5239,"ĠØ§ÙĦØ¹ÙĬØ´":5240,"Ø±ÙĪÙĩ":5241,"ĠÙĬØŃØ³":5242,"ĠØ²Ø±":5243,"ĠØ§ÙĨØªØ§":5244,"Ø³ÙĨØ©":5245,"ĠØ¯ÙĬØ±ÙĦÙĬ":5246,"ĠÙħØ³Ùĥ":5247,"ĠØ§Ø´ØªØ±Ø§Ùĥ":5248,"ĠÙĥÙĪÙħÙĬØ¯ÙĬØ§":5249,"Ø¯Ø¹ÙħÙĪ":5250,"ĠÙħÙĦØ§ØŃØ¸Ø©":5251,"ĠØ¨Ø³ÙĬØ·Ø©":5252,"ÙĩØ§Ø°ÙĬ":5253,"ĠØ§ÙĦØ¹ÙĤÙĦÙĬØ©":5254,"ĠØ§ÙĦØ±ÙĬØ§Ø¶":5255,"ĠØ§ÙĦØ¨ÙĦÙĬØ¯Ø©":5256,"Ø§ÙĦÙĩØ§":5257,"ØªØ±Ø¨":5258,"ØªØ¨Ø§Ø±Ùĥ":5259,"ĠÙħÙħØ§":5260,"ÙĤØ§ÙĪ":5261,"ĠØ¨ÙĪØª":5262,"ĠØ¨Ø§Ø±ÙĬØ³":5263,"ĠØ¹Ø§ÙĦÙĬ":5264,"ĠÙĨÙĨØª":5265,"ĠÙĨØ¨Ø¯":5266,"ĠØŃØµ":5267,"Ø§ØŃØ¸":5268,"ĠØºØ§Ø¶":5269,"Ø¸Ø§Ø±":5270,"ĠÙĬØ§Ø§":5271,"ĠÙĦÙĦÙĨ":5272,"ĠØ§ÙĨØªØ§Ø¹":5273,"ÙĥÙĬÙĦ":5274,"ĠØ¨Ø¹Ø¯ÙĩØ§":5275,"ĠØ³ÙĬØ§ØŃÙĬØ©":5276,"Ġme":5277,"ĠØ¨ÙĩØ°Ùĩ":5278,"ĠØ®Ø·Ø£":5279,"Ø¨ØµØŃØªÙĥÙħ":5280,"ĠØ¹ÙħØ±ÙĩØ§":5281,"ĠÙĬØ§Ø±ÙĬØª":5282,"awed":5283,"bl":5284,"ff":5285,"ÙĪÙĤØª":5286,"ÙĩØ°Ø§Ùĥ":5287,"ØªÙģ":5288,"Ø¨Ø§ÙĬÙĨ":5289,"ĠÙĪØ§Ø³Øª":5290,"ĠÙĬØ¤":5291,"ĠØ¹Ø§Ø¦ÙĦØ©":5292,"ĠØ±ÙĬØ³":5293,"ĠÙĩØ¨Ø·":5294,"Ø·ÙĦ":5295,"ĠØ£Ø¨ÙĪ":5296,"ĠØ³ÙĦØ§":5297,"Ø§Ø³Ø¨Ø©":5298,"ÙĦØ§ÙĤØ©":5299,"ĠØ·Ø¨Ø¹Ø§":5300,"Ø¨Ø±Ø§ÙĩÙĬÙħ":5301,"ĠØ§Ø³ÙħÙĬ":5302,"ĠØ§Ø³ÙĦØ§Ùħ":5303,"ĠØ§ÙĦØ£ÙħØ±":5304,"ĠØ§ÙĦØ®Ø§ÙĦÙĤ":5305,"ĠÙĬØ±ØŃÙħÙĩÙħ":5306,"ĠØ¶ÙĬ":5307,"ĠØ§ÙģÙĥØ§Ø±":5308,"ÙĬÙĪØ§ÙĨØ§Øª":5309,"ĠÙĩØ§ÙĬÙĦÙĬÙĨ":5310,"ĠØªØŃØ¨Ø³":5311,"ĠÙĤØ±Ø¹Ø©":5312,"ĠØ§ÙĦØ¶ÙĬÙģ":5313,"ĠØŃØ·Ø§Ø¨":5314,"ĠØ§ÙĦØªÙĪØ§ØµÙĦ":5315,"ĠÙĪÙĬØ´Ø§ÙģÙĬ":5316,"ĠØ§ÙĦÙĥØ±Ùħ":5317,"ĠØ§ÙĦØ§ÙĬØ§Ùħ":5318,"ĠØ§ÙĦØ§ÙĬØ¬Ø§Ø¨ÙĬØ©":5319,"ĠAl":5320,"ĠÙĨÙĦÙĤÙī":5321,"ĠØ§ÙĦØ§ØºÙĨÙĬØ©":5322,"ĠÙĤÙĦÙĬÙĦØ©":5323,"ĠØ§ÙĦÙĦÙĪØŃ":5324,"ĠØ§ÙĦÙģÙĤØ±Ø§Ø¡":5325,"se":5326,"ÙĬØ¯ÙĬØ©":5327,"ÙĪØ§ÙĨØ§":5328,"Ø±Ø§Ø´ÙĬ":5329,"Ø¹Ø§ÙĨ":5330,"ĠÙģØ§Ø¹":5331,"ĠØ¹Ø¯Ø©":5332,"Ø®ÙĦÙĪØ§":5333,"Ø·Ø§":5334,"ĠØ£Ø³Ø¨":5335,"ĠÙĦÙĬÙģ":5336,"ĠØ¨Ø§ÙĦØµØŃ":5337,"ÙĪÙħØ§Øª":5338,"ĠØ§ÙĦØŃÙĪ":5339,"ĠØ§ÙĦÙĨÙĩØ§ÙĬØ©":5340,"ĠØ§ÙĦØ´ÙħØ§ÙĦ":5341,"ĠØµØŃÙĬ":5342,"ĠØ§ÙħØ§ÙĥÙĨ":5343,"ĠÙħØŃØªØ±Ùģ":5344,"ĠØ¯ÙĬØ±ÙĪÙĨØ§":5345,"ĠØ§ÙĦØ±Ø§Ø¬ÙĦ":5346,"ĠÙĩØ§Ø¯ÙĪÙĥ":5347,"ĠØ§ÙģÙĩÙħ":5348,"ĠÙĪØ¬ÙĪÙĩ":5349,"ĠØ¹ÙĨØ¯ÙĬØ´":5350,"ĠØ¨ÙĨØ§Ø¡":5351,"ĠØªØªØ²ÙĪØ¬":5352,"ĠØ¨Ø¹Ø«":5353,"ance":5354,"ĠÙĬØ¨ÙĬÙĨ":5355,"ĠÙĬÙĤÙĪÙĦÙĬ":5356,"Ø²Ø§ÙĨÙĬØ§":5357,"ĠÙĨØªØ¨Ø¹Ùĥ":5358,"ĠÙģØ§ÙħÙĬÙĦÙĬ":5359,"ĠØ³ÙĪØ±ØªÙĪ":5360,"ĠÙħØŃÙħØ¯Ø§ÙĦÙĦÙĩÙħØµÙĦÙĪØ³ÙĢÙĢÙĦÙħÙĪØ¨Ø§Ø±ÙĥØ¹ÙĦÙīÙĨØ¨ÙĬÙĨÙĢÙĢØ§ÙħØŃÙħØ¯":5361,"Ûĥ":5362,"ĠE":5363,"ÙħØ¨Ø±":5364,"ÙĥÙĦÙĩ":5365,"ÙģÙĦÙĬ":5366,"ÙģØ±Ø©":5367,"ĠÙĬØ§Ø³":5368,"ĠØªØ±ÙĬØ¯":5369,"ĠØ¹ÙĦØ§ÙĤ":5370,"ĠØ£Ø¨ÙĬ":5371,"ĠØ§ÙĦÙħØ¨Ø§Ø±Ùĥ":5372,"Ø§Ø¦Ø¨":5373,"ĠÙĪØ§ÙĦÙĦÙĬ":5374,"Ø³ÙĦÙħØ©":5375,"ĠØ¨Ø§ÙĦØ¬Ø²Ø§Ø¦Ø±":5376,"ÙģÙĬÙĤ":5377,"Ø±Ø¬Ø¹ÙĪ":5378,"ĠØ§ÙĦÙĨÙģ":5379,"ĠØ·Ø¨ÙĬØ¨":5380,"ÙĤØ¯Ø©":5381,"ĠØ§ÙĦØ¨Ø´":5382,"ĠØ§ÙĦØ³ÙĬÙĨØ§Ø±ÙĬÙĪ":5383,"ĠÙĬØªÙħ":5384,"ÙĦØªÙĨØ§":5385,"ĠÙģØ§ÙĦØ¬":5386,"ĠØ¯ÙĬØ³ÙĦØ§ÙĬÙĥ":5387,"ĠØ§Ø±Ø²ÙĤ":5388,"ĠÙĬÙĥÙĪÙĨÙĪ":5389,"ĠØ¯Ø§Ø±ÙĨØ§":5390,"ĠØ§ÙĦÙħØºØ±Ø¨ÙĬ":5391,"ĠÙħØ¬ØªÙħØ¹":5392,"ĠØ§ÙĦØ§ÙĨØ¬ÙĦÙĬØ²ÙĬØ©":5393,"ĠØ®ÙĦÙĬÙĨØ§":5394,"Ø¨ØªÙĥ":5395,"ĠÙĪØŃØ¨":5396,"ĠÙħÙĬÙĥ":5397,"ĠÙħØ§ÙĨØª":5398,"Ø¹Ø§":5399,"ĠÙĨÙĤÙĬ":5400,"ĠØ±ÙĨØ§":5401,"ĠØ±ÙħØ¶":5402,"Ø·ÙĦØ¨":5403,"ĠÙĤØ§Ø±Ø©":5404,"ĠØ§ÙĦÙħØ§Ø¶ÙĬ":5405,"ĠØ³Ø±ÙĤ":5406,"ĠØ³ÙĪÙĬØ³":5407,"ĠØ§ÙĦØ¹Ùģ":5408,"ĠÙĥÙĦÙħØ§":5409,"ĠØ§ÙĦØŃÙĦÙĪ":5410,"ĠÙĨØªØ§ÙĪ":5411,"Ø¨ÙĦØ¯":5412,"ĠØ§ÙĦØ´Ø¹Ø±":5413,"ĠØ§ÙĦÙģØ±ÙĤ":5414,"ĠØ§ÙĦÙĤØ§Ø¯Ø±":5415,"ĠÙģØ§ÙĦØ´":5416,"ĠØ°ÙĩØ¨":5417,"ĠÙĪØ±Ø§ÙĨØ§":5418,"ĠØ§ÙĦØ²ÙħÙĨ":5419,"ĠÙĬØ¨Ø¹Ø¯":5420,"ĠØ±Ø¨ÙĨØ§":5421,"ĠØªØµÙĦØŃ":5422,"ĠØ§ÙĪÙĦØ§":5423,"ĠØªØ´ÙĪÙģÙĪ":5424,"ĠÙħØ§Ø±Ø³":5425,"ĠØ¯ÙĬÙĨÙĥ":5426,"Ø¯ÙħÙĪØ¹":5427,"ĠØ§ÙĦØ¯Ø¹Ø§Ø¡":5428,"ĠØ¨Ø§ÙĦÙĦØºØ©":5429,"pe":5430,"ĠÛĮ":5431,"ÙħØ±Ø©":5432,"Ø±ÙĨ":5433,"ĠØ§ÙĦØ²ÙĬ":5434,"Ø¨ÙĦÙĪ":5435,"Ø¨Ø§Ø·":5436,"Ø³ÙħØ§":5437,"ĠØ¨ÙĦÙħ":5438,"ĠÙģØŃ":5439,"Ø§ÙĨÙĪ":5440,"Ø¬ÙĨ":5441,"ĠÙĨÙĤØ·Ø©":5442,"ĠÙĪØ§ÙĦÙĨØ§Ø³":5443,"Ø§ÙĩÙĪ":5444,"Ø§ÙĪÙĩ":5445,"ØŃÙĥÙĬ":5446,"ĠØ§Ø®ÙĪØ§ÙĨÙĨØ§":5447,"ĠÙĪÙĬØ³Øª":5448,"ĠÙĬØŃÙģØ¸ÙĩÙħ":5449,"ĠØ§ÙĦØºÙħØ©":5450,"ĠÙĪØ¬ÙĦ":5451,"ĠÙĪØ¬Ø¯":5452,"Ø´ÙĬØ¡":5453,"ĠÙĨØŃØ¨ÙĪÙĥ":5454,"ĠÙĬØ¯Ø¹Ùħ":5455,"ĠØ¶ØŃÙĥÙĨÙĬ":5456,"ĠÙĬÙĨÙĤØµ":5457,"ĠØ¹Ø§ÙħØ©":5458,"ĠÙħØ§ÙĥØ§Ø´":5459,"ĠÙħØ³ØªØ¬Ø§Ø¨Ø©":5460,"ĠØ£ÙĨØªÙħ":5461,"ĠØ§ÙĨÙĬØ³":5462,"ĠØªÙĦÙĤØ§":5463,"iff":5464,"ĠØ®ØµÙĪØµØ§":5465,"ØºØ§ÙĨÙħ":5466,"Ø§ÙĦÙĩÙħ":5467,"Ø¨ÙĪÙĥ":5468,"ĠÙĪØ§Ø°Ø§":5469,"ĠÙĪØ·ÙĨ":5470,"ĠÙĪØ¹ÙĦØ§Ùĩ":5471,"ĠÙħØ§ÙģÙĬ":5472,"ĠÙĬØ¯ÙĪ":5473,"ĠÙĦØªØŃ":5474,"ĠÙĨØ§ØŃÙĬØ©":5475,"ĠÙĥØ°":5476,"ĠØ±ÙĪÙħ":5477,"Ø§Ø±Ø¶":5478,"Ø±ÙĬØ§":5479,"ĠØ§ÙĦÙħÙĬØª":5480,"ĠØ³Ø§Ùĩ":5481,"Ø§Ø¨Ùĥ":5482,"ĠØµØ§Ø±":5483,"Ø±ÙĥØ§Øª":5484,"ĠØªØŃÙĬØ§ØªÙĨØ§":5485,"ĠØªØŃÙĪÙĬØ³Ø©":5486,"ĠØ§Ø®Ø±ÙĬÙĨ":5487,"ÙĤÙĪÙĦÙĪ":5488,"Ø§Ø·ÙĨ":5489,"Ø§Ø·Ø¦":5490,"ĠØ±ÙĪØ·Ø§Ø±":5491,"ĠÙĪÙĦØ§ÙĬØ§Øª":5492,"ĠØ§ÙĦØ®Ø±":5493,"ĠØ§ÙħÙĪØ±":5494,"ĠÙĪÙħØ§Ø²Ø§ÙĦ":5495,"ĠÙĪÙĨØ³":5496,"ĠÙĪÙĩØ°":5497,"ĠØ°ÙĪ":5498,"ĠÙĬØ¬Ø±ÙĬ":5499,"Ø®ØµÙĪØµ":5500,"ĠØªÙĪÙĪØ¨":5501,"ĠÙĨØ®ÙħÙħ":5502,"Ġau":5503,"ĠÙĪÙħÙĨÙĥÙħ":5504,"ĠÙģÙĪØ±Ùħ":5505,"ĠÙĬØ±ÙģØ¹":5506,"ĠÙħØ§ÙģÙĬÙĩØ§Ø´":5507,"ĠØ§ÙĦØ£ÙĪÙĦÙī":5508,"ĠØ¯ÙĬØ¯ÙĬÙĨ":5509,"ĠF":5510,"ÙĪØ¯ÙĬ":5511,"Ø¹Ø´":5512,"ĠÙĬØªÙĪ":5513,"ĠÙĦÙģÙĬ":5514,"ĠÙĦØªÙħ":5515,"ĠØ¹ÙħÙĪ":5516,"ĠÙĥØ±Ø©":5517,"ĠØ±ÙĬÙħ":5518,"ĠØ¬Ø±Ø¨":5519,"ĠØ¬Ø¨ÙĦ":5520,"ÙĪÙĨØªÙĬ":5521,"ĠÙĤØ¯ÙĬØ±":5522,"ĠØµØ±Ø§Øª":5523,"ĠØ¨Ø§ÙĦÙħÙĨ":5524,"ĠØ¥Ø¨Ø±Ø§ÙĩÙĬÙħ":5525,"ĠØ¨ÙĦØ¯Ùĥ":5526,"ĠØ·Ø±":5527,"ĠØ·ÙħÙĪØŃ":5528,"Ø§ØµÙĬ":5529,"ĠØ§ÙĦØ´Ùĩ":5530,"ĠØ§ÙĦØ´ÙĥØ±":5531,"ĠØ§ÙĦØ£ÙģØ¶ÙĦ":5532,"ĠØ§ÙĦÙĪØ²ÙĬØ±":5533,"ĠØ¯ÙĬØ§ÙĦÙĬ":5534,"ĠÙĪÙĩØ°Ùĩ":5535,"ĠØ°Ùĩ":5536,"Ø´ÙĬØ·":5537,"ĠØªØ¬Ø±ÙĬ":5538,"ØŃØ§ÙĦØ©":5539,"ĠØ§ÙĦÙħØ´Ø§ÙĩØ¯Ø©":5540,"Ġsur":5541,"ĠØ§ÙĦÙħØ³Ø¬Ø¯":5542,"ille":5543,"ĠØ§ÙĦÙģØ±ÙĨØ³ÙĬ":5544,"ĠØ§ØºÙģØ±":5545,"ĠÙĨÙĩØ¶Ø±":5546,"Ø¨Ø®Ø¨Ø®":5547,"ĠØ¯ÙĤØ§ÙĬÙĤ":5548,"Ø¨Ø²Ø§Ùģ":5549,"ĠØµØ¯ÙĤØ©":5550,"ĠØªÙģÙĥØ±Øª":5551,"ĠØ§ÙĦØ¨Ø¯Ø§ÙĬØ©":5552,"ĠØ´ÙģÙĬØ¹ÙĨØ§":5553,"la":5554,"to":5555,"Ø¯ÙĩØ§":5556,"ĠÙĬÙĥÙħ":5557,"ĠÙĬØ§Ø³Ø±":5558,"ĠÙģÙĩÙĬ":5559,"Ø´ÙģØª":5560,"Ø²Ùĩ":5561,"ĠØ´ÙĬÙĥ":5562,"ĠÙĤØ§Ùħ":5563,"ĠØ§ÙĦÙħØ¯":5564,"Ø§Ø¨ÙĬØ©":5565,"ĠØ§ÙĦØ¹ÙģÙĪ":5566,"ĠØ§ÙĦØ¹Ø§Ø¬ÙĦ":5567,"Ø§ÙĨÙĬØ§Øª":5568,"ĠÙħØªÙģ":5569,"ĠØ§Ø³Ùĥ":5570,"ĠØ§ÙĩÙħ":5571,"ÙĥÙĦØ§Ùħ":5572,"ĠØ£ÙĨØ¸Ø±ÙĪØ§":5573,"ÙĪÙĦÙĬØ³":5574,"ĠØ¶Ø±Ø¨Ø©":5575,"ĠØ§ÙĦØµÙħØ¯":5576,"ĠØ§Ø±Ø¨Ø¹":5577,"Ġdiff":5578,"ĠØ¨Ø±Ø§ÙħØ¬":5579,"Ø´ÙĬØ®":5580,"ØªÙħØ§Ø¹ÙĬ":5581,"ØºÙĬØ¶":5582,"ĠØ¹Ø§ÙĬØ´Ø©":5583,"ĠÙĥÙĨØ¯Ø§":5584,"Ġfaire":5585,"Ø²ÙĬØ±ÙĬØ©":5586,"ĠÙĥØ§ÙħÙĦØ©":5587,"ĠÙĥÙģØ§Ùĩ":5588,"ĠØµØ¯ÙĤÙĨÙĬ":5589,"ĠØ±Ø§Ø¬Ø¹ÙĪÙĨ":5590,"ĠÙħØ§ÙģÙĩÙħØªØ´":5591,"ĠØ§ÙĦÙħÙħÙĦÙĥØ©":5592,"Ø±ÙĪÙĬØ¬":5593,"ĠØ¨ÙĩØ¯":5594,"ĠØ¹ÙģÙĪ":5595,"ĠÙĨØº":5596,"ĠÙģÙĬØ¯ÙĬÙĪØ§":5597,"Ø®Ùħ":5598,"ĠØ´Ø±ÙĤ":5599,"Ø£Ø¬ÙħÙĦ":5600,"Ø«Ø±Ø©":5601,"ØµØŃØ±Ø§Ø¡":5602,"ĠÙĦÙĦØ®":5603,"ĠØ§ÙĦØ¨Ø§Ø±ØŃ":5604,"ĠØ§ÙĦØ£ÙĤÙĦ":5605,"ĠÙģÙĬØ¯ÙĬÙĪØ§ØªÙĥ":5606,"ĠØ§ÙĦØ¬Ø²Ø§Ø¦Ø±ÙĬÙĩ":5607,"ĠØªØ¨ÙĥÙĬ":5608,"ÙĩØ§Ø±Ø§Øª":5609,"ĠÙĪØ£ÙĨØª":5610,"ĠØ§ØµØŃØ§Ø¨":5611,"ĠØ§ÙĦØ§Ø®Ø±Ùī":5612,"Ø¬Ø²Ø§Ø¦Ø±ÙĬ":5613,"ĠØŃÙħØ§Ùħ":5614,"ĠØ¬ÙĨÙĪØ¨":5615,"ĠØ§ÙĦÙģØ±ØŃØ©":5616,"ĠØ§ÙĦØ¸Ø§ÙĦÙħÙĬÙĨ":5617,"ĠÙĦÙĦØ¬ÙħÙĬØ¹":5618,"Ġvois":5619,"ĠÙĨØ²ÙĪØ±ÙĩØ§":5620,"ĠÙħÙĬÙħØªÙĥ":5621,"ique":5622,"ÙĪØ§Ø¨":5623,"ĠØ§ÙĦÙĪØ§Ø¯":5624,"Ø¨Ø±ÙĬ":5625,"ĠÙĪØ§Ùģ":5626,"ĠÙĪØ§Øº":5627,"ØŃÙĬÙĨ":5628,"ÙģÙĨØ§":5629,"ĠÙĬÙĪØ³Ø¹":5630,"Ø´ÙĥÙĦ":5631,"ĠØ¹Ø§ÙĦÙĬØ©":5632,"ĠÙĥØ§ÙĦÙĬ":5633,"ĠØ±Ø§ÙĨ":5634,"ÙĦÙĬÙģ":5635,"ØµÙĦØŃ":5636,"Ø·ÙģØ§ÙĦ":5637,"ĠØŃØ³ÙĬ":5638,"ĠØ£Ø°":5639,"ĠØ¯Ø²ÙĬØ±ÙĬ":5640,"ÙĪÙĦØ´":5641,"ØªÙĬØ§Ø²":5642,"Ø§Ø¬Ùĩ":5643,"ĠØ¨ÙĦØº":5644,"ĠÙĬØ¹ÙĬÙĨÙĥ":5645,"ĠØªØŃÙĤÙĤ":5646,"ĠØ§Ø®ØªÙĥ":5647,"ĠÙĪÙĦØ§ÙĪ":5648,"ĠØ¨Ø¯ÙĬÙĨØ§":5649,"Ġmar":5650,"ĠÙĨÙĤÙĪÙĦÙĪØ§":5651,"ĠÙĦØ§ÙĨÙĩØ§":5652,"ĠÙħØ¬ÙĬØ¯":5653,"ĠØ¬Ø²Ø§Ø¡":5654,"ĠÙħØ¨Ø¹Ø¯":5655,"ĠÙĥØªÙĬØ±":5656,"ĠØ§ØºÙĦØ¨":5657,"ĠØ¯Ø¹Ø§Ø¡":5658,"ĠØ¬ÙĬØ¯Ø§":5659,"ĠØºÙĦØ·Ø©":5660,"ĠØ§Ø¹Ø·ÙĬÙĨÙĬ":5661,"ĠØ§ÙĦØ³ÙħØ§Ø¡":5662,"ĠÙĪÙĦØ§ÙĬØªÙĬ":5663,"ĠØ§ÙĦØ¹Ø¶ÙĬÙħ":5664,"ĠØªÙĬØ¨Ø§Ø²Ø©":5665,"ÙĬØ§Ø¬":5666,"ĠØ¡":5667,"Ø§ÙĦÙĬØ§":5668,"ĠÙħÙĪØ³Ùħ":5669,"ÙģØ§Ùģ":5670,"ÙĤØ±ÙĬ":5671,"ĠØªØ®ÙĦ":5672,"Ø§ÙĨÙĪØ³":5673,"ĠÙĩÙĬØ´Ø§Ùħ":5674,"Ø²Ø±":5675,"Ø§Ø±ÙĪØ¹":5676,"Ø·ÙĦØ§ÙĤ":5677,"ĠØ§ÙĦÙħØªØŃ":5678,"Ø°Ø©":5679,"ĠØ³ÙĬØª":5680,"Ø±Ø¬ÙĪ":5681,"ÙĪØ§Ø§Ø¯":5682,"ĠØ§Ø±Ø¬ÙĪ":5683,"oud":5684,"ĠØ¨Ø±ÙĪÙģÙĬ":5685,"ĠÙħØ³Ø§ÙĥÙĨ":5686,"ĠØªØ¨ÙĬÙĨ":5687,"ĠØ§Ø´ÙĩØ±":5688,"Ġfo":5689,"ÙĥÙĪØ¨ÙĬ":5690,"ÙħØ§Ø´Ø§Ø¡Ø§ÙĦÙĦÙĩ":5691,"ĠØ§ÙĦÙĨØ¬Ø§ØŃØ§Øª":5692,"ĠÙĨØªÙĪØŃØ´":5693,"ĠÙĦØ§ÙħØ±ÙĬÙĥØ§":5694,"ĠÙĨÙħØ´ÙĬ":5695,"ĠØ§ÙĦÙħØ´Ø§ÙĩØ¯Ø§Øª":5696,"ĠÙħÙĪÙĩØ¨Ø©":5697,"ĠØ§ÙĦØ¨Ø¹Ø¶":5698,"ĠO":5699,"Ø§Ø§Ùĩ":5700,"Ø§ÙĦØ§ÙĦ":5701,"ÙħØ±ÙĬÙĥØ§":5702,"Ø±ÙĨØª":5703,"ĠØ§ÙĦÙĤØ¯Ùħ":5704,"ØŃØªÙĪÙī":5705,"ÙĤØ¹":5706,"ÙĤÙĦÙĬ":5707,"ĠÙĬÙĦÙĬ":5708,"ĠÙĬØ§Ùħ":5709,"ĠÙģÙĦØ©":5710,"Ø§ÙĨØ´":5711,"Ø§ÙĨØ´Ø§Ø¡":5712,"ÙĬÙĨØ§Øª":5713,"ĠÙħÙĨÙĬØ´":5714,"ĠØ¯Ø¨ÙĬ":5715,"Ø§ØŃØ¨Ùĥ":5716,"ØºØ§Øª":5717,"Ø§Ø³Ùĥ":5718,"Ø«Ø§Ø±":5719,"ĠØ§ÙĦØ¹ÙĨÙĪØ§ÙĨ":5720,"ÙĦØ§ÙĪØ©":5721,"ĠÙħØ¹ÙĨØªÙĩØ§":5722,"ÙĦÙĪÙĩØ§":5723,"ĠØ¹ÙĨÙĥ":5724,"ĠØ¹ÙĨÙĪØ§ÙĨ":5725,"ĠØ§ÙĦÙģØ§ÙĬ":5726,"ĠÙĦÙĦØ´Ø¹Ø¨":5727,"Ø±ØŃÙħÙĩ":5728,"ĠØ§Ø³ÙĥÙĪ":5729,"ĠØ§ÙĪØ±ÙĪ":5730,"ĠÙĪØªØª":5731,"Ø§Ø±ÙĬØ¹":5732,"ĠØµØ§ÙĦØŃØ©":5733,"ĠØªØ´ÙĪ":5734,"ĠØ§ÙĦÙħØºØ§Ø±Ø¨Ø©":5735,"Ġva":5736,"Ġvra":5737,"ĠØ§ÙĦØ§Ø®Ø±ÙĬÙĨ":5738,"ĠÙħØºØ±Ø¨ÙĬØ©":5739,"ĠÙģÙĩÙħØªÙĨÙĬ":5740,"ĠÙĦØ£ÙĨÙĪ":5741,"ĠØ§ÙĦÙģÙĬØ³Ø¨ÙĪÙĥ":5742,"ĠÙĦÙĦØ¹Ø§ÙĦÙħ":5743,"ĠÙģÙĨØ§ÙĨÙĬÙĨ":5744,"ĠÙĨÙĤØ¯Ø±ÙĪ":5745,"ĠØ§ÙĦØ³Ø¨Ø¨":5746,"Ġzoom":5747,"ĠÙħØŃÙħØ¯Ø§ÙĦÙĦÙĩÙħØµÙĦÙĪØ³ÙĢÙĢÙĦÙħÙĪØ¨Ø§Ø±ÙĥØ¹ÙĦÙīÙĨØ¨ÙĬÙĨÙĢÙĢØ§ÙħØŃÙħØ¯Ø§ÙĦÙĦÙĩÙħ":5748,"jawed":5749,"Ú¯":5750,"Ø§ÙĪÙĨÙĬ":5751,"ÙĦØ´":5752,"Ø¹Ø·":5753,"ÙĤÙĬÙĨ":5754,"ĠÙĬØ§Ø¨":5755,"ĠÙĬØ§Ùĩ":5756,"ĠÙģØ§Ùħ":5757,"ĠÙģÙĩØ§Ø¯":5758,"ĠØªÙĨØ§":5759,"ĠØ±Ø³Ùħ":5760,"ĠØ¬Ø§ÙĨ":5761,"ĠØ§ÙĦÙħÙĤØ·Ø¹":5762,"Ø§ÙĥØ³ÙĬ":5763,"ĠØ³Ø¹Ø±":5764,"Ø±ÙĪÙĩØ§":5765,"ÙħÙĬØ²Ø©":5766,"ĠØ§ÙĦØ¨ÙĨ":5767,"ĠÙĪØªÙĥÙĪÙĨ":5768,"Ø¥Ø°Ø§":5769,"ĠÙĪØŃØ¨ÙĬØ¨ÙĨØ§":5770,"ĠØ«Ø§ÙĦØ«":5771,"ĠØªØªØ¹Ø¨":5772,"ĠØ§ÙĦØ«ÙĤ":5773,"ĠØ§ÙĦØ«ÙĤØ§ÙģØ©":5774,"ĠØ§Ø´ØªØ±Ùĥ":5775,"ĠØ®Ø§ÙĪØªÙĨØ§":5776,"Ø³Ø·ÙĬÙĨÙĬ":5777,"ĠÙħØ³ØªØºØ§ÙĨÙħ":5778,"ĠØªÙĦÙĤØ§Ùĩ":5779,"ĠØ§ÙĦØ¨Ø±Ø¯":5780,"ÙĩÙĬÙĦØ©":5781,"Ø¬Ø²Ø§Ùĥ":5782,"ĠÙħØ§Ø¹Ø±Ùģ":5783,"ĠØ¨Ø·ÙĦ":5784,"ĠØ´Ø¹Ø§ÙĦ":5785,"imp":5786,"ĠÙĬØ®ÙĦÙĬÙĥÙħ":5787,"Ø®Ø³Ø§Ø±Ø©":5788,"ÙħØ¨Ø±ÙĪÙĥ":5789,"cou":5790,"ĠV":5791,"Ġand":5792,"ĠØ¨ÙĪÙĦ":5793,"ĠÙĦÙĬØ±":5794,"Ø²ÙĬÙħ":5795,"ĠÙħÙĨØ´":5796,"ĠØŃØ¬":5797,"ÙĩØ§ÙĬ":5798,"ĠØ¯ÙĬØ¨":5799,"ĠØ³Ø¹":5800,"ĠØ§ÙĦØŃØ¯ÙĬØ«":5801,"ĠØ·Ø¨ÙĬØ¹Ø©":5802,"Ø³ÙĬÙĦØ©":5803,"ĠØ§ÙĦÙĤØ§Ø¯Ùħ":5804,"ĠÙĪÙĦØ§Ø²Ùħ":5805,"ĠØ§ÙĦØ£ÙħØ©":5806,"ÙģÙĬØ¯ÙĬÙĪÙĩØ§ØªÙĥ":5807,"ĠÙĬØªØŃ":5808,"ĠÙĨØ¹ÙĪØ¯":5809,"ĠÙĨØ¹Ø·ÙĬÙĥ":5810,"ÙħØ±Ø¶":5811,"ĠØ«Ø§ÙĨ":5812,"ĠØ§ÙĦØ·ÙĬØ¨Ø©":5813,"ĠÙĨØ§Ø³ÙĩØ§":5814,"ĠÙħØ§ØªØ´":5815,"ĠØªØ¬ÙĪØ²":5816,"ĠØªØ³ÙĥÙĨ":5817,"ĠØ¯Ø§Ø±Øª":5818,"ØŃÙĤÙĤ":5819,"rage":5820,"ĠØ¨ÙĦØ¯ÙĨØ§":5821,"ĠØ®Ø§Ø·Ø±ÙĬ":5822,"ĠØ·ÙĬØ¨ÙĬÙĨ":5823,"ĠØ§ÙĦØ£Ø®ÙĬØ±Ø©":5824,"ĠØ§ÙĦØ¹ØµØ§Ø¨Ø©":5825,"ĠÙĨØ¨ØºÙĬÙĥ":5826,"ĠØ§ÙĦØ§ÙĦÙĥ":5827,"ĠÙħÙĤØª":5828,"ĠÙĬÙħÙĨ":5829,"ĠÙģØ·":5830,"ĠÙģØ±Ø¬":5831,"ĠÙģÙĪØª":5832,"ĠØªØªÙĪ":5833,"ĠØªØ§ÙģÙĩ":5834,"ĠÙĦØ°ÙĦÙĥ":5835,"ĠÙĦØ¨Ø¹Ø¶":5836,"ĠÙĨØ¨ÙĬ":5837,"ĠÙĨÙĬÙģ":5838,"ĠÙĩØ¤ÙĦØ§Ø¡":5839,"Ø§Ø±Ø¯":5840,"ĠØ§ÙĦÙħØ¯ÙĨ":5841,"ĠØ§ÙĦØ¹Ø±Ø´":5842,"ĠÙħØ¹ÙħØ±":5843,"Ø±ÙĪØ§ÙĦ":5844,"ĠØ¨Ø§ÙĦØ¯ÙĬÙĨ":5845,"ĠØ¨Ø§ÙĦØ¶Ø¨Ø·":5846,"ĠØºØ±Ø¨":5847,"ĠØ¥Ùģ":5848,"ĠØ®ÙĪÙĬØ§Ø§":5849,"ĠØ§ÙĦØ´ÙģØ§Ø¡":5850,"Ø¹Ø¯Ø©":5851,"ÙħÙĦØ§ØŃ":5852,"ĠØ§ÙĦØ³ÙĪØ¯":5853,"ĠØ¶ÙĬÙģ":5854,"ĠØ¨ÙĦÙĬÙĬØ²":5855,"ĠØªØ³ØªÙĩÙĦ":5856,"ĠÙĨØ³ÙĤØ³ÙĬ":5857,"ĠÙĨÙĤÙĪÙĦÙĩØ§":5858,"ĠØ¨Ø³ÙĥÙĪ":5859,"ĠØªÙģÙĪØª":5860,"ÙħØªØ¹ÙĨØ§":5861,"ĠÙħØªØ§Ø¨Ø¹ÙĬÙĨ":5862,"ĠÙĪÙĬØŃÙģØ¸Ùĥ":5863,"Ø²Ø¹Ùģ":5864,"ĠØ¹Ø§ÙĦÙħÙĬØ©":5865,"ĠØ§ÙĦÙĩØ¯Ùģ":5866,"ĠØ¯ÙĤØ§Ø¦ÙĤ":5867,"ĠÙĬØ§ÙĨÙĪØ±ÙĬ":5868,"Ù¾":5869,"ĠØ§ÙĦÙĦØ¨":5870,"ĠÙħÙĬØ´":5871,"ĠÙĩØ¯Ùĩ":5872,"ĠØ´Ø¬Ø±Ø©":5873,"ĠØŃØ§ÙĬØ±":5874,"ĠÙĤÙĪ":5875,"Ø±ÙĬÙĥÙĬ":5876,"Ø§ÙĥØ«Ø±":5877,"ĠØ³Ø§Ø¹Ùĩ":5878,"Ø§Ø¦Ø¬":5879,"ĠØ§ÙĦØ¹ÙħØ±":5880,"ĠØ§ÙĦØ¹ÙĥØ³":5881,"ÙĪÙħÙĬÙĨ":5882,"ÂłĠ":5883,"ĠØ§ÙĦÙĨÙĪØ±":5884,"ĠØ·Ø¨ÙĬØ¹ÙĬ":5885,"Ø§ØµØ±":5886,"ĠÙħØªÙħÙĨÙĬ":5887,"ÙĪÙĬÙĦ":5888,"ĠØ§ÙĦØ®ÙĬ":5889,"ĠÙĬØŃÙģØ¸ÙĩØ§":5890,"ĠÙħÙĬÙĦ":5891,"ĠØ§ÙĦØµØ¯":5892,"ĠØ¯ÙĬØ²":5893,"ĠÙĪÙĩÙĨØ§":5894,"ĠÙĨØ´ÙĪÙģÙĩØ§":5895,"ĠÙħØ§ØªÙĪ":5896,"ĠÙĪØ±Ø³":5897,"ĠÙĦØ¹ÙĤÙĪØ¨Ø©":5898,"ĠØ¹ÙĨØ¯ÙĥØ´":5899,"ĠØªÙĤÙĪÙĦÙĪ":5900,"ĠÙħØ§ÙĨØ´ÙĪÙģ":5901,"ĠÙĬØ¹Ø±ÙģÙĪ":5902,"ĠØ§ÙĦØ¹Ø±Ø¨ÙĬÙĩ":5903,"ĠØ§ÙĦØ¥Ø³ÙĦØ§ÙħÙĬØ©":5904,"ĠÙĦØ¹Ø¨Ø©":5905,"ĠÙħØ§ÙĩÙĪ":5906,"Ġbeau":5907,"ĠÚ©":5908,"ÙĦÙĨ":5909,"ÙĨØŃÙĨ":5910,"ÙħØ§Ùĥ":5911,"ÙħØ§Ø·":5912,"ĠÙĪØ±ÙĪØŃ":5913,"ĠÙħÙĪØ§ÙĤØ¹":5914,"ØŃØ§":5915,"Ø³Ùģ":5916,"ĠØ¨Ø«":5917,"ĠØ±ØºÙĬØ³":5918,"ĠØ®Ø³Ø±":5919,"ĠØ£ÙĦÙħ":5920,"Ø§Ø¨Ø±":5921,"ĠØµØ±Ø§":5922,"ĠØ§ÙĦØ¹Ø¨Ø§Ø¯":5923,"ĠØ¨Ø§ÙĦØ±ØŃÙħØ©":5924,"ÙģÙĬØ³":5925,"ĠØ®ÙĪØªÙĨØ§":5926,"ĠØ§ÙĦØŃÙĦÙħ":5927,"ĠØ§ÙĦØŃØ¨Ø³":5928,"ĠØªØŃÙĬÙĩ":5929,"ĠØ§ÙĦØªØ±":5930,"ĠØ§ÙĦØ¨ÙĨØ§Øª":5931,"ĠØ§ÙĦÙĥØ±ÙĬÙħØ©":5932,"ĠØ§ÙħÙĥ":5933,"ĠØªÙĨØµØŃ":5934,"ĠØªØ³Ø§Ø¹Ø¯":5935,"ĠÙĨØªØ§Ø¹ÙĬ":5936,"Ġfor":5937,"ĠØ®Ø·Ø±":5938,"ĠØ¹Ø¨Ø§Ø±Ø©":5939,"ĠÙĪÙĬØ¹Ø§ÙģÙĬÙĩ":5940,"ĠØŃÙĪØ§ÙĦÙĬ":5941,"ĠØ¨Ø±ÙĪØ¯ÙĪÙĬ":5942,"ĠÙĨÙĪØµÙĦ":5943,"ĠÙĨØŃÙĪØ³ÙĪ":5944,"ĠÙģÙĥØ§ÙĩÙĬØ©":5945,"ĠØ¯ÙĪÙĥØ§":5946,"ĠÙĪØ§ØµÙĦÙĪ":5947,"ĠÙĪØ§ØªÙĪØ¨":5948,"ÙĨØµÙĬØŃØ©":5949,"ÙģÙĬÙĥÙĪØ³":5950,"ĠØ§ÙĦÙħØ¬ÙĩÙĪØ¯Ø§Øª":5951,"ĠØ³ÙĦØ§Ø§Ùħ":5952,"ee":5953,"ÙħØ²Ø§ÙĦ":5954,"ĠÙĪØ§ÙģØ¶ÙĦ":5955,"Ø³ÙĬØ¯":5956,"ĠÙĬÙĩÙħ":5957,"ĠÙĬØ±Ø¯":5958,"ĠØ¨ÙģØ¶ÙĦ":5959,"ĠÙĨÙĬØ´":5960,"ĠØ®Ø´":5961,"Ø¯ÙĬÙħØ§":5962,"ĠØ³Ø¨Ø¹":5963,"ĠØ³ÙĬØ±ÙĬ":5964,"ØºÙĪ":5965,"ĠÙĦÙĬØ²":5966,"Ø³ÙĬÙĪ":5967,"ĠÙĬØ¨Ø§Ø±ÙĥÙĦÙĥ":5968,"ĠØ¯ÙĬØ±ÙĩØ§":5969,"ĠØ§ÙĦØµÙĪØ±Ø©":5970,"ĠÙĦÙħØ¯Ø©":5971,"Ø³ÙħØŃÙĦÙĬ":5972,"ĠÙĨØ´ÙĪÙģÙĪØ§":5973,"ĠÙĨØ´ÙĪÙģÙĪÙĥ":5974,"ÙħØªØ¹Ø©":5975,"ons":5976,"Ġte":5977,"ĠÙĬØ¯ÙĬØ±ÙĪØ§":5978,"Ø±ÙĬÙĤÙĩ":5979,"ĠØªÙħØ§Ùĥ":5980,"ĠØ§Ø¯Ø¹ÙĬ":5981,"ĠÙħÙĪØªÙī":5982,"ĠÙĤØªÙĦÙĪ":5983,"ÙĬØ·Ø§ÙĨ":5984,"ĠØ±ØŃÙĦ":5985,"ĠØ¨Ø§ÙĦØ¹ÙĤÙĦ":5986,"ĠØ¹ÙħØ±Ùĩ":5987,"ĠÙĬÙĩØ¯ÙĬÙĥÙħ":5988,"ĠØ§ÙĦØ·ÙĬØ¨ÙĬÙĨ":5989,"ĠØµØ¹ÙĬØ¨Ùĩ":5990,"ĠÙħÙħÙĨÙĪØ¹":5991,"ĠÙĬØ³ÙĦÙħÙĥ":5992,"ÙĬÙĩØ§":5993,"ĠØ§ÙĦÙĬÙħ":5994,"ÙĥØ§Ø´":5995,"ØªÙĪÙĨ":5996,"Ø¨Ø§ÙĬ":5997,"ĠÙĪØ³ÙĦØ§Ùħ":5998,"ÙĤÙĪØ©":5999,"ĠÙģÙĩØ°Ø§":6000,"ĠØªÙħØ«":6001,"ĠØªØ±Ùī":6002,"ĠÙĨØ§Ùĥ":6003,"ĠÙĨØ³Ø¨Ø©":6004,"ĠÙĥØ°Ø¨":6005,"ĠØ±ÙĬØª":6006,"ĠØ±Ø¦ÙĬØ³":6007,"Ø®Ø±Ø§":6008,"ĠÙĤØ§Ø³":6009,"ĠØ£Ø±ÙĬØ¯":6010,"Ø§ÙĥØ©":6011,"ĠØ³ÙĩÙĦ":6012,"ÙĪØ±ÙĬÙĨ":6013,"ĠÙĪØ§ÙĦØ§":6014,"ĠØ§ÙĦØ¹ÙĦØ§Ùħ":6015,"ÙģÙĬÙģØ©":6016,"Ø¸ÙħØ©":6017,"ĠØ§ÙĦØŃØ¶":6018,"ĠØªØ¹Ø±ÙģÙĬ":6019,"ĠÙĬØ¹ÙĪØ¶":6020,"ÙĦÙĥØ©":6021,"ĠØ§ÙĦÙģØµØŃÙī":6022,"ĠØ§ÙĦØ¨Ø§ÙĤÙĬ":6023,"ĠØ§ÙĦØ³ÙħØ§":6024,"ĠØ§ÙĪÙħ":6025,"ĠÙĪÙħØ²ÙĬØ¯":6026,"ÙģØ³Ùĩ":6027,"ĠØ°ÙĨÙĪØ¨":6028,"ĠÙĬØ¬Ø§Ø²ÙĬ":6029,"ĠØ±ÙĪØŃØª":6030,"ĠÙĪØ±Ø²ÙĤ":6031,"ĠØ¹ÙħØ§Ø±":6032,"ĠØ¹ÙħÙĦÙĥ":6033,"Ø§Ø´ÙĬÙĪÙĨØ§ÙĦ":6034,"ĠÙĨØ¬ØŃ":6035,"ĠØ¨Ø´Ø§Ø±":6036,"ĠÙĦØ£ÙĨÙĩØ§":6037,"ĠÙĨÙĩØ¶":6038,"ĠØŃÙĪØ³Øª":6039,"ĠÙģØ§ØªØª":6040,"Ġparce":6041,"ĠØ´ÙĬØ¦Ø§":6042,"ĠØ§ÙĦÙģÙĨØ§ÙĨÙĬÙĨ":6043,"ĠÙĬØŃÙħÙĬÙĥ":6044,"ĠÙħÙĪØ³Ùī":6045,"ure":6046,"ĠÙħØ¶ØŃÙĥ":6047,"Ø§ÙĨØ¯":6048,"Ø´Ø±Ø©":6049,"ĠØ±Ø¶Ø§":6050,"ĠØŃÙĨ":6051,"ĠØŃØ±Ø¨":6052,"Ø§ÙĥÙĬ":6053,"Ø§Ø¨Ø§":6054,"ĠÙĪØ§ÙĦØ§Ùħ":6055,"ĠÙĪØ§ÙĦØº":6056,"Ø§ÙĩØ¨":6057,"ÙĥÙĪÙĨØ´":6058,"ÙĤÙĬÙĩ":6059,"ĠÙĨØªÙģÙĥØ±":6060,"ĠÙĬØ§Ø§Ø±Ø¨":6061,"ĠØ§ÙĦØ¯Ø²Ø§ÙĬØ±":6062,"ĠØ§ÙĦØ£ÙĬØ§Ùħ":6063,"ÙĪÙĦÙĬØ©":6064,"ĠÙĬØ´Ø±ÙĬ":6065,"ĠÙĩØ§Ø¯Ùģ":6066,"ĠØ¨ÙĬØ³Ùĥ":6067,"ĠØ£Ø®ÙĪÙĥ":6068,"ĠÙĨØ³Ø§ÙģØ±":6069,"ĠÙĬØ¯Ø¹":6070,"Ġave":6071,"ĠØ®Ø§Ø·Ø±Ø´":6072,"ĠØªÙĩØ¶Ø±":6073,"ĠÙħÙģÙĤ":6074,"emp":6075,"ÙĦØ§Ø¨Ø§ÙĦÙĬØ´":6076,"ĠØ¬ÙĬØ¯Ø©":6077,"ĠÙĪØµÙĦÙĨØ§":6078,"ĠØ§ÙĦÙĪØ·ÙĨÙĬ":6079,"ĠØ³ÙĦÙĬÙħØ§ÙĨ":6080,"Ûģ":6081,"ÙĨÙĩØ§":6082,"Ø§ÙĦØ´Ø¹Ø¨":6083,"Ø±Ø²ÙĤ":6084,"ĠØ§ÙĦØ±Ø¨":6085,"ØªØ©":6086,"ĠÙħØ±Ø¨ÙĬ":6087,"ĠÙħØ§ØŃØ¨":6088,"ĠÙĬÙĪØªÙĬ":6089,"ĠÙĬØµØ±":6090,"ĠØ¹Ø±ÙĬ":6091,"ĠØ¹Ø±Ø³":6092,"ĠØ±Ø£Ø³":6093,"Ø²Ø¯ÙĤ":6094,"ĠØ®Ø§ÙĬÙģ":6095,"ÙĪÙĨÙĩØ§":6096,"ĠØ§Ø¸":6097,"ĠØ§ÙĦÙħØ±ØŃ":6098,"ĠØ³ÙģØ±":6099,"ÙĪÙĦÙĪØ§":6100,"Ø±ÙĪØ·":6101,"ĠØ¨Ø§ÙĦØ®":6102,"ĠØºØ§ÙĦÙĬØ©":6103,"ÙĦÙĤÙĪ":6104,"Ø§ØµÙĬÙĦ":6105,"ĠÙĦÙĦØ¯Ø§Ø±":6106,"ÙħÙĦØ´":6107,"ĠØ§ÙĦØ£ÙĥÙĦ":6108,"ĠØ§ÙĦØ£Ø¹ÙĦÙī":6109,"ĠØ§ÙĦØ®ÙĦÙĬ":6110,"Ø¯ÙħØª":6111,"ĠÙĬØ¬ÙħØ¹":6112,"ĠØ§ÙĦÙĩØ¬Ø±Ø©":6113,"ĠÙĦØ¨Ø§Ø³":6114,"ÙĥØ±ÙĩØ´":6115,"Ġjus":6116,"ĠÙĤØ±Ø§ÙĬ":6117,"ĠØ§ÙĩÙĦÙĨØ§":6118,"ĠÙĪØ§ØŃÙĨØ§":6119,"ĠÙĨØ·ÙĦØ¨":6120,"ĠÙĬØºÙĨÙĬ":6121,"ĠØ§ÙĦÙĪØ§ÙĦØ¯Ø©":6122,"ĠÙĤØ¹Ø¯Øª":6123,"ĠÙĦÙĦØ´Ø¨Ø§Ø¨":6124,"ĠÙħÙĪØ¬ÙĪØ¯Ø©":6125,"Ġof":6126,"ĠØ¹Ø§ÙĪÙĨÙĪÙĨÙĬ":6127,"Ø¯ÙĪÙĨÙĬØ³ÙĬØ§":6128,"ĠØ¬ÙĬÙĪØºØ±":6129,"na":6130,"Ø§ÙĦÙĨØ§Ø³":6131,"Ø±Ø§Ø¦Ø¹":6132,"ĠØ§ÙĦØ±ÙĪØ¹Ø©":6133,"ĠØ¨Ø§Ø¹":6134,"ĠØªØ¶Ø±Ø¨":6135,"ĠØ¹ÙĪ":6136,"Ø¬Ø§Ø¬":6137,"ĠÙĥØ³":6138,"ĠØ±Ø§Ø¡":6139,"ĠØ´Ø±ÙĬØª":6140,"ĠØŃØ§":6141,"ÙĬØ§Ø§":6142,"ĠÙĪØ§ÙĦØµ":6143,"ĠÙĦÙĬÙĩÙħ":6144,"Ø§Ø¬ØŃØ©":6145,"ĠÙĬØŃÙĬ":6146,"Ø§ÙĨÙĬØ³":6147,"ĠØ§ÙĦØªÙħÙĪØ±":6148,"ĠÙĦÙĦØ·":6149,"Ø§Ø®Ø°":6150,"ĠØ§ÙĦØ¨Ø´Ø±":6151,"ĠØ§ØŃÙĦØ§Ùħ":6152,"ĠØ§ÙĪØª":6153,"Ø§ÙĬÙĨÙĥ":6154,"ĠÙĬØ®Ø§Ùģ":6155,"ĠØ¯ÙĬØ§ÙĦÙĪ":6156,"Ġlo":6157,"inu":6158,"ĠØªØ³ØªØ§ÙĩÙĦÙĪ":6159,"Ø¬Ø¨ÙĨÙĬØ´":6160,"Ø§Ø´ÙĬØ§Ø¡":6161,"ĠÙĪØµÙģ":6162,"ĠØ¬Ø²Ø§ÙĥÙħ":6163,"ĠÙħØ¯Ø§Ùħ":6164,"ĠÙħØ¨Ø§Ø´Ø±Ø©":6165,"Ø§Ø²ÙĬØºÙĬ":6166,"ĠØªØ¹ÙĬØ´ÙĪ":6167,"ĠÙĪÙĨØªÙħÙĨÙī":6168,"ĠØªØ¯Ø¹Ùħ":6169,"ÙħÙĥØ§Ø´":6170,"ÙģÙĥØ§Ø±":6171,"ĠÙĪÙĬØ³Ø¹Ø¯Ùĥ":6172,"Ø´ÙģØ§Ø¡":6173,"Ø£ÙĥØ¯":6174,"ĠÙĬÙģØ±ØŃÙĥÙħ":6175,"ĠÙģÙĪØ±ÙħØ§Ø³ÙĬÙĪÙĨ":6176,"ier":6177,"ÙĨÙĪØ±":6178,"Ø§ÙĦÙĬØ¯":6179,"ĠÙĪÙĥÙħ":6180,"Ø¯Ø§Ùĥ":6181,"ĠÙħØ¯ÙĬ":6182,"ÙĤØ§Ø±":6183,"ĠÙĬÙĦÙĬÙĤ":6184,"ĠØ¨Ø±Ø¨":6185,"ĠÙĨÙĦØ¹Ø¨":6186,"ĠÙĩØ¯ÙĪ":6187,"Ø²Ø§Ø²":6188,"ĠØ¬ÙĬÙĨ":6189,"ĠØŃØ§ÙģØ¸":6190,"ĠØµÙĦÙĪ":6191,"Ø£ÙĦÙĥ":6192,"Ø§ÙĩØ±Ø©":6193,"Ø§ÙĩØ¯Ùĩ":6194,"ĠØ§ÙĦØ¹ÙĬ":6195,"ĠØ§ÙĦØ¬Ø¨ÙĦ":6196,"ĠØ§ÙĦØ¬Ø¨Ø§ÙĦ":6197,"ĠØ¨Ø§ÙĦØ¯ÙħÙĪØ¹":6198,"ĠÙĬØ¹ØªØ¨Ø±":6199,"Ø±Ø¨ÙĬÙĩ":6200,"ĠØ§Ø®Øª":6201,"ĠØ§ÙĦÙĤÙĦÙĪØ¨":6202,"ĠØ§ÙĦÙĤØ¯ÙĬÙħØ©":6203,"ĠØ§ÙĤÙĪÙĦ":6204,"ĠØ§ÙĦÙĬÙĪØªÙĬÙĪØ¨Ø±":6205,"ĠÙĪÙĨØ¯ÙĬØ±":6206,"ĠÙħØŃØªØ±":6207,"ĠØ§ÙĦØ±Ø§ØŃ":6208,"ĠØ§ÙĦØ±Ø¹Ø¨":6209,"ĠØªØ®Ø³Ø±":6210,"Ø¹ÙħØ§Ø±":6211,"ĠØ¨Ø¹ÙĬÙĨ":6212,"ĠÙĬØ¨ØºÙĬ":6213,"ĠØ§Ø³ÙħØŃÙĦÙĬ":6214,"ale":6215,"ĠØŃÙĬØ§ØªÙĪ":6216,"ĠØªÙĪØŃØ´Øª":6217,"ĠØ¨Ø§Ø³Ùĥ":6218,"ĠÙĬØºØ§Ø¯Ø±":6219,"ĠÙħØªÙĪØ§Ø¶Ø¹":6220,"ĠØ¹Ø´Ø±ÙĬÙĨ":6221,"ĠÙĤØ·Ø¹":6222,"ĠØªÙĦÙģØ²ÙĬÙĪÙĨ":6223,"ĠØ§ÙĦÙħØ§ÙĥÙĦØ©":6224,"handpinkwavinghandpinkwavinghandpinkwavinghandpinkwavinghandpinkwavinghandpinkwavinghandpinkwavinghandpinkwaving":6225,"Ġcourage":6226,"ÙģÙĦÙĬÙĤØ©":6227,"ich":6228,"ĠØ§ÙĩØ¯":6229,"ÙĨÙħÙĪØª":6230,"ÙĪØ§ØŃØ¯":6231,"ĠÙĪØ±Ø¨":6232,"ĠÙħÙĬØ±":6233,"Ø¹Ø§ÙĦ":6234,"ĠÙĬØ®ÙĦØ§Øµ":6235,"ĠØªÙĪØ±":6236,"ĠØªØ³Ø¨":6237,"Ø§ÙĨÙĪØª":6238,"ĠÙĨØ§Ø±":6239,"ĠÙĨÙħØ¯":6240,"Ø®Ø¨":6241,"ĠØ£Ø±ÙĪØ§ØŃ":6242,"ĠØ§ÙĨØ³ØªØºØ±Ø§Ùħ":6243,"ĠØ¯ÙĬÙħ":6244,"Ø§Ø¹ÙĦ":6245,"Ø§Ø¨ÙĤØ©":6246,"Ø§ÙģÙĩÙħ":6247,"ĠØ§ÙĦØ¹Ø±Ø³":6248,"ÙģÙĬÙģ":6249,"ĠÙĩÙĩÙĩÙĩÙĩÙĩ":6250,"ĠØ·Ø±ÙĬ":6251,"ĠØ·Ø§ÙĦØ¹":6252,"ĠØ§ÙĦÙģØ¶":6253,"ĠØ§ÙĦÙģÙĨØ¯ÙĤ":6254,"ĠÙĪÙĬØ²ÙĬØ¯":6255,"ØŃØ¨ÙĪØ´":6256,"ĠÙĦÙĦØ¯":6257,"ĠÙĦÙĦØ¥":6258,"ĠÙħØªØ®":6259,"ĠÙħØªØ²ÙĪØ¬":6260,"ĠÙĪÙĦØ§ÙĥÙĨ":6261,"ĠØ§Ø³Ø§Ø³":6262,"Ø¯Ø§ÙĬØ±":6263,"Ø³ÙĨÙī":6264,"ĠÙĪÙĨØªÙĪÙħØ§":6265,"ĠÙħÙĬØ³ØªØ±":6266,"ĠØ§ÙĦØµÙĬÙĨ":6267,"ĠØ§Ø±Ø¬Ø¹":6268,"ĠØ±Ø§ØŃØ©":6269,"ĠÙģØ±ÙĨØ³ÙĬØ©":6270,"ina":6271,"ĠØ¢ÙĦÙĦÙĩ":6272,"ĠØ§Ø´ÙĬØ§Ø¡":6273,"Ġbest":6274,"ĠØ§ÙĦØ§ÙĨØªØ±":6275,"ĠØ§ÙĦØ³ÙĬØ§Ø±Ø©":6276,"ĠÙĩØ¯Ø±Ø©":6277,"ĠÙĪØ²Ø§Ø±Ø©":6278,"ĠÙħÙĩØ¨ÙĪÙĦ":6279,"ĠØªØ±Ø²ÙĤ":6280,"ĠØ´Ø¹ÙĪØ±":6281,"ĠØ§ÙĦØ§Ø¨Ø¯Ø§Ø¹":6282,"ĠÙĬØ·ÙĦØ¹ÙĦÙĬ":6283,"ĠÙħØ²ÙĬØ¯Ø§":6284,"ĠÙĨØ³ÙĬÙħ":6285,"ÙĦØ³":6286,"ÙĪØ£":6287,"Ø§ÙĦÙĦ":6288,"Ø±Ø²":6289,"ØªÙĪÙĨÙĬ":6290,"ØŃØ§Ø¯":6291,"ĠÙĬØ®ÙĦ":6292,"ĠØ¨ÙĪØ³":6293,"ĠØ¹Ø¶":6294,"ĠÙĨØ®ÙĦØµ":6295,"ĠÙĨÙĬØªÙĥ":6296,"ĠØ´ÙĨ":6297,"ĠØ´Ø´":6298,"ĠØŃØ§Ø·":6299,"ĠØŃØ¯Ùĩ":6300,"ĠØ§ÙĦÙħÙĪØ¬":6301,"Ø§ÙĥÙĬÙĨ":6302,"ĠØ³ÙĪØ±ÙĬ":6303,"Ø§ØŃÙĦÙī":6304,"Ø§Ø¦Ø±Ø©":6305,"ØªÙĬÙĩ":6306,"ĠØ§ÙĦØŃØ§ÙĦÙĩ":6307,"ÙĬÙħØ§ÙĨ":6308,"ĠÙĪÙĨØ´ÙĪÙģ":6309,"ĠØ§ÙĦØ±Ø¯":6310,"ĠÙħØ±Ø§ÙĥØ´":6311,"ĠÙģØ§ÙĦÙģÙĬØ¯ÙĬÙĪ":6312,"ĠØ§ÙĦØ·Ø¨":6313,"ĠÙĪØ´Ø¹Ø¨":6314,"ĠØ°Ø§Øª":6315,"ĠÙĬØ¬ÙĬÙĥ":6316,"ĠØ§ÙĦØ¥Ø¨Ø¯Ø§Ø¹":6317,"ĠÙĬÙĤØ§ÙĦ":6318,"Ø±ÙĤÙĪ":6319,"ÙĬØŃÙĩ":6320,"ĠÙħÙĪØ§Ø¶ÙĬØ¹":6321,"ĠØ£ÙħØ§ÙĥÙĨ":6322,"ĠÙĤØ¯Ø±Øª":6323,"ĠØ¹Ø´Ø±Ø©":6324,"entre":6325,"ĠØŃÙĥÙĬØª":6326,"ĠØµÙĦÙĬØª":6327,"ĠÙģØ¯ÙĬÙĪÙĩØ§ØªÙĥ":6328,"ĠÙĬÙĪØªÙĬÙĪØ¨Ø±Ø²":6329,"ĠÙģØ§ÙħÙĬÙĦÙĬØ§":6330,"ĠÙĬØ¹Ø¬Ø¨ÙĪÙĨÙĬ":6331,"Ġcontinu":6332,"um":6333,"ÙħÙģÙĩÙħ":6334,"ĠØ§ÙĦØ§ÙĥÙĦ":6335,"ÙĥØ©":6336,"ÙĥØ¨Ø±":6337,"ĠÙĬØ§Ø¹":6338,"ĠÙĬØºÙĬØ±":6339,"ĠØ¹Ø«ÙħØ§ÙĨ":6340,"Ø§ØªÙĨÙĬ":6341,"Ø§ØªÙħÙĨÙī":6342,"ĠØ´ÙĪÙĥ":6343,"ĠØ®Øª":6344,"ĠØŃÙģØ¸Ùĥ":6345,"ÙĪÙĨØ¬":6346,"ĠØ§ÙĦÙħÙĨØª":6347,"Ø§Ø¨ÙĪ":6348,"Ø§Ø¦ÙħØ©":6349,"Ø§Ø³Ùĩ":6350,"ĠØ§ÙĦØ¹Ø¨":6351,"ĠØ§ÙĦØ¹Ø´Ø±":6352,"ÙĬÙĥØ¯Ø©":6353,"ÙĦÙĤØ¯":6354,"ĠØ·ØŃØª":6355,"Ø³ÙĬÙħ":6356,"ĠÙĪÙĬØ·ÙĪÙĦ":6357,"ĠÙĦÙĦÙģÙĬØ¯ÙĬÙĪ":6358,"ĠØ§ÙĦÙĤØ·":6359,"ĠØ§ÙĦØ¨ÙĪ":6360,"ĠÙħØªØ±Ø¨ÙĬ":6361,"ÙĩØ¯Ø§Ùĥ":6362,"ÙĩØ¯ÙĪØ§":6363,"ĠØ§ÙĥØªØ¨":6364,"ĠØ±Ø§ØŃÙĪ":6365,"ĠØ¨ÙĬØ§ÙĨ":6366,"ĠØ§ÙĦØºÙĬØ±":6367,"ĠØ£Ø®ÙĦØ§ÙĤ":6368,"Ġtrav":6369,"ĠØ±Ø¨Ùĥ":6370,"ĠÙĦØŃØ¸Ø©":6371,"ĠÙħÙĤØ§Ø·Ø¹":6372,"ĠÙĪØ§ÙĦÙħØ³ÙĦÙħÙĬÙĨ":6373,"all":6374,"ĠÙĪØ²ÙĪ":6375,"ĠÙħØ§Ø¯Ø§Ùħ":6376,"Ġfaut":6377,"ĠØ£ØµÙĦØ§":6378,"ÙĪØ³Ø¹Ø§Ø¯Ø©":6379,"ĠØ§ÙĦÙħØ·Ø¹Ùħ":6380,"ĠØ³ÙĤÙħØ§":6381,"ØªÙħØ§Ø¹ÙĬØ©":6382,"ĠØ§ÙħØ«Ø§ÙĦÙĥ":6383,"ĠØ³ÙħØ§ÙĨØ©":6384,"ĠØ¬ÙĪØ±Ø¬":6385,"ĠØ§ÙĦØ¥ÙĬØ¬Ø§Ø¨ÙĬØ©":6386,"tr":6387,"Ø±ÙĨØ§":6388,"Ø¯Ø±Øª":6389,"ĠÙħØ§Øµ":6390,"Ø³Ø³":6391,"ĠØªÙĪØ±ÙĬ":6392,"ĠÙĨÙĪÙģ":6393,"ĠÙĥÙħØ§ÙĦ":6394,"ĠØ´Ø¨Ùĩ":6395,"ĠØ®ÙĨØ´":6396,"ĠØ¬ÙĬÙĩ":6397,"ĠÙĤÙĪÙĦÙĩ":6398,"ÙĨØªÙģØ±Ø¬":6399,"ĠØ²ÙĨ":6400,"ĠØ²Ø¯":6401,"ĠØ²ÙĪØ±":6402,"ĠØ§ÙĦØ´ÙĬØ·Ø§ÙĨ":6403,"ÙħØ¹ÙĦÙĪÙħØ©":6404,"ĠÙĪÙħØ¯Ø§Ø¯":6405,"ÙĬØ§ØªÙĥ":6406,"Ø¬ÙĬØ¬ÙĦ":6407,"Ø§ÙĤÙĩ":6408,"ĠÙĪØ±Ø§Ø¡":6409,"ĠØ§ÙĦØ°Ùĩ":6410,"ĠÙĨØ¯ÙĬØ±ÙĦÙĥ":6411,"ĠØ£ÙĪÚ¨Ø±ÙĪØª":6412,"ĠÙħÙĪØ§ÙĦÙģ":6413,"ĠØ§ÙĦØ§ÙħØ§Ùħ":6414,"ĠÙĬÙĩÙĨÙĬÙĥ":6415,"ĠØ£ÙĬÙĩØ§":6416,"ĠØ¬Ø²ÙĬØ±Ø©":6417,"ĠØ£Ø¹ÙĦÙī":6418,"Ø³ÙĥØ±ÙĬ":6419,"ÙĤØ§ÙĦÙĬØ¯":6420,"ĠØ«ÙĦØ§Ø«Ø©":6421,"ĠØªÙĪØ¬ÙĪØ±":6422,"ĠØ§ÙĦÙħÙģØ±ÙĪØ¶":6423,"ĠØŃÙĪÙħØªÙĬ":6424,"ÙĦØ¨ÙĬØ©":6425,"ĠØ§ÙĦÙĤØ¯Ø±":6426,"ĠØ§ÙĦÙĪØ³Ø·":6427,"ÙĩÙī":6428,"ØªØ§Ø¹":6429,"Ø¨Ø§Ø´":6430,"ĠÙĪÙĥÙĬÙģ":6431,"ĠÙħÙĬØ¯":6432,"ĠÙħØ§Ø·":6433,"Ø³Ø¯":6434,"Ø³ÙĦÙĩ":6435,"ĠÙĬØ³ÙħÙī":6436,"ĠØ¨Ø±Ø¨ÙĬ":6437,"ĠÙģØµ":6438,"ĠÙĦØ¯ÙĬÙĩ":6439,"ĠØ±ÙģØ¹":6440,"Ø®Øª":6441,"ØµØ¨":6442,"ĠØ¬Ø§Ø±":6443,"ĠÙĤØ·Ø±":6444,"ĠØ¯Ùĩ":6445,"ĠØ¯ÙĬÙĨØ§":6446,"ĠØ¯Ø±ÙĪÙĥ":6447,"ĠØ§ÙĦÙħÙĦÙĬ":6448,"ĠØ³ÙħÙĬ":6449,"ÙĥÙħØ´":6450,"ÙĨÙĬÙĬÙĨ":6451,"Ø§ÙĪÙĥ":6452,"ĠØ¨Ø§ÙĦÙĬØ´":6453,"ĠÙĬØŃÙĤÙĤ":6454,"ÙĦÙĤÙī":6455,"ĠØ§ÙĦÙĨÙĪ":6456,"ĠØ·Ø±ÙĤ":6457,"ĠØ²ÙĬÙĨØ©":6458,"ĠØ§ÙĦØ´Ùĥ":6459,"ĠØ§ÙĦÙĤØ§ÙĦØ©":6460,"ĠØ±ÙĪØ¹Ùĩ":6461,"ÙħØ¹ÙĦÙĬØ´":6462,"ÙĬÙĦÙĨØ§":6463,"ĠÙģØ±ØµØ©":6464,"ĠÙĪØ±Ø§Ùĩ":6465,"ĠÙĨØ¯ÙĬØ±ÙĩØ§":6466,"Ġbro":6467,"ĠØªÙĥØ¨Ø±":6468,"ĠØ§ÙĦÙħÙĨØªÙĪØ¬":6469,"ĠØ§ÙĦØ³ÙĬØ§ØŃÙĬØ©":6470,"ĠÙĤØªÙĦÙĥ":6471,"ĠØŃÙĬØ§ØªÙĩ":6472,"Ø¬Ø²Ø§Ø¡":6473,"ĠØ²ÙĬØ§Ø±":6474,"ĠÙħØ·Ø¹Ùħ":6475,"ÙģØ¶Ùĥ":6476,"ood":6477,"ĠÙĥØ±ÙĩØª":6478,"ĠØ®ÙĦÙĪÙĬ":6479,"ĠÙħØ¯Ø±Ø³Ø©":6480,"ÙħÙĥØ§ÙĨØ´":6481,"Ø§Ø¯Ø¹ÙĪÙĦÙĬ":6482,"uc":6483,"Ø§ÙĪØ±":6484,"ÙĨØ³Ø¨Ø©":6485,"ĠÙĪØ¨ÙĦ":6486,"Ø¯Ø¹Ùħ":6487,"ÙģÙĥØ±Ø©":6488,"ĠØ¨ÙĬØ¨":6489,"ĠØªÙħØª":6490,"Ø·ÙĦÙĤ":6491,"ĠÙĤÙĪÙħ":6492,"Ø§Ø¨Ø§ÙĨ":6493,"ĠØºØ§ÙĦ":6494,"Ø³ÙĬØªÙĬ":6495,"ĠØ¨Ø²ÙĬ":6496,"ØŃØ¨Ùĥ":6497,"ĠØ§ØŃÙĥÙĬ":6498,"ĠØ§Ø¨ÙĨÙĬ":6499,"ÙĪÙĩØ´":6500,"ĠØ¨ÙĬØ¹":6501,"ĠØªØ®ÙħÙħ":6502,"ÙĤØ·Ùĩ":6503,"ĠØ±ÙĪØŃÙĩØ§":6504,"ĠØ¨ÙĨØªÙĬ":6505,"ĠÙĨØ´Ø§Ø·":6506,"ĠÙĨÙģØ³ÙĩØ§":6507,"Ġav":6508,"ĠÙģÙĦØ§ÙĨ":6509,"ĠÙĪÙĤØªÙĩØ§":6510,"ĠØ§ÙĦÙĤØ±Ø¹Ø©":6511,"ÙĦÙĬØ´Ø©":6512,"ØŃÙĬØ§Ø©":6513,"ĠØ®ÙĦÙĬØª":6514,"Ø§Ø¨ÙĬÙĩØ§":6515,"ĠÙĨÙĪØ±ÙħØ§ÙĦÙħÙĪÙĨ":6516,"ĠØªØ·ÙĦØ¨":6517,"ĠØ§ÙĨÙĪØ§Ø¹":6518,"ĠØªÙģØ±Ø¬ØªÙĪ":6519,"ĠÙĬØ±ÙĪØŃÙĪ":6520,"ĠØ¨Ø±ÙĪØ¬ÙĬ":6521,"ĠØ§ÙĦØ§ØŃØªØ±Ø§Ùħ":6522,"ĠØ¨ÙĦØ§ØµØªÙĥ":6523,"Ġhh":6524,"ĠØ®Ø§ÙĦØªÙĬ":6525,"ĠØ§ÙĦØ´Ø®ØµÙĬØ©":6526,"ĠØ¹ÙģØ§ÙĬØ³":6527,"ĠÙħÙĤØ¯Ø±ØªØ´":6528,"ĠØ§ÙĦÙħØºØ§ÙħØ±Ø©":6529,"ØªØ±ÙĪÙĨÙĬØ©":6530,"ĠÙĪÙĨØ¨ÙĬÙĨØ§":6531,"ĠØ³ÙĪÙĬØ³Ø±Ø§":6532,"ÙĨÙħ":6533,"ÙħØ·":6534,"ĠØ§ÙĦØ§Ùĩ":6535,"ĠÙħØ±ÙĬÙħ":6536,"ÙģØªØ´":6537,"ÙĤÙĦÙĤ":6538,"Ø³ÙĨØª":6539,"ĠØ¨Ø³Ø¨":6540,"ĠÙģØ§ÙĤ":6541,"ĠÙģÙĨØ¯ÙĤ":6542,"Ø·Ùģ":6543,"ĠÙħÙĨØ·":6544,"ĠØ´Ø§ÙĨ":6545,"ĠØ¬ÙĬÙĨØ§":6546,"ÙĪÙĨØ§Ø´":6547,"ĠØ³Ø¬":6548,"ĠØ³ÙĪØ§":6549,"Ø§ÙĬÙħØ§":6550,"ĠÙĦÙĬÙĦ":6551,"ØªÙĪØ§Ùĥ":6552,"ĠØºÙĬØ¨Ø©":6553,"ÙĬÙĥØ§":6554,"ĠØ·ÙĪ":6555,"ĠØ§ÙĦØªÙĥÙĨ":6556,"ĠÙĪÙĬÙĤ":6557,"ĠÙĦÙĦØ¨":6558,"ĠÙĪÙĦØ§Ø¯ÙĬ":6559,"ĠØ§ÙĦØ®Ø§ØµØ©":6560,"ÙħØ±Ø§Ø¯":6561,"ĠÙĨØŃÙĪ":6562,"ĠØ§ÙĦØ·Ø¨Ø®":6563,"ĠØŃØ§Ø¬Ø§":6564,"ĠÙģØ±ÙħØ¶Ø§ÙĨ":6565,"ĠÙĦÙĩØ°Ùĩ":6566,"ĠÙĪØ±ÙĤÙĦØ©":6567,"ĠØªÙĨØ¯Ùħ":6568,"ĠØªØ¬Ø±Ø¨":6569,"ĠØ§ØªØ¹ÙĦÙħ":6570,"ĠØ§Ø¬Ø¹ÙĦ":6571,"Ġsa":6572,"ĠÙĤÙĦØªÙĩØ§":6573,"ĠÙĨØ³ØªÙħØªØ¹":6574,"ĠØ´ÙĪÙģÙĪ":6575,"ĠØºÙĬØ§Ø¨":6576,"ĠØ¨ØŃØ±":6577,"ĠØ£Ø¹ÙħØ§ÙĦ":6578,"ĠØ§ÙĦÙħØ³ØªØ¹Ø§ÙĨ":6579,"ĠØªÙĬØ²ÙĬ":6580,"ĠÙĨØ¹ÙĬØ´ÙĪ":6581,"ĠØ§ÙĦØ¶ØŃÙĥØ©":6582,"ĠØ±Ø¨ØŃØª":6583,"ĠÙĪØ§Ø±ØŃÙħ":6584,"ĠØ§ÙĦØ¯Ø±ÙĪÙĨ":6585,"ĠØ¥Ø®ÙĪØ§ÙĨ":6586,"ĠÙĪØ§Ø¶ØŃ":6587,"ĠÙĪØ¬Ø²Ø§Ùĥ":6588,"ba":6589,"ver":6590,"Ø§Ø§Ø¹":6591,"Ø¨Ø§Ùĩ":6592,"Ø¨Ø§ÙĦÙĬ":6593,"ĠÙħØ¸":6594,"ĠÙģÙħÙĥ":6595,"ĠØ±Ø¨Ø¹":6596,"Ø§ÙħÙĬØ±Ø§":6597,"ĠØ£Ø¹Ø±Ùģ":6598,"ĠØ§ÙĨÙĨÙĬ":6599,"ĠØ³ÙĥÙĨ":6600,"Ø§Ø¨Ø³":6601,"ÙĪØ±Ø§":6602,"ÙĨÙĬØ³":6603,"ĠÙħØ§ÙĤØ¯":6604,"ĠØ¨Ø§ÙĦØ¨":6605,"Ø±Ø¬Ø§ÙĦ":6606,"ÙĤÙĬØ³":6607,"ĠØ§ÙĦØ´ÙĤÙĬÙĤ":6608,"ÙĤÙĪÙĦØ©":6609,"ĠÙĦÙĦØ³ÙĬØ§ØŃØ©":6610,"ÙĪØ¯Ùĩ":6611,"ĠØ§ÙĦØ³Ø¹Ø±":6612,"ĠÙĪÙĨØŃ":6613,"ÙĪÙĦÙĬØ´":6614,"ĠØ§ÙĦØ·ÙģÙĦØ©":6615,"ĠØ§ÙĦØºØ§Ø¨Ø©":6616,"ĠØ§ÙĦØºØ±Ø¨ÙĬØ©":6617,"ĠÙģØ±ÙĨØ³ÙĬ":6618,"ĠØ³ÙĬÙĥÙĪÙĨ":6619,"Ø§Ø³ØªØ§Ø°":6620,"ĠØªØ³ØªØ¹ÙħÙĦ":6621,"ĠØªÙĨØ²Ø§ÙĨÙĬØ§":6622,"ĠÙĬØ¨ÙĥÙĬ":6623,"ĠØ§ÙĦØ«ÙĤØ©":6624,"ÙĩØ§ØªÙģ":6625,"ĠØ¨ÙĬÙĨØ§ØªÙĨØ§":6626,"ĠØ§Ø³ØªÙħ":6627,"ĠØ§Ø´ÙĩØ§Ø±":6628,"ĠØµÙĦØ§ØªÙĥ":6629,"ĠÙĪÙĤØªÙĥ":6630,"ĠØ§ÙĦÙħÙĨØ§Ø¸Ø±":6631,"ÙģÙĪÙĪØ±":6632,"ĠÚ¨Ø¹":6633,"ĠØ§ÙĦØªØ¹ÙĦÙĬÙħ":6634,"ĠÙĤØµØµ":6635,"ima":6636,"ĠØ¨Ø¹ÙĬØ¯Ø©":6637,"ĠØ¨ÙĦØ§ØµÙĩ":6638,"ĠÙģØ±ÙĬØ¯Ø©":6639,"ĠØ§ÙĦØŃÙĥÙĪÙħØ©":6640,"ĠÙĨØªÙĦØ§ÙĤØ§ÙĪ":6641,"ĠÙĪØ§ÙĥØ«Ø±":6642,"de":6643,"ï·":6644,"ÙħÙĪÙĦ":6645,"ĠØ§ÙĦØ§ÙĤ":6646,"ÙĥÙĦÙħ":6647,"ĠÙĪÙħÙĪ":6648,"Ø¯Ùī":6649,"ĠÙħØ®ÙĦ":6650,"ĠÙħØ¨Øª":6651,"ØŃØ¨ÙĬ":6652,"ĠÙĬØµÙĦ":6653,"ĠÙĬÙħØ³":6654,"ĠØ¨ÙģØ§Ø±":6655,"ÙĦÙĩØ§Ø´":6656,"ĠØ±Ø®":6657,"Ø®ÙĦØ©":6658,"ØµØ§ÙĦ":6659,"ĠØ¬ÙĪÙĦØ©":6660,"ĠØ¬Ø§Ø±ÙĬØ©":6661,"ĠØŃÙĤÙĬÙĤÙĬ":6662,"ĠÙĤØ§ÙĨÙĪÙĨ":6663,"ĠØ£ØŃÙħØ¯":6664,"ĠØ¯Ø®ÙĦÙĪ":6665,"ĠØ³Ø¨ÙĬÙĦ":6666,"ĠØ¹ÙĨØµ":6667,"ĠØ¨Ø§ÙĦØµØŃØ©":6668,"ĠÙĬØŃØªØ§Ø¬":6669,"ĠØ·Ø§ÙĬØŃ":6670,"Ø±ÙģÙĩ":6671,"Ø±ÙģÙĨØ§":6672,"ĠØªØŃÙģØ©":6673,"ĠØ§ÙĦØªØ·":6674,"ÙħÙĪØ¹Ø©":6675,"ĠØ§ÙĦØ®ÙĦÙĤ":6676,"ĠØ§ÙĦØµÙģ":6677,"Ø¬ÙĬÙĦ":6678,"ĠØ§ÙĦØ·Ø¨ÙĬØ¹":6679,"ĠØªÙħØ§ÙħØ§":6680,"ĠØ§Ø¯ÙĬØ±":6681,"ĠÙĨØªØ§Ø¹ÙĪ":6682,"ĠØ§ÙĦØ§ÙĨØ³ØªØºØ±Ø§Ùħ":6683,"ĠÙĨØµØ§Ø¦ØŃ":6684,"ĠØµØ§ØŃØ¨Ùĥ":6685,"ĠØŃÙĬØ§ØªÙĩÙħ":6686,"ØªØ¹ÙĬØ´":6687,"ĠÙĨÙģØªØŃ":6688,"ĠØ¬Ø¨ØªÙĩØ§":6689,"ĠÙħØºØ§ÙħØ±":6690,"Ġtop":6691,"hamed":6692,"ĠØ¹Ø±Ø´Ùĥ":6693,"ĠØ§ÙĥØªØ´ÙģØª":6694,"ĠÃł":6695,"ĠØ³Ø§ÙĩÙĦØ©":6696,"li":6697,"ub":6698,"Ø§Ø§ÙĦÙĦÙĩ":6699,"ÙĨÙĨ":6700,"Ø§ÙĦØµ":6701,"ĠØ§ÙĦØ¯ÙĬÙĥ":6702,"ÙĥØ°Ø§":6703,"Ø¨Ø¯Ø§":6704,"ĠÙĪØ¯Ø§Ø±":6705,"ĠÙħÙĪÙģ":6706,"ØŃØ§Øª":6707,"ÙĤÙĪØ§":6708,"ĠÙĬØ§ÙħØ§Øª":6709,"ĠÙģÙĪØ§":6710,"ĠÙĦÙħÙĬ":6711,"ĠÙĨÙĦ":6712,"ĠÙĥØ±Ø§Ùħ":6713,"ĠÙĩØ§Øª":6714,"ĠØ´Ø¯":6715,"ĠØ¬ÙĪØ§ÙĨ":6716,"ĠÙĤØ¨ÙĬ":6717,"ĠÙĤÙĪÙĬØ©":6718,"ĠØ¯Ø¯":6719,"ĠØ³Ø§ÙĥÙĨ":6720,"Ø§ÙĬÙħ":6721,"Ø§Ø¹Ø§Øª":6722,"Ø§ÙģÙĩØ©":6723,"ĠØ§ÙĦØ¹Ø§Øµ":6724,"ĠØ§ÙĦØ¬ÙĪØ¯Ø©":6725,"Ø¸ÙĬÙģ":6726,"ĠØ§ÙĦØŃØ±Ø§Ùĥ":6727,"ĠØªØ¹Ø±Ø¶":6728,"ÙħÙĬÙĬÙĨ":6729,"ĠØ¹ÙĨØ¯ÙĪØ´":6730,"Ø§Ø®ØªÙĬ":6731,"ĠÙĬØªØ²ÙĪØ¬":6732,"Ø¨ÙĬØ¨Ø©":6733,"ĠØ§ÙĦØ±Ø§ÙĬ":6734,"ØªØ±ÙĪÙĦ":6735,"ĠÙĨØ´ÙĪÙģÙĩÙħ":6736,"ĠØªØ®Ø§Ùģ":6737,"ĠØªØ³ØªØ·ÙĬØ¹":6738,"ĠÙĨØŃØ¨ÙĩØ§":6739,"ĠØªØ³Ø§ÙģØ±":6740,"ĠØ®ÙĦØ§Ø¨Ø©":6741,"ĠØ§Ø¯Ø¹ÙĪ":6742,"ise":6743,"ĠØªØµØ±Ùģ":6744,"ĠØ§Ø³ÙħÙĥ":6745,"ĠÙģÙĪØ§ÙĦØ§":6746,"ĠØ´ÙģØªÙĩÙħ":6747,"ĠÙħØ¤Ø«Ø±":6748,"ĠÙĨÙĨØ¬ØŃ":6749,"ĠØ±Ø§Ø¨ØŃ":6750,"ĠÙģØ§Ø´ÙĩØ¯ÙĪØ§":6751,"ĠÙĪØ¹Ø¯Ø¯":6752,"ĠØ¶Ø¹ÙĬÙģ":6753,"ĠØ§ÙĦÙģÙĥØ§ÙĩØ©":6754,"ss":6755,"ÙĦØ§Ùĩ":6756,"Ø±Ø¹Ø©":6757,"ĠØ§ÙĦØ§Ø´ÙĬØ§Ø¡":6758,"Ø¨ÙĦØ§":6759,"ĠÙĪØ¨Ø¯":6760,"ĠÙħØ§Ø¡":6761,"ÙĤØ§ÙĦÙĪ":6762,"ĠØ¨ÙĪØ³Ø¹Ø§Ø¯Ø©":6763,"ĠÙĦÙĬÙĨ":6764,"ĠØ¹ÙĨÙĬ":6765,"ĠØ¹Ø³ÙĦ":6766,"ĠØ¹Ø§ÙĤ":6767,"ĠÙĨØ§Ø´ÙĬÙĪÙĨØ§ÙĦ":6768,"ĠÙĥØ¨ÙĬ":6769,"ĠÙĥØ£Ø³":6770,"ĠØ¬ÙĦØ§ÙĦ":6771,"ĠØ¬ÙĪØ§Ø§Ø¯":6772,"ĠØŃØ§ÙĦÙĩ":6773,"Ø¶Ø§ÙģØ©":6774,"Ø±ÙĬÙĪ":6775,"ÙĦÙħÙĩ":6776,"Ø¨Ø±Ùī":6777,"ÙĬØªÙĨÙĬ":6778,"ĠØ§ÙĬØ¨Ø§Ø±Ùĥ":6779,"ÙĩØ¯Ø±ÙĪ":6780,"ĠØ§ÙĦØµØ±Ø§ØŃØ©":6781,"ĠØ§Ø¨ÙĨØ§Ø¡":6782,"Ø¶ØŃÙĥÙĨÙĬ":6783,"Ø³ÙħØ¨Ø±":6784,"ĠØ§ÙĦØ·Ø¹Ø§Ùħ":6785,"Ø¯Ø±Ø§Øª":6786,"ĠØªØµÙĦÙĬ":6787,"ĠÙĩÙĥØ§Ùĥ":6788,"Ø±Ø§Ø¡Ø©":6789,"ĠÙĦØ¨ÙĨØ§Øª":6790,"ÙħÙĩÙĪØ±":6791,"ĠÙĪÙĦÙĥÙĦ":6792,"ĠÙħØ²Ø§ÙĦÙĨÙĬ":6793,"ĠÙĬØµÙĦÙĬ":6794,"ĠÙĪØ®ÙĦÙĬ":6795,"ĠØ·Ø±ÙĬÙĤÙĥ":6796,"ĠÙĪØ§ØŃØ³ÙĨ":6797,"Ø·Ø§ÙĨÙĬØ§":6798,"ĠØ¬Ø§ØªÙĨÙĬ":6799,"ĠÙĬÙħÙĥÙĨÙĥ":6800,"ĠØ§ÙĦØ¹ÙĦÙħØ§Ø¡":6801,"ĠÙħØ§ÙĩÙĬØ´":6802,"ĠÙĪÙĥØ§ÙĨØª":6803,"ØªÙĦØ§Ùģ":6804,"ĠØ¨ÙĬØªØ²Ø§":6805,"ØªØ³Ø§ÙħØ©":6806,"ĠØ§ÙĦÙĨØµØ§Ø¦ØŃ":6807,"ĠØ¥ÙĬØ¬Ø§Ø¨ÙĬØ©":6808,"ĠØ§ÙĦÙĨØ¸Ø§Ùħ":6809,"ĠØ¹ÙĦØ§Ø¬Ø§ÙĦ":6810,"ĠØ¨ÙĪØªÙģÙĦÙĬÙĤØ©":6811,"nes":6812,"ĠY":6813,"ÙĦØ¨ÙĬ":6814,"ÙĪÙħØ§":6815,"Ø§ÙĦØ§Ø®":6816,"Ø±Ø§ÙĬ":6817,"ĠÙĪØ§Ø¯ÙĬ":6818,"ĠÙħØ±Ùĥ":6819,"Ø¹ÙĦÙĩ":6820,"ØŃØ§Ø¬Ø©":6821,"ĠØªÙĥÙħ":6822,"ĠØªÙĪÙģ":6823,"ĠØªØ®ÙĦØ·":6824,"Ø´Øª":6825,"ĠØ¹ÙĩØ¯":6826,"ĠØ¹ÙģØ³Ø©":6827,"ĠØ±Ø§Ùħ":6828,"ĠØ±ÙĪØ³":6829,"ĠØ±ÙĤØ§Ø¯":6830,"ĠØŃØ°":6831,"ĠØ§ÙĦÙħØ²":6832,"ĠØ³Ø§ÙĦ":6833,"ĠØ³ÙĪØ±Ø©":6834,"ĠØ³Ø§Ø¹Ø¯":6835,"ĠØ¨Ø§ÙĦÙĩ":6836,"ĠÙĥÙĬÙĥÙĪÙĨ":6837,"ĠØªØ¹ÙĨÙĬ":6838,"ØŃÙĥØ§ÙĬØ©":6839,"ĠØ§ÙĦÙģØ±ÙĬÙĤ":6840,"ĠØ§ÙĦÙģØ¶Ø§Ø¡":6841,"ĠØ§ÙĦØ¨Ø§ÙĦ":6842,"Ø¯ÙĬØ±ÙĦÙĨØ§":6843,"ĠÙħØªØ£":6844,"ĠÙħØªÙģØ±Ø¬":6845,"ÙģØ±ÙĤ":6846,"ĠØ§ÙĦØ³Ø§ØŃ":6847,"ĠØ§ØŃØª":6848,"ĠØ§ÙħÙĨÙĬØªÙĬ":6849,"ĠØ¶ØŃ":6850,"ĠØ¯ÙĬØ±Ø§ÙĥØª":6851,"ĠØ§ÙĦÙĪØ§Ø³Ø¹Ø©":6852,"ĠÙħØ±Ø§Ùĩ":6853,"ĠØ¯ÙĬØ³":6854,"ĠÙĤØ§ÙĦÙĩ":6855,"ĠÙĪØ¹ÙĨØ¯ÙĬ":6856,"ĠØ§ÙģØ±ÙĬÙĦ":6857,"ank":6858,"Ø®Ø±Ùī":6859,"ĠØ§Ø³ØªÙħØªØ¹Øª":6860,"ØªÙħØ§Ùħ":6861,"ĠÙĥÙĪÙħÙĨØªØ§Ø±":6862,"ÙĬÙĪØ§ÙĨ":6863,"Ø§Ø«Ø±":6864,"ĠÙģÙĩÙħØªØ´":6865,"ĠØŃØ³ÙĨÙĬ":6866,"ĠÙĪÙģÙĬÙĩØ§":6867,"Ø¯Ø¹Ø§Ø¡":6868,"ĠÙĬÙħØ§Ùĥ":6869,"ĠØ§ÙĦØ¨ÙĬØ¶":6870,"Ġgr":6871,"ĠØµØ§ÙĨØ¹ÙĬ":6872,"ĠØŃÙĥØ§ÙĬ":6873,"ĠØŃØ³ÙĨØ§ØªÙĥÙħ":6874,"ĠØ£Ø¨Ø¯Ø§":6875,"ĠÙģØ¯ÙĬÙĪÙĩØ§Øª":6876,"ĠØ§ÙĦÙĤÙĬØ§ÙħØ©":6877,"ĠØ®Ø§ØµÙĩ":6878,"ĠÙĥÙĪÙĥØ¨":6879,"ĠÙħÙĨØªØ¬":6880,"ĠÙħÙĪØªÙĪØ±":6881,"ĠØ®ÙħØ³Ø©":6882,"ĠØ§ÙĦÙĨØµÙĬØŃØ©":6883,"ØªÙĪØŃØ´ÙĨØ§Ùĥ":6884,"ĠÙħØºØ§ÙħØ±Ø©":6885,"ĠÙĪØ§ÙĦØ¯ÙĬÙĥÙħ":6886,"ĠÙĪØ§ÙĦÙĬÙĪÙħ":6887,"ĠØ¥ÙģØ±ÙĬÙĤÙĬØ§":6888,"ÙħÙģÙĩÙħØªØ´":6889,"ĠØ¨ÙģØ§Ø±Øº":6890,"ow":6891,"ÙĪØ®Ø©":6892,"ĠØ§ÙĦÙĪØ¬":6893,"ÙĩÙĨØ§Ùĥ":6894,"ĠÙĪÙĬØ§":6895,"ĠÙħÙĩØ¯":6896,"ÙĤÙĦØª":6897,"ĠÙĬØ³ÙħØŃ":6898,"ĠØ¨Ø°":6899,"ĠØ¨ÙħÙĨ":6900,"ĠØªØ§ÙĦÙĬ":6901,"Ø´Ø±Ùģ":6902,"ĠØ¹Ø¬":6903,"ĠØ¹Ø§Ø±":6904,"Ø¬Ø§ÙĬØ©":6905,"ĠØ±ÙĤ":6906,"ĠØ±ÙĬÙģ":6907,"ÙĦÙĬÙĬÙĨ":6908,"ĠØ¬ÙĪØ¬":6909,"ĠØŃØ±Ùģ":6910,"Ø±ÙĬØ§Øª":6911,"ĠØ§ÙĨØµØ±":6912,"ĠØ¯Ø¨":6913,"Ø§Ø¡Ø©":6914,"ĠÙħØ§ÙĬÙĨ":6915,"ĠÙĥÙĬÙĦÙĪ":6916,"ĠØºØ±":6917,"Ø§Ø¬Ø§Øª":6918,"Ø±Ø¬Ùħ":6919,"ÙĪÙħÙĪÙĨØªØ§Ø±":6920,"Ø³ÙĬØ³":6921,"ĠÙĪÙĬØ®":6922,"ĠÙħØ´ÙĪ":6923,"ĠÙĪØªØ³Øª":6924,"ĠØ¨ÙĦØ§Ø¯ÙĪ":6925,"ÙĪÙĦÙĬØ¯":6926,"ĠØ§ÙĦØ±Ø²ÙĤ":6927,"ØªØ±Ø§ÙģÙĬØ©":6928,"ĠÙĤØ§ÙĦÙĦÙĬ":6929,"ĠØ§ÙĦØ·Ø±ÙĤ":6930,"ĠØªÙĤÙĦÙĬ":6931,"ĠÙģØ±Ø¶":6932,"ĠÙĪØ¬Ø¯Øª":6933,"ont":6934,"ĠÙĬØ³Ø§Ø¹Ø¯":6935,"ĠÙĬÙĨÙģØ¹":6936,"ĠØ§ÙĦÙħØ¹ÙĬØ´Ø©":6937,"ĠÙĪÙĥÙĨØª":6938,"ĠØªÙĥØ°Ø¨":6939,"Ø§Ø³ÙħÙĬÙĨ":6940,"ĠÙħØ®Øª":6941,"ĠØ²ÙĪØ¬Ø©":6942,"ÙĪØ§ÙĨÙĬÙĨ":6943,"ĠØ§ÙĤØ±Ø¨":6944,"ĠÙĬÙģÙĪØª":6945,"ĠÙĤØ±ÙĬØ¨Ø§":6946,"ĠÙĤØ±ÙĬØ¨Ø©":6947,"ĠØ§ØºÙĨÙĬØ©":6948,"ĠØŃØ³Ø¨ÙĨØ§":6949,"ĠØ¯ÙĪØ§Ø¡":6950,"ĠØ±Ø£ÙĬØª":6951,"ĠØ¨Ø±Ø§Ø§ÙģÙĪ":6952,"ĠØ«ÙĦØ§Ø«Ùĩ":6953,"ĠÙħØ¹Ø±ÙĪÙģØ©":6954,"ĠÙĥØ«Ø±Ø©":6955,"Ø§ÙģÙĤÙĨÙĬ":6956,"cc":6957,"ment":6958,"ÙĨØªÙĪÙħØ§":6959,"ØªØ³Øª":6960,"ĠÙĪÙħÙĬ":6961,"Ø¹ÙĬØ©":6962,"ØŃØ³Ø¨":6963,"ÙĤØ§Ø´":6964,"ĠÙĬÙĨØ³":6965,"ĠØ¨ØºÙĬ":6966,"ĠØªØ³Ùħ":6967,"ĠØªØµÙĦ":6968,"ĠØªÙĦØ§ÙĤ":6969,"ĠÙĦØ§Ø±":6970,"ĠÙĦØ®ÙĬØ±":6971,"ĠØ´Ø§Ùĥ":6972,"ĠØ´Ø¨Ø¹":6973,"ĠØ£ÙĤÙĦ":6974,"Ø±ÙĬØ¹Ø©":6975,"ĠØ§ÙĦÙħØ¯ÙĬØ±":6976,"ĠØ§ÙĦÙħØ¯Ø±":6977,"ĠØ§ÙĦÙħÙĪÙĤØ¹":6978,"ĠØ³Ø§ØŃ":6979,"ĠØ³ÙĨØª":6980,"ĠØµÙĬØ§Ùħ":6981,"Ø£Ø³Øª":6982,"ĠØ§ÙĦØ¹Ø³ÙĦ":6983,"ĠØ§ÙĦØ¹Ø§ÙģÙĬØ©":6984,"Ø±Ø¬Ø§Øª":6985,"ÙĦÙħØ³Ø§ÙĨ":6986,"ĠØ§Ø®Ø¯Ùħ":6987,"ĠØ´Ø§Ø¡ÙĦÙĦÙĩ":6988,"ĠØ§ÙĦÙĤØµØ©":6989,"ĠØ§ÙĦØ³Ø®":6990,"ĠØ§ÙħØ§Ø²ÙĬØº":6991,"ĠØ£ÙĨÙĩÙħ":6992,"ĠØ§ÙĬØ¬Ø§Ø¨ÙĬ":6993,"ÙĩØ¯Ø±Ø©":6994,"ĠØ«ÙħÙĨ":6995,"ĠÙĦÙħØ³":6996,"ĠÙĨØŃØ³Ø¨":6997,"Ø¦Ùĩ":6998,"ÙĢÙħ":6999,"ĠØªÙĨØ´Ø±":7000,"ĠÙĬÙĤÙĪÙħ":7001,"ĠÙĤÙĦØªÙĦÙĪ":7002,"ĠÙĨØµÙĬØ¨":7003,"ĠÙĥÙĪÙħÙĬØ¯ÙĬØ©":7004,"Ø¬Ø²Ø©":7005,"Ø¥ÙĨØ³Ø§ÙĨ":7006,"ĠØªÙĩÙĦØ§":7007,"ĠØ´ÙĩØ±ÙĬÙĨ":7008,"ÙĤÙĪÙī":7009,"ĠØ±ÙĪØ§ØŃÙĥÙħ":7010,"ĠØ§ÙĦÙħØºØ§ÙħØ±Ø§Øª":7011,"ĠÙĤØ¨Ø±Ùĩ":7012,"ĠØ§ÙĦÙģØªÙĨØ©":7013,"ĠØ§ÙĦØ§Ø·ÙģØ§ÙĦ":7014,"ĠÙħÙģÙĩÙĪÙħØ©":7015,"ĠÙĨØªØ§ÙĪØ¹Ùĥ":7016,"Ġavec":7017,"ĠØ§ÙĦØ±Ø§ØŃÙħÙĬÙĨ":7018,"th":7019,"ĠØ§Ø¯ÙĬ":7020,"ĠÙ±":7021,"Ø§ÙĦØ®":7022,"ÙħØ²":7023,"ĠÙĪØªÙĥ":7024,"ĠÙĪÙĥÙĬÙģØ§Ø´":7025,"ÙģØ§ÙĩÙħ":7026,"ĠÙĬØ³Ùħ":7027,"ĠØ¨ÙĤÙĬ":7028,"ĠÙģØ§Ø³":7029,"ĠØªÙĪØ³":7030,"ĠØ¹Ø°Ø§Ø¨":7031,"ĠÙĨØ¯ÙĪ":7032,"ĠØ±Ø§ÙĪ":7033,"ØµÙĦÙī":7034,"Ø·ÙĦØŃ":7035,"ĠÙħÙĨØ´ÙĪÙģ":7036,"ĠØ´ÙĥÙĪØ¨ÙĬ":7037,"ĠØ£ÙĦÙĬ":7038,"ĠØ³Ø¹ÙĪ":7039,"ØºØ±ÙĬ":7040,"ĠÙĪØ§ÙĦÙĩ":7041,"ĠÙĪØ§ÙĦÙĪØ§":7042,"ĠÙħØ¹ÙĨØ¯ÙĬØ´":7043,"ĠØ¨Ø§ÙĦØ¥":7044,"ĠØ®ÙĪÙĩ":7045,"ĠØ§ÙĦØŃÙĦÙĤÙĩ":7046,"ĠØ²Ùĩ":7047,"Ø¨Ø±Ø¯":7048,"ĠÙħØªØ±":7049,"ĠØ§ÙĦØ¯Ø±Ø§ÙħØ§":7050,"ĠØµØŃØ§Ø¨ÙĬ":7051,"ĠÙĬØªØ´":7052,"ĠÙĬØŃÙģØ¸ÙĪ":7053,"ÙĥÙĦØ´":7054,"Ø§ÙĦÙĬØ³ØªØ§":7055,"Ø¨Ø¹Ø´":7056,"ĠØªÙĤÙĦ":7057,"Ø¦Ø§Øª":7058,"ĠÙģØ±ÙĪÙĨØ³ÙĬ":7059,"Ø§Ø¶ÙĦ":7060,"ĠÙĨØŃØ¨Ø³":7061,"ĠØ§ÙĦØ²ÙĬÙĨØ©":7062,"ĠØ¨ÙĥØ«ÙĬØ±":7063,"ĠØªÙħØ³":7064,"erci":7065,"Ġsal":7066,"ĠÙĪÙĥØ§ÙħÙĦ":7067,"ĠØ§ÙĦÙĦØ³Ø§ÙĨ":7068,"ĠÙħØ®ÙĦÙĪ":7069,"ĠÙĤØ¯Ø§Ùĩ":7070,"ĠÙĤØ§Ø¹Ø¯ÙĬÙĨ":7071,"ĠØŃØ³Ø¨ÙĬ":7072,"Ġne":7073,"Ġgo":7074,"ĠØ¸ÙĩØ±":7075,"ĠÙĦÙģØ¯ÙĬÙĪ":7076,"ĠØ£Ø³Ø·ÙĪØ±Ø©":7077,"Ø¹ÙĨØ¯ÙħØ§":7078,"Ø´ÙģÙī":7079,"ĠØ³ÙĥÙĬÙĥØ¯Ø©":7080,"ĠÙĥØªØ¨Øª":7081,"ĠÙĪÙĬØ¬Ø¹ÙĦÙĥ":7082,"ĠÙĬÙĨØªÙĩÙĬ":7083,"ĠØªÙĨØªÙĤØ¯":7084,"ÙĬØ§ÙĪØ¯ÙĬ":7085,"ĠØ¹ÙĦØ¨Ø§ÙĦÙĬ":7086,"ĠÙħØ³ÙĥÙĬÙĨØ©":7087,"coup":7088,"ĠØ®ÙĨØ´ÙĦØ©":7089,"jour":7090,"pk":7091,"Ú¾":7092,"ÙĦÙĨÙĬ":7093,"ÙħØ¨Ø¯Ø¹":7094,"ÙĩØ±Ø¨":7095,"ĠÙħÙĪØ´":7096,"Ø¹ÙĦÙĬ":7097,"ØŃØ«":7098,"ØŃÙĦÙĪ":7099,"ĠÙĬØ¶Ø¹":7100,"ĠØ¨ÙĦÙĩ":7101,"ĠØªØ¶Ø¹":7102,"ĠØªÙĪÙĤÙģ":7103,"ĠÙĦØ§ÙģÙĬ":7104,"ĠØ¹Ø§ØµÙħØ©":7105,"ĠÙĨØ±ÙĬØ¯":7106,"ĠØ±Ø¶ÙĬ":7107,"ĠØ®ÙģØª":7108,"ĠØ¬Ø§Ùĩ":7109,"ĠØ¬ÙĬÙĦ":7110,"ĠØŃØ¯ÙĬØ«":7111,"Ø§Ø¯ÙĦ":7112,"ĠØ£ÙĬØ§":7113,"ĠØ§ÙĦÙħÙĤØ¯":7114,"ĠØ³Ø§ÙĨ":7115,"ÙĪØ±Ø§Øª":7116,"ØºØ§ÙĦ":7117,"ĠØµØ¨ØŃ":7118,"Ø§ÙĩÙĬØ±":7119,"ĠØ§ÙĦØ¬ÙĬÙĦ":7120,"ĠØ¨Ø§ÙĦØ´ÙģØ§Ø¡":7121,"ÙĦÙħØ§Ø°Ø§":7122,"ĠÙĥÙĦØ§Ø´":7123,"ĠØ§ÙĦØŃÙĬÙĪØ§ÙĨØ§Øª":7124,"ÙĪÙĥÙĬ":7125,"Ø¯ÙĬØ±ÙĪÙĨØ§":7126,"ÙĪØ¨Ø§Øª":7127,"ĠÙĪÙĨØ¹Ø±Ùģ":7128,"ĠÙĥÙĬÙģÙĥÙĬÙģ":7129,"ĠØ§Ø¨ÙĪÙĨ":7130,"ĠÙĦÙħØ´":7131,"ĠÙĪØ´Ø¨ÙĬÙĩ":7132,"ÙĨØ³Ø§Ø¡":7133,"ÙģØªØ§ØŃ":7134,"ĠÙħÙĤØ§Ø±":7135,"ĠÙħØµØ¯Ø±":7136,"ĠØ¨Ø±Ø§ÙģÙĪÙĪ":7137,"ĠÙĤØµØ¯ÙĬ":7138,"elle":7139,"ĠÙħØŃØªÙĪÙĬ":7140,"Ø£ÙĥØ«Ø±":7141,"ĠÙģØ§ÙĬØ¯Ø©":7142,"ĠÙģÙĤÙĬØ±":7143,"ĠØ§ØµØ¨ØŃØª":7144,"ĠÙģØ¯Ø²Ø§ÙĬØ±":7145,"Ġbeaucoup":7146,"Ġcontinuation":7147,"Ġi":7148,"ĠØ§ÙĦÙĩØ§ØªÙģ":7149,"ÙĥØ§ÙħÙĦ":7150,"ĠÙĪØ´ÙĪÙģ":7151,"Ø¹Ø§ÙĬØ©":7152,"ĠØ¨ØºÙĬØ±":7153,"ĠØ¨ØµØ±Ø§ØŃØ©":7154,"ĠÙģØ±ÙĬÙĤ":7155,"ĠØªØ°":7156,"ĠÙĦÙĤØ·":7157,"ĠÙĥÙĪÙĬ":7158,"ÙĦÙĬÙĪÙħ":7159,"ĠØ®Ø¶":7160,"ĠØ¬ÙĨØ§ÙĨ":7161,"ĠÙĤÙħØª":7162,"ĠØ£Ø¸ÙĨ":7163,"ĠØ§ÙĨÙĥÙħ":7164,"ĠØ§ÙĨØ§ÙĬØ§":7165,"ĠØ¯Ø§Ùģ":7166,"ĠØ§ÙĦÙħØ·Ø§Ø±":7167,"ĠØ³Ø§ÙĩÙĦ":7168,"ĠØ³Ø§ÙĩÙħ":7169,"ĠØ³Ø§ÙħØŃ":7170,"ØºÙĪÙĦ":7171,"Ø£Ø®":7172,"ĠØ§ÙĦØ¹Ø§ÙĦ":7173,"ĠØ§ÙĦØ¬ÙħØ¹ÙĬ":7174,"ÙģÙĬÙĩØ§":7175,"ĠØ§ÙĦØŃÙĪØ§Ø±":7176,"ĠØªØ¹ÙĬØ·":7177,"ĠØ·Ø§ÙĦ":7178,"ĠØ§ÙĦÙģØ·ÙĪØ±":7179,"ĠØ§ÙĦÙģÙĥØ±Ùĩ":7180,"ĠØ§ÙĦÙĤØµ":7181,"ĠØ§ÙĦØ¨Ø§Ø±":7182,"ĠÙħØªÙĨ":7183,"ÙħÙĪØ§ÙĦ":7184,"Ø¬Ø¨Ø§ÙĦ":7185,"ÙĤØªØµ":7186,"ĠÙĪÙĨØ²ÙĬØ¯":7187,"ĠØ§ÙĦØ±Ø§Ø¨":7188,"ĠÙģØ§ÙĦÙĥ":7189,"ĠØ§ÙģÙĦØ§Ùħ":7190,"ĠÙĨØ§Ø³ÙĬ":7191,"ĠØªØªÙħÙĨØ§":7192,"ĠØ¨Ø¯Ø±Ø§ÙĩÙħ":7193,"ĠØ§ÙĦØ¥ÙĨØª":7194,"ĠØ§ÙĦØ²ÙħØ§ÙĨ":7195,"ĠÙĨØ³ØªÙģØ§Ø¯":7196,"ĠÙĦØ¨Ø§Ø±ØŃ":7197,"ĠÙĤØªÙĦØª":7198,"ĠØ±Ø§ÙĬÙĥÙħ":7199,"Ø¨Ø§ÙĦÙĨØ³Ø¨Ø©":7200,"ĠÙĬØµÙĨØ¹":7201,"ĠÙĥÙħÙĬØ©":7202,"Ø§ÙĦØ¹ØªØ±ÙĪØ³":7203,"ĠØ¨ÙĪØ§ØŃØ¯":7204,"ĠØ§ÙĦØ£ÙħØ§ÙĥÙĨ":7205,"ĠÙĨØªØ¨Ø¹ÙĪ":7206,"ĠÙĦØ¯Ø±Ø¬Ø©":7207,"ĠØªØ¹ÙĦÙĬÙĤÙĥ":7208,"ĠØ´ÙĩØ§Ø¯Ø©":7209,"ĠØ§ÙĦØ´Ø¹Ø¨ÙĬ":7210,"Ġtrs":7211,"ĠÙĬÙģØ±Ø¬ÙĩØ§":7212,"ĠÙħØªØ¹ØªÙĨØ§":7213,"ĠÙĬØ£ØªÙĬ":7214,"ĠÙĬØ¯ÙĪÙħÙĩØ§":7215,"ĠÙħØªØªØ¨Ø¹":7216,"Ø®Ø§ÙģØ´":7217,"ĠØ§ÙĦØŃÙĪØ§ÙĬØ¬":7218,"ĠÙĨÙĪÙģÙħØ¨Ø±":7219,"ox":7220,"ts":7221,"Ø±Ø·":7222,"ÙĩØ´":7223,"ĠÙħØ¯ÙĬÙĨ":7224,"Ø¹Ø§Ùĥ":7225,"ĠÙģÙĦÙĩ":7226,"Ø´ÙĪØ´":7227,"ĠÙĨÙĩØ§":7228,"ĠÙĩØ§ÙĪ":7229,"Ø·ØŃ":7230,"Ø¨ÙĬØ¶":7231,"ĠÙħÙĨÙĬØŃ":7232,"ĠØ¬Ø¹ÙĦ":7233,"ĠØŃØ§Ø³Ø¨":7234,"Ø¶Ùħ":7235,"ĠÙĤÙĪÙĬ":7236,"Ø±ÙĬÙģØ©":7237,"ĠØµØ§Ùħ":7238,"ĠØµØ§Ø±ÙĬ":7239,"Ø§Ø¦ÙĤÙĬ":7240,"ĠØ§ÙĦØ¬ÙħØ¹":7241,"ĠØ§ÙĦØ¬ÙĬØ´":7242,"Ø§ÙĪØ¨":7243,"Ø³ØªÙĩØ§Ø´":7244,"Ø§ØµÙĦØ©":7245,"ÙħÙĨØ©":7246,"Ø¨Ø±Øª":7247,"ĠÙĪÙĬÙĪÙģÙĤ":7248,"Ø¯ÙĬØ±ÙĨØ§":7249,"ĠÙħØªØ£ÙĦÙĤ":7250,"ÙħÙĪØ§Øª":7251,"ĠØ§ÙĦÙĥØ¨Ø§Ø±":7252,"ĠØ§ØŃÙģØ¸":7253,"ĠØ§ÙĦØ®Ø§Ùħ":7254,"ĠØ§ÙĦØµÙģØ±":7255,"ĠØ§ÙĥØª":7256,"Ø²ÙĬÙĦ":7257,"ÙĪØªÙĬÙĨ":7258,"Ġpers":7259,"Ġda":7260,"ĠØ£Ø®ØªÙĬ":7261,"ĠÙĩØ§Ø°Ø§Ùĥ":7262,"ĠÙĦØ¹ÙĨØ¯":7263,"ĠÙĤÙĨØ§Øª":7264,"ĠÙĨÙĤØ§Ø±Ø¹":7265,"Ø¹Ø±ÙģÙĪØ´":7266,"ĠÙĥÙĪÙħÙĪÙĨØªØ§Ø±":7267,"ĠØªØ´ÙĪÙģÙĬ":7268,"ĠØŃÙĤÙĪÙĤ":7269,"ĠÙĩØ¯Ùģ":7270,"ĠØ¹Ø¯ÙĨØ§ÙĨ":7271,"ĠÙĬÙħØ§Øª":7272,"ĠÙħÙĩÙħØ©":7273,"ĠÙħÙģØªÙĪ":7274,"ĠØŃØ¯ÙĪØ´":7275,"ĠÙĦØ¬ÙħÙĬØ¹":7276,"ÙĤØªÙĦÙĨÙĬ":7277,"ĠÙĬØ¶ØŃÙĥÙĨÙĬ":7278,"ĠØ§ØŃØªØ±Ø§ÙģÙĬ":7279,"ĠØ§ÙĦØ§Ø³ÙĦØ§ÙħÙĬØ©":7280,"ĠØ§ÙĦØªÙĦÙģØ§Ø²":7281,"ĠØ§ÙĦØ¯Ø±Ø§Ø³Ø©":7282,"ĠÙĦØ¨ÙĦØ§ØµØ©":7283,"ĠÙĦØ¯ÙĬÙĩÙħ":7284,"ĠØ§ÙĦØªØ´Ø¬ÙĬØ¹":7285,"ĠØ¯ØŃÙħØ§ÙĨÙĪØ³":7286,"ĠØ§ÙĦØµØºÙĬØ±Ø©":7287,"ĠØ£ÙĪØ±ÙĪØ¨Ø§":7288,"eep":7289,"Ù±":7290,"ÙĬØ§ÙĨØ§":7291,"ĠØ§ÙĦÚ¨":7292,"ĠØ§ÙĦØ¶Ø±":7293,"ÙĩØ²":7294,"ÙĥØ§Ø¡":7295,"Ø¨ÙĪØ¯ÙĥØ§Ø³Øª":7296,"ĠÙħØŃÙħ":7297,"ÙĤÙĦØ¨":7298,"ÙĤØ¨Ø§ÙĦ":7299,"Ø³Ø¹":7300,"ĠÙĬÙħØª":7301,"ĠØ¨ØŃØ¨":7302,"ĠØ¨Ø±ÙĪØŃ":7303,"ĠÙĦÙī":7304,"ĠÙĦÙĪØ±":7305,"ĠÙĦØ§Øµ":7306,"ĠÙĦÙĪØ¬Ùĩ":7307,"ĠØ¹ÙĪÙĨ":7308,"ĠØ¹Ø§Ø¬":7309,"ĠØ¹ÙĪØ¯Ø©":7310,"ĠÙĨÙĪÙħÙĬØ¯ÙĬØ§":7311,"Ø§Ø±ÙĤØ©":7312,"ØµÙĦÙĥ":7313,"ĠØŃØ²":7314,"ÙĪÙĨØ´":7315,"ĠÙĤØ³Ùħ":7316,"ĠÙĤØµØ±":7317,"ĠØ£Ø«":7318,"ĠØ£ÙħØ©":7319,"ĠØ§ÙĦÙħØ¯ÙĬØ©":7320,"ĠØ§ÙĦÙħÙĬØ³":7321,"ĠØ³Ùģ":7322,"ĠØ³Ø§Ùģ":7323,"ÙĪÙĦÙĥÙħ":7324,"ĠÙĪØ§ÙĦÙħØ¹":7325,"Ø§ÙĪÙĩØ§":7326,"ĠØ¹ÙĨÙĨØ§":7327,"ÙĤÙĬÙģ":7328,"ĠØ§ÙĦØªÙĤØ¯ÙĬØ±":7329,"Ø³ÙĬÙĩ":7330,"Ø§Ø²ÙĦ":7331,"ĠØ§ÙĦØ´Ø±Ùģ":7332,"Ø¹Ø¯ÙĦ":7333,"ĠØ±ÙĪØ¶Ø©":7334,"ĠØ§Ø³ØªØ±":7335,"ĠØ§ÙĦØ£Ø´":7336,"ÙĪØ¬Ø©":7337,"ĠÙĨØ¹ÙĬØ·":7338,"ĠÙĬÙĪÙģÙĤÙĨØ§":7339,"ÂłÂłĠ":7340,"ĠØ¨ÙĬØ¶":7341,"ĠÙĨØ´Ø¬Ø¹":7342,"ĠÙĨØ³Ø§":7343,"ĠÙħØ²ÙĬØ©":7344,"ĠØ§ØµÙĦ":7345,"ĠÙĤÙĦØ§ÙĦ":7346,"ĠÙĬØ·ÙĦØ¨":7347,"ĠØªØ´ÙĪÙģÙĪØ§":7348,"Ø¬Ø¨ØªÙĨÙĬØ´":7349,"ĠØ§ÙĦÙħØ³Ø±ØŃ":7350,"ĠØ±Ø§Ø§Ø¦Ø¹":7351,"ĠÙĬØµÙĪØ±":7352,"Ġel":7353,"ĠØ¬Ø¯Ø¯":7354,"ĠÙħÙĪÙĦØ§ØªÙĬ":7355,"ĠÙĪÙĬØ¹Ø§ÙģÙĬÙĥ":7356,"ĠØŃØ³ÙĨØ©":7357,"ĠÙħÙĪØ±Ø§ÙĦ":7358,"ĠØŃØ¯Ø«":7359,"ĠØ£Ø¨ÙĨØ§Ø¡":7360,"ĠØ£ÙĪÙĦØ§Ø¯":7361,"ĠØ§ÙĦØ¥ÙĨØ¬ÙĦÙĬØ²ÙĬØ©":7362,"ĠØªØ¨Ø§ÙĨÙĦÙĬ":7363,"ĠØµÙĨØ§Ø¹Ø©":7364,"ĠÙĪØªØ¹Ø§ÙĦÙī":7365,"ĠØ²Ø±ØªÙĩØ§":7366,"ĠØµØ§ÙĬÙħ":7367,"ĠÙĥØ¨Ø±Øª":7368,"ĠØªÙģÙĥÙĬØ±":7369,"ĠØ¹ÙĦØ§ÙĤÙĩ":7370,"ĠØ¬ÙĬÙĪØºØ±Ø§ÙģÙĬÙĥ":7371,"di":7372,"ÙĬÙĥÙħ":7373,"ÙĬØ§Ø©":7374,"ÙĨØ³Øª":7375,"Ø§ÙĦØ¬Ø²Ø¡":7376,"Ø±Ø§ÙĦ":7377,"ĠÙħØ°":7378,"ĠÙĬÙħØ«":7379,"ĠÙĬØ¨Ø¹Ø«":7380,"ĠØªØ§Ùħ":7381,"ĠØªØ®ÙĦØ§Øµ":7382,"ĠØªÙĦØ¨Ø³":7383,"ĠØªØºÙĬÙĬØ±":7384,"ÙīØ¡":7385,"ĠØ®ÙĦØ¹":7386,"ĠØ¬Ø§ÙĨÙĬ":7387,"ĠØŃØ¸":7388,"Ø§Ø¯Ø±Ø©":7389,"ĠÙĤÙĦØ©":7390,"ĠØ£ÙĤÙĪÙĦ":7391,"ĠØ£Ø±Ø¯":7392,"Ø§Ø¨Øª":7393,"ĠÙĪØ§ÙĦÙħØ³":7394,"ĠÙĪØ§ÙĦØ¬Ø²Ø§Ø¦Ø±":7395,"Ø§Ø³ÙĦØ§Ùħ":7396,"ĠØ§ÙĦØ¹Ø¯ÙĬØ¯":7397,"ÙĦÙĪÙĨØ§":7398,"ĠØªØŃÙĤÙĬÙĤ":7399,"ĠØ§ÙĦÙĥÙģØ§Ø±":7400,"Ø¬Ø¨Øª":7401,"ĠØµØŃØªÙĥ":7402,"ĠÙĪÙħØ¨Ø¹Ø¯":7403,"ĠØ¶ÙĬØ¹":7404,"ĠØ§ÙĦØ±ÙħØ¶Ø§ÙĨ":7405,"ĠØ§ÙĥØªØ´Ùģ":7406,"ĠÙĪÙĩÙĦ":7407,"ÙĢÙĦ":7408,"ĠØ³ÙĬØªÙĬ":7409,"ĠÙħØ³Ø§Ø¡":7410,"ĠÙĨØªÙģØ±Ø¬ÙĩØ§":7411,"ĠÙĬØ¯Ø¹ÙĬ":7412,"ĠØ¨ÙĩØ§Ø°":7413,"ĠØ®Ø·Ø±Ø§Øª":7414,"ĠÙĦØ¨ÙĨ":7415,"ĠÙĪØ§ÙĨØ´Ø§Ø¡":7416,"ĠÙĪÙĥÙĦØ´":7417,"ĠØ§ÙĩÙĦØ§":7418,"orm":7419,"ĠÙĦØ§Ø¨Ø³":7420,"ĠÙĦØ®Ø¶Ø±":7421,"ĠÙĤØµÙĬØ±":7422,"ĠØ®ÙĦÙĤÙĥ":7423,"ĠØ§ÙĦØ£ÙħÙĪØ±":7424,"ĠÙĬØ¶ØŃÙĥÙĪ":7425,"ĠØ§ÙĦÙĤÙĬÙĪÙħ":7426,"ĠÙħØŃØ¨Ø©":7427,"ĠÙĪØ¹ÙĨØ¯Ùĥ":7428,"ĠØ§ÙĦØ¬ÙħØ¹Ø©":7429,"ĠÙģØ§Ø±Øº":7430,"ĠØ§ÙĦÙĦØŃØ¸Ø©":7431,"ĠÙĦØ¨Ø³ÙĥØ±Ø©":7432,"Ġup":7433,"ĠØ±ÙħØ¶Ø§ÙĨÙĬ":7434,"ĠÙĨÙĬØ´Ø§ÙĨ":7435,"fa":7436,"ĠW":7437,"ÙĨØ§ØªÙĬ":7438,"ĠØ§ÙĦÙĨØ§":7439,"Ø¨Ø§Ø¡":7440,"ĠÙĪØ§Ø³Ùħ":7441,"Ø¯ÙħÙĬ":7442,"ØŃÙĦØ©":7443,"ÙĤÙħØ©":7444,"ÙĤØ³Ùħ":7445,"ĠÙĨØ§Ø¬ØŃØ©":7446,"ĠÙģÙĬØ¯ÙĪ":7447,"ÙĬØ±ÙĬØ§":7448,"Ø®ÙĪÙĦ":7449,"ĠÙħÙĨØŃ":7450,"ĠØ¬ÙĪÙĬ":7451,"ĠØŃÙĦÙĤÙĩ":7452,"ĠÙĤÙĩÙĪØ©":7453,"ĠÙĤØ²Ø§Ùħ":7454,"ĠØ¯Ø¹ÙĪ":7455,"ĠØ§ÙĦÙħØ§Ø±":7456,"Ø°Ùģ":7457,"ÙĪÙĦØ§Øª":7458,"Ø§ÙĩÙĦØ§":7459,"ĠØ§ÙĦØ¹Ø§Ø¦":7460,"ĠØ§ÙĦØ¹ØµØ±":7461,"Ø±ÙĪÙĪØ¹Ø©":7462,"ĠØ¨Ø§ÙĦØº":7463,"ÙģÙĬÙĦÙħ":7464,"Ø³ØªÙħ":7465,"ĠØ§ÙĦØŃØ±Ø§Ùħ":7466,"ĠØ§ÙĦÙĨØ´":7467,"ÙĤØ¯ÙĬÙĨ":7468,"ĠØ§ÙĦÙĤØ§ÙĨÙĪÙĨ":7469,"ÙħÙĪØªÙĬ":7470,"ĠÙĪØªØ¹Ø±Ùģ":7471,"Ø§ÙĦÙĬØ³":7472,"ĠØ«ÙĤØ©":7473,"ĠØ¯ÙĬØ³ÙħØ¨Ø±":7474,"ÙĪØªÙĩ":7475,"Ġpay":7476,"ĠØ§ÙĦØºØ§ÙĦÙĬØ©":7477,"ĠÙĪÙĦÙĬÙĨØ§":7478,"Ø®ØµØµ":7479,"ĠÙĨØ®ÙĦÙĬ":7480,"Ġab":7481,"Ġbravo":7482,"ĠÙĪÙĥØ£ÙĨ":7483,"ĠÙħØ³ØªÙĤØ¨":7484,"ĠÙĦØ¨Ø§Ùĥ":7485,"ĠØ§ÙĦØ³ÙĬØ§Ø±Ø§Øª":7486,"ĠÙħØ§Ø²ÙĦØª":7487,"ĠØ®Ø¯ÙħØªÙĥ":7488,"ĠØ§ÙĦØ¨ÙĦØ§Ø¡":7489,"Ø§Ø¦ÙĦØ§Øª":7490,"ĠÙĨØ¸ÙĬÙģ":7491,"ĠØªÙĬØ§Ø±Øª":7492,"ĠØ¬Ø§Ø¨ÙĦÙĬ":7493,"ÙģÙĥÙĬØ±":7494,"ĠÙħØŃØ¨ÙĪØ¨":7495,"ĠÙħÙĨØªÙģØ±Ø¬":7496,"ĠØªÙĤØ¯ÙħÙĩ":7497,"ĠÙĪÙĬØ¬Ø¹ÙĦÙĩ":7498,"ĠÙĪØºØ¯Ø§Ø±":7499,"ĠØ±Ø²ÙĤÙĥ":7500,"Ø·Ø§ÙĦÙĬØ§":7501,"ĠØ§ÙĦØ¯ÙħØ¹Ø©":7502,"ĠÙĩÙĩÙĩÙĩÙĩ":7503,"ĠØ£Ø³Ø¨ÙĪØ¹":7504,"ĠØ§ÙĦÙħÙĬØ³Ø§Ø¬":7505,"ue":7506,"vlog":7507,"ÙĬÙĦÙĬ":7508,"Ø±Ø±":7509,"ØªØ¬":7510,"ĠÙĪØ®ÙĬØ±":7511,"ĠÙħØ§ÙĪ":7512,"ÙģÙģ":7513,"ĠÙĬØ§Ø¯":7514,"ĠØ¨Ø§Ø³Øª":7515,"ĠØ¨Ø§Ø¬ÙĬ":7516,"ĠØªÙĨØ¯":7517,"ĠØªØ¤":7518,"ĠØªØ°ÙĥØ±":7519,"ĠÙĦØ²":7520,"ĠÙĦØ§Ø¬":7521,"Ø´Ø§ÙĩØ¯":7522,"ĠÙģÙĬÙĨ":7523,"ĠÙģÙĬÙģØ±ÙĬ":7524,"ĠÙĥÙĬØ±":7525,"ĠØ±Ø§Ø¨Ø¹":7526,"ĠØ´ÙĦ":7527,"ĠØŃØ§Ùħ":7528,"ĠØ£ÙĥÙĦ":7529,"ĠØ§ÙĨÙĨØ§":7530,"ĠØ¯Ø§ÙħØ§":7531,"ĠØ§ÙĦÙħØ¨Ø§Ø¯":7532,"ĠØ³ÙĤØ³ÙĬ":7533,"ĠØ³ÙĩÙĬÙĦØ©":7534,"ĠØµÙĦÙĪØ§":7535,"Ø«ÙĦ":7536,"ĠØ§ÙĦØ¹ÙĤÙĦ":7537,"ĠØ¨Ø§ÙĦÙħØ¹":7538,"Ø¸Ùģ":7539,"ĠØ§ÙĦØŃÙĤÙĬÙĤÙĬØ©":7540,"ĠØ·ÙĪØ¨":7541,"ĠÙĪÙĬÙĤÙĪÙĦ":7542,"ÙĪÙĥØ§":7543,"ÙĬØ¨Ùĩ":7544,"ĠÙħØªÙĦ":7545,"ÙħÙĪØªÙĪ":7546,"ĠØ§ÙĦØ£ØºÙĨÙĬØ©":7547,"ĠØ§ÙĦØ®Ø¯":7548,"ĠÙĬØªØ¹Ø¨":7549,"ĠÙĬØŃÙģØ¸ÙĦÙĥ":7550,"ĠÙĨØ¹Ø·":7551,"ĠØ§ÙĦØµØŃÙĬØŃ":7552,"ĠØ¯ÙĬØ±ÙĪÙĦÙĬ":7553,"ĠØ§ÙĦØµÙĬØ§Ùħ":7554,"Ø¦ÙĬ":7555,"ĠÙĥÙĨØªØ´":7556,"ĠÙĦØ§Ø²ÙħÙĦÙĥ":7557,"ĠØ°Ø§ÙĦÙĥ":7558,"ĠØ³ÙĬØ§ØŃÙĬ":7559,"ĠØ¨Ø¯Ø§ÙĪ":7560,"ĠÙĬØ³Ø±":7561,"ĠÙĨØ³ÙĨØ§":7562,"ĠØ§ÙĦØ²ÙĩØ±":7563,"ĠØ§ØªÙģØ±Ø¬":7564,"ĠØ¯Ø§Ø±ÙĩØ§":7565,"ist":7566,"Ø±ÙĪØ³Ø©":7567,"ĠÙĥÙĪÙħØ¨ÙĦÙĬ":7568,"ĠØ§ÙĦÙħÙĨØ²ÙĦ":7569,"ĠØªØ¹Ø±ÙģÙĪ":7570,"ĠÙħÙĤØ§Ø¨ÙĦ":7571,"ĠØ¯Ø±Ø§Ø±ÙĬ":7572,"ĠØ§ÙĦØ¨Ø±Ø§ÙĨÙĬ":7573,"ĠÙĬÙģØ¹ÙĦ":7574,"ĠÙĪØŃØ¯ÙĩÙħ":7575,"ĠØ³ÙĦØ§ÙħØªÙĥ":7576,"ĠØ¬ÙħÙĦØ©":7577,"ĠØ§ÙĦØ¬Ø²Ø§ÙĬØ±ÙĬ":7578,"ĠÙĨÙĤØ¯Ø±Ø´":7579,"ĠØµÙĪØªÙĥ":7580,"ĠÙĬØ¹ÙĬØ´Ùĥ":7581,"ĠØ¨ÙĦØ§ØµØªÙĪ":7582,"ĠØŃØ±Ø§Ø´ÙĬ":7583,"ĠØ§ÙĦØªØ¬Ø§Ø±Ø©":7584,"ĠØ§ÙĦØªØ¬Ø±Ø¨Ø©":7585,"ĠØ§ÙĦÙĪÙĦØ§ÙĬØ©":7586,"ĠØ§ÙĦØ§ÙģÙĦØ§Ùħ":7587,"ĠØ¯Ø®ÙĦÙĥ":7588,"ĠØ§ÙĦØ¨ÙĬØªØ²Ø§":7589,"ĠÙĬØ±Ø¶Ùī":7590,"Ġsuis":7591,"ĠØ§ÙĦÙħØ¤ÙħÙĨÙĬÙĨ":7592,"ĠÙĬØ¬Ø§Ø²ÙĬÙĥÙħ":7593,"ĠØ§ÙĦØ§ÙĨØªØ±ÙĨØª":7594,"Mo":7595,"gÃ©r":7596,"js":7597,"ÙĩØ§ÙĦÙĥ":7598,"ÙĤÙĦÙĥ":7599,"ĠØ¨ÙĪÙĦÙĬ":7600,"ĠØ¨Ø§ÙĨØª":7601,"ĠØªØ³ÙĦ":7602,"ĠØªØ³ÙĬ":7603,"ĠÙĦØ±":7604,"ĠØ¹Ø§Øµ":7605,"ĠÙĨÚ¨":7606,"ÙĦÙĬÙĨØ§":7607,"Ø²ØŃ":7608,"ÙĬÙĨÙĪ":7609,"ÙĬÙĨØº":7610,"ĠØ®ÙĦÙģ":7611,"ĠØ®ÙĦÙĬÙĥ":7612,"ĠØ®ÙĦÙĪÙĤ":7613,"ĠØŃÙĬØ±":7614,"ĠØ£ÙħÙĬ":7615,"ĠØ£Ø±Ùī":7616,"Ø±ÙĬØ´":7617,"ĠØ¯Ø±Ø¨":7618,"ĠØ§ÙĦÙħØ§ØªØ´":7619,"ĠØ³Ø¹Ø¯":7620,"Ø§Ø¨ÙĬÙĥ":7621,"Ø§ÙģØ§":7622,"Ø§Ø¦ÙĨ":7623,"ĠÙĦÙĬØª":7624,"ĠØ§ÙĦØ¹Ø§Ø´":7625,"ĠØ§ÙĦØ¬Ø§ÙĨØ¨":7626,"ĠØºØ±Ø¨Ø©":7627,"ÙģÙĬØª":7628,"Ø²Ø§Ø¦Ø±":7629,"Ø±Ø¬Ùĩ":7630,"ĠÙĨØªØ²ÙĪØ¬":7631,"ÙĦÙĤØ·Ø©":7632,"Ø±Ø¨Ø¹":7633,"Ø±ÙģØª":7634,"ĠØ§ÙĦØ¨Ø³ÙĬ":7635,"Ø§ÙĦÙħØ³ÙĦØ³ÙĦ":7636,"ĠÙĪÙĨØµÙģ":7637,"ÙĦØ¨Ø©":7638,"ĠØ«ÙħØ§":7639,"Ú¨Ø±ÙĬ":7640,"ĠØ§ÙĦØºÙĦ":7641,"ÙĨØ³Ø§ÙĪØ´":7642,"Ġta":7643,"ĠÙĨÙĤØ§Ø·":7644,"ĠØ§ÙĦÙħØºØ±Ø¨ÙĬØ©":7645,"ĠÙĬÙĪÙħÙĬØ§":7646,"ĠØªØµØ¨ØŃ":7647,"ĠÙĩÙĥØ°Ø§Ùĥ":7648,"ÙĤÙĦØ§ÙĦ":7649,"ĠØ§ÙĦÙĦØºÙĩ":7650,"ĠØ§ÙĦØ§Ø®ÙĦØ§ÙĤ":7651,"ĠØ³ÙħØŃØª":7652,"Ø±ÙĪØªÙĬÙĨ":7653,"ĠÙĨØ¬Ø±ÙĬ":7654,"Ø¯Ø®ÙĦØª":7655,"ĠØ¯Ø®ÙĦÙĨØ§":7656,"ĠØ±ØŃÙĨØ§":7657,"ĠØªÙĦÙĤØ§ÙĩÙħ":7658,"ÙģØ¹ÙĦØ§":7659,"ĠØ³ØªÙĥÙĪÙĨ":7660,"ĠØ§ÙĦØ±ØŃÙħØ©":7661,"ĠÙĬØ±Ø²ÙĤÙĨØ§":7662,"ĠØ§ÙĦØªØŃØ¯ÙĬ":7663,"ĠØ®ØµÙĥ":7664,"ĠØ¹Ø§ÙĪØ¯Øª":7665,"Ġcomp":7666,"ĠØ§ÙĦØ®ÙĦØ§ÙĬØ§":7667,"ĠÙĦØ§ÙģØ§ÙħÙĬ":7668,"ØªÙĪØŃØ´ÙĨØ§":7669,"ĠÙĪÙĬØ¯ÙĬØ±":7670,"ĠÙĪÙĬØ±Ø²ÙĤÙĥ":7671,"bi":7672,"kh":7673,"Ġis":7674,"ÙĩØ§Ø°Ø§":7675,"ØªØ§Ø¡":7676,"Ø¨ÙĨØ§":7677,"Ø¹ÙĨ":7678,"ÙĤØ´":7679,"ĠÙĬÙĥØ±":7680,"ĠØ¹ÙĤÙĦ":7681,"ĠÙģÙĬØ³":7682,"ĠÙĩØ§ØªÙĩ":7683,"Ø·ÙĬÙĨ":7684,"ĠØ¬Ø¨Ø¯":7685,"ĠØŃØ±Ø©":7686,"ĠØŃÙħÙĪ":7687,"Ø§Ø¨ÙĪÙĨ":7688,"ÙĪØ±Ø¯":7689,"ĠØµÙĬÙģ":7690,"ĠØ§ÙĦØ¹Ø§Ø¨":7691,"ĠÙħØ¹Ø¸Ùħ":7692,"ĠØ¨Ø§ÙĦØ§ÙĨ":7693,"ĠØ¨Ø§ÙĦØ±ØºÙħ":7694,"ĠÙĨØªØ§Ø¨Ø¹":7695,"ÙĦÙĤØ§":7696,"ÙħÙĬÙĦØ©":7697,"ĠØ§ÙĦÙĨÙĤØ¯":7698,"ĠØªØŃØ±ÙĤ":7699,"ĠØ§ÙĦØ¨Ø±ÙĬ":7700,"Ø§Ø·ÙĬÙĨ":7701,"ĠÙħØªÙĤ":7702,"ĠØ§ÙĦØ£ØŃÙĬ":7703,"ĠÙĪØªØ¬":7704,"ĠÙĪÙħØ§ÙĨ":7705,"ĠÙĨØ¹ÙĦÙħ":7706,"ĠÙħØŃÙĦ":7707,"ĠØ§ÙĦÙĪØ¶Ø¹":7708,"ĠÙģØ§ÙĦÙģ":7709,"ÙģØ³ÙĩÙħ":7710,"ĠØ§Ø¹ÙħÙĦ":7711,"ĠØ§ÙĦØ¬Ø²Ø§Ùī":7712,"ĠÙĬÙĤÙĦÙĥ":7713,"ĠÙĬÙĤØ¨ÙĦ":7714,"ĠØ³ÙħØ§Ø·":7715,"ĠÙĬØ´ÙĪÙģÙĪØ§":7716,"ĠÙĪØ³ÙĩÙĦØ§":7717,"ĠØ´Ø¹Ø¨ÙĩØ§":7718,"ÙĪØ§ØŃÙĬ":7719,"ĠØ³ÙĪØ§ÙĬØ¹":7720,"ĠÙĬØ±ÙĪØŃÙĪØ§":7721,"ĠÙĪØ§ÙĦØªÙĤØ¯ÙĬØ±":7722,"ime":7723,"ĠØ¹Ø¬Ø¨ÙĪÙĨÙĬ":7724,"ĠÙĥÙĦÙħÙĩ":7725,"Ø²Ø¹ÙħØ§":7726,"ĠÙĪØ§Ø¬Ø¯":7727,"ĠØ§ÙĦØ¸Ø±ÙĪÙģ":7728,"ĠØ¨Ø³ÙĬÙģ":7729,"ĠØªØ²ÙĪØ±ÙĩØ§":7730,"ĠÙħØ¹Ø±ÙĪÙģÙĬÙĨ":7731,"ĠØ³ÙĩÙĦÙĩ":7732,"ĠØªØ²ÙĪØ¬Øª":7733,"ĠÙĬÙĦÙĤÙī":7734,"ÙĪÙħÙĪØ¨ÙĬÙĦ":7735,"ĠÙĪØ³ÙħÙĩØ§":7736,"ĠÙħØ§ÙĨØªÙģØ±Ø¬":7737,"Ġperson":7738,"st":7739,"ÙĬØ§ØŃ":7740,"ÙĪØ³ÙĬ":7741,"ØªØ²":7742,"Ø¯Ø§Ø¦ÙħØ§":7743,"Ø¹Ø¹":7744,"Ø¹Ø¬":7745,"ĠØ¨Ø§Ø®":7746,"ĠØ¨ÙĪØ¹":7747,"ĠÙģÙĥØ±Ùĩ":7748,"ĠÙĦÙĪØ¬":7749,"ĠÙĦØ´Ø¹Ø¨":7750,"ĠØ¹Ø§":7751,"ĠÙĨØ¶Ø±Ø¨":7752,"ĠÙĥØ§Ø±ÙĬ":7753,"Ø®ÙĪÙĨØ§":7754,"ØµØ±Ùģ":7755,"Ø·Ø§Ø¹":7756,"Ø·ÙĦØ©":7757,"Ø¨ÙĬØ¹ÙĪ":7758,"ĠØ´ÙĨÙĪ":7759,"ĠÙĤÙĦÙĪ":7760,"ĠØ£ÙħØ«":7761,"ĠØ§ÙĦÙħÙĨØ§":7762,"ØºØ§Ø±":7763,"ĠÙĪØ§ÙĦØ§Ø®":7764,"Ø«ÙĤÙģ":7765,"Ø³ÙĦÙĪØ¨":7766,"ĠØ§ÙĦØŃØ¬":7767,"ĠØ§ÙĦØŃÙĬØ§Ùĩ":7768,"ĠØ¨ÙĦØ§Ø³":7769,"ÙĦÙĥØ´":7770,"ÙĤÙĬÙĦØ©":7771,"Ø±Ø¨ÙĨØ§":7772,"ĠØ§ÙĦØ´Ø§Ø±Ø¹":7773,"ĠØ§Ø®ÙĪ":7774,"ĠØ§Ø®ØªÙĥÙħ":7775,"ÙħØ§ÙĦØ§":7776,"ĠØ§ÙĦÙģÙĦÙĪ":7777,"ĠÙħØªØŃÙħ":7778,"ĠÙħØªÙĨØ³Ø§Ø´":7779,"ÙħÙĪÙĨØ§":7780,"ĠØ§ÙĦØ¯ÙĪÙĦÙĩ":7781,"ĠØ§ÙĦØ£ØŃ":7782,"Ø¹Ø¨Ø§Ø¯":7783,"ÙĤØªØ´":7784,"ÙĤØªÙĨØ§":7785,"ĠØ§ÙĪÙħÙĬ":7786,"ĠÙĨØ¹Ø§ÙĪØ¯ÙĪ":7787,"ĠÙģÙĬÙĩØ§Ø´":7788,"ĠØ¯ÙĬØ±ÙĪØ§":7789,"ĠØ¹ÙĦØ§Ø¨ÙĬÙĩØ§":7790,"ĠØ§Ø¨Øª":7791,"ĠÙĪÙĩØ§Ø¯":7792,"ØªØ´Ø§Ùģ":7793,"ĠÙĬØ³Ø¬Ø¯":7794,"ĠÙĬØ³Ø¹Ø¯Ùĥ":7795,"ĠÙĨØ¯ÙĬØ±ÙĪØ§":7796,"ĠÙĬØ³ØªØ·ÙĬØ¹":7797,"ĠÙĨØ¬ÙĪØ²":7798,"ĠÙĬØ´ÙĪÙģÙĩØ§":7799,"ĠÙħØ²Ø§ÙĦÙĪ":7800,"ass":7801,"ite":7802,"ĠØ¬Ø§ÙĬØ¨ÙĩØ§":7803,"ĠØŃÙħØ¨ÙĪÙĥ":7804,"ĠØªØ±ÙĥÙĬØ¨":7805,"ĠØ±Ø§Ø³ÙĪ":7806,"ĠØªÙĬÙĦÙĬ":7807,"ĠÙħØ±ÙĬØ¶Ø©":7808,"ĠØªØ¹ÙĦÙĬÙĤØ§Øª":7809,"ĠÙħØ±Ø¶Ùī":7810,"ĠÙĨØªÙĦØ§ÙĤØ§":7811,"ĠØ§ÙĦØµØ§ÙĦØŃÙĬÙĨ":7812,"ĠØªÙĩØ¯Ø±ÙĪ":7813,"ĠÙĬÙĥÙħÙĦÙĥ":7814,"ĠÙĦÙĦØ¹Ø§ÙĦÙħÙĬØ©":7815,"ĠØ§ÙĦØµØ¯ÙĤØ©":7816,"ĠØ§ÙĦØ³ÙħØ§ÙĪØ§Øª":7817,"act":7818,"ÙħØ§Ø¯":7819,"ĠØ§ÙĦØ§Ø²":7820,"ĠØ§ÙĦØ§ÙħÙĦ":7821,"ĠØ§ÙĦÙĨÙĬØ©":7822,"ĠÙĪØ³Øª":7823,"ĠÙĪØ¶ØŃÙĥ":7824,"ÙĤØ§ÙĦÙĥ":7825,"ÙĤÙĦÙĬØ©":7826,"Ø³Ø§Ùħ":7827,"ĠØ¨ØŃØ§ÙĦ":7828,"ĠÙģØ¬":7829,"ĠÙģÛĮ":7830,"Ø§ÙĨØ¹":7831,"ĠØ¹ÙĪØ¶":7832,"Ø¬Ø§ÙĦ":7833,"ÙĦÙĬÙĪ":7834,"ĠÙĩØ¨Ø§ÙĦ":7835,"Ø§Ø±ÙĬÙĨ":7836,"Ø·Ø§Ø¬ÙĬ":7837,"Ø¨ÙĬØ§Øª":7838,"ĠØ´Ø±Ø©":7839,"ĠØ®ØªÙĥ":7840,"ĠØ¬ÙĬØ´":7841,"ĠØŃÙĤÙĬ":7842,"Ø±ÙĬØ¹":7843,"ĠØ§ÙĨØªÙĪÙħØ§":7844,"ĠØ¯Ø±Ø§Ùħ":7845,"ĠØ¯Ø±Ø¬Ø©":7846,"ĠØ§ÙĦÙħØŃØª":7847,"Ø§ÙĩØ§Øª":7848,"ĠØ§ÙĦØ¬Ø±Ø³":7849,"ÙĦØ§ÙĬÙĨ":7850,"ĠÙĥÙĬØ´":7851,"ĠØºÙĨÙĬØ©":7852,"ØªÙĬÙģ":7853,"Ø±Ø¬ÙĦ":7854,"ĠØ¥ÙĨØ§":7855,"ĠØªØ¹Ùħ":7856,"ĠÙĬØŃØ³Ø¨":7857,"ĠØ·ÙĪØ§ÙĦ":7858,"ĠØ¹ÙĨØ¯ÙĨØ§Ø´":7859,"ÙĤØ¯Ø±ÙĪØ´":7860,"ĠØºÙĬØ±ÙĩØ§":7861,"ĠØ§ÙĦÙģØ³":7862,"Ø§Ø·ÙĬØ©":7863,"ÙĦØªÙĤÙĬ":7864,"Ø¨Ø¹ÙĬØ¯":7865,"ĠÙĦÙħÙĦÙĬÙĪÙĨ":7866,"ĠÙĨØŃÙĬØª":7867,"ĠØ§ÙĦØºØ§Ùģ":7868,"ĠØ§ÙĦØºØ§Ø´ÙĬ":7869,"Ġdire":7870,"oub":7871,"ĠØ°ÙĬ":7872,"ĠÙħØ³ÙĬØ±":7873,"Ø§ÙĤÙħ":7874,"ani":7875,"ens":7876,"ĠÙĬÙĨÙĪØ¶":7877,"ĠØ§ÙĦÙħØ¹ÙĦÙĪÙħÙĩ":7878,"ĠÙĨØªØ§Ø¹ÙĨØ§":7879,"ÙĨÙĪØ§ÙĦ":7880,"Ġad":7881,"ĠØ§Ø´ÙĪÙģ":7882,"ĠÙĦÙĤØ¨":7883,"ĠÙĪÙĥØ°ÙĦÙĥ":7884,"ĠØ³ÙħØŃ":7885,"Ø§ÙĦØ¨Ø§Ø³Ø·":7886,"ĠÙħØ®Ø¯":7887,"ÙħØ³ÙĥÙĬÙĨ":7888,"ĠØŃØ³ÙĬÙĨ":7889,"ĠØ¯Ø±ØªÙĦÙĥ":7890,"ĠØ¬Ø§Ø§Ùħ":7891,"ĠØ¨Ø·Ø§ÙĤØ©":7892,"ĠÙĪÙĬØ±Ø¬Ø¹":7893,"ĠØ§ÙĦØ§Ø¹ÙĦÙī":7894,"ĠØµØºÙĬØ±Ùĩ":7895,"ĠØ´ÙĩÙĪØ±":7896,"ĠØ§ÙĦØ§Ø³ØªØ§Ø°":7897,"ĠØ²Ø§Ø¯Øª":7898,"ĠØ®Ø±Ø§ÙģÙĬ":7899,"ĠØ§ÙĦØ§ÙģÙĥØ§Ø±":7900,"ĠØºØ±ÙĬØ¨Ø©":7901,"ĠØ³Ø¨ÙĬØ·Ø§Ø±":7902,"Ġmoi":7903,"ĠØ±ÙĩØ¬":7904,"ĠÙĪØ¹ÙĦÙĬÙĥÙħ":7905,"ĠØ§Ø³Ø¨ÙĪØ¹":7906,"ĠØ·Ø¨ÙĬØ¹ÙĬØ©":7907,"ÙĪÙĨÙĪØ¨ÙĬÙĦ":7908,"ĠØ£ÙĦÙħØ§ÙĨÙĬØ§":7909,"Djawed":7910,"oin":7911,"Ø§ÙĦØ¥":7912,"Ø±ÙĨÙĬ":7913,"ĠØ§ÙĦØ§ÙĦ":7914,"ĠØ§ÙĦÙĦÙģ":7915,"ÙĥØ±ÙĪ":7916,"ØªÙĩØ¯":7917,"ØªØµÙĪÙĬØ±":7918,"ĠÙħÙĥÙĦ":7919,"ĠÙħÙĪÙĤØ¹":7920,"Ø¹ÙĬØ´":7921,"ÙĤÙĪØ¨":7922,"ĠØªØ±Ø¨ÙĬ":7923,"ĠØªØ¯Ø¹":7924,"ĠÙĦØ±Ø§Ùĩ":7925,"Ø§Ø±ÙĨ":7926,"ØµÙĦØª":7927,"ĠØ´Ø§ÙĬ":7928,"ĠØ®Ø§Ùģ":7929,"ĠØ³ÙĥØ±":7930,"Ø§Ø³ÙĬÙĪ":7931,"ØŃÙħÙĦ":7932,"ĠØ¨Ø§ÙĦÙĥÙħ":7933,"ÙģÙĬØ´":7934,"ĠØ§ÙĦØŃØ³ÙĨ":7935,"ĠØ·Ùģ":7936,"ĠØ·Ø¨ÙĤ":7937,"ĠØ§Ø®ÙĪÙĬ":7938,"ĠØ§Ø®ØªØ±":7939,"ĠØ§ÙĦÙĤÙĨ":7940,"ĠØ§ÙĦØ¨Ø±Ø¨":7941,"ĠÙħØªÙħÙĬØ²":7942,"ĠØ§ÙĦÙĥØ¨Ø±Ùī":7943,"Ø¬Ø¨Ø¯":7944,"ĠÙĬØªÙĤ":7945,"ĠÙĪÙħØ§ÙĬ":7946,"ĠÙĪÙħØ§Ø´ÙĬ":7947,"Ø³ÙĨÙĬÙĨ":7948,"Ø§ÙĦØŃØ±Ø§Ø´ÙĬ":7949,"Ø³ÙĦØ³ÙĦØ§Øª":7950,"ĠØ§ÙĦØ±Ø§Ø³":7951,"ĠÙĬØ´Ø¬Ø¹":7952,"ĠØ¯ÙĬØ§Ø±":7953,"ĠØ§ÙĥÙĪÙĨ":7954,"ĠØ§Ø±ÙĪØŃ":7955,"ĠÙĪØ¹Ø´":7956,"Ġdis":7957,"ĠØ§ÙģØªØ®Ø±":7958,"Ø¯ÙĪÙĨØ§":7959,"ĠÙĪØ±Ø¶Ø§":7960,"ĠØªÙĨØŃ":7961,"ĠØªÙĨÙĪØ¶":7962,"ĠØ§ÙĦØ§ÙĪØ±":7963,"ĠÙĨØŃØ¨ÙĪÙĥÙħ":7964,"ÙĪÙĨØ§Ùģ":7965,"ÙĩÙĦÙĪÙĦ":7966,"ĠØ¨ÙĬÙĨØ§ØªÙĩÙħ":7967,"ĠÙħÙĥÙĨØªØ´":7968,"ĠØ¯Ø±ÙĩÙħ":7969,"ĠÙĪØ²Ø§Ø¯":7970,"ĠÙĤÙĦØ¨ÙĪ":7971,"ĠÙħØ§Ø¹ÙĦÙĬØ´":7972,"Ø·ÙĪØ·Ø©":7973,"ĠØ§ÙĩØ¯Ø±":7974,"ĠÙĦØ£ÙĨÙĬ":7975,"ĠÙĨÙģÙĪØª":7976,"ĠØ§ÙĦÙħØªØ¹Ø©":7977,"ĠÙĨØ¯ÙĪØ±":7978,"ĠÙĨÙĩØ¨Ø·":7979,"ĠØ¨Ø§ÙĥÙĬØ§":7980,"ĠÙĦØ¯ÙĬÙĨØ§":7981,"ĠØ§ÙĦØ±ØŃÙĦØ§Øª":7982,"ĠØ§ÙĦØ£Ø®ÙĦØ§ÙĤ":7983,"ĠÙĦØ¹Ø¨Øª":7984,"ĠÙĬØ§ÙĥÙĦÙĪ":7985,"ĠØ§ØŃØ¨ÙĥÙħ":7986,"ĠÙĬØ¹Ø·ÙĬÙĩ":7987,"ĠÙĪÙĬØ¬Ø¹ÙĦÙĪ":7988,"ĠÙĦÙĪÙĦØ§Ø¯":7989,"ĠÙĬÙĩØ¯ÙĬÙĩÙħ":7990,"Ġexp":7991,"ĠÙĬØ§Ø¬Ø¯Ùĥ":7992,"ĠÙĦØŃÙĤÙĨØ§":7993,"ĠØ§ÙĦØ¨ØŃØ«":7994,"ĠÙĪØ¬Ø²Ø§ÙĥÙħ":7995,"ĠØ§ÙĦØªØ¹Ø¨ÙĬØ±":7996,"ĠÙĪØ§ØºÙģØ±":7997,"ĠØ§ÙĦØªÙĥÙĨÙĪÙĦÙĪØ¬ÙĬØ§":7998,"eur":7999,"zak":8000,"ÙĨÙĩØ§Ø±":8001,"ÙħØ§ÙģÙĩÙħ":8002,"Ø±ØŃØª":8003,"ĠØ§ÙĦØ§ØŃØ¯":8004,"ØªØª":8005,"Ø¨ØºÙĬ":8006,"ĠÙĪÙĦÙī":8007,"Ø¯ÙĪØ±":8008,"ĠÙħØ³Ø¨":8009,"Ø¹ÙĪØ§":8010,"ÙģØ§Ø¹":8011,"ÙĤØ§ÙħØ©":8012,"Ø³ÙĬØ©":8013,"ĠØ¨ÙĪØ¯":8014,"ĠØ¨ÙĥÙĬ":8015,"ĠØ¨Ø´Ø±":8016,"ĠÙģØ¨":8017,"Ø§ÙĨÙĬÙĨ":8018,"ĠÙĦØŃØ¨":8019,"Ø¬ÙĪÙĨ":8020,"Ø²Ùĥ":8021,"Ø§ÙħØ±":8022,"ĠØ¬ÙĪÙĨ":8023,"ĠÙĤØ¯ÙĬÙħØ©":8024,"ĠØ¯ÙħØª":8025,"ĠÙĪØ§ÙĦØ±":8026,"Ø§Ø³Ø¹":8027,"ĠØ§ÙĦØ¹Ø§Ø±":8028,"ĠØ§ÙĦØ¹ÙĬØ¨":8029,"ĠØ§ÙĦØ¬ÙĬØ±Ø§ÙĨ":8030,"Ø³ÙĦØ·Ø§ÙĨ":8031,"Ø§ÙĪÙĪ":8032,"ĠØ¨Ø§ÙĦØ¥ÙĨ":8033,"ĠØºØ§Ø¨Ø©":8034,"ÙģÙĬØ²ÙĬÙĪÙĨ":8035,"ØªÙĬÙĦÙĬ":8036,"Ø¸ÙĦÙħ":8037,"ĠØ¥Ø¬":8038,"ĠØ¥Ø¨Ø¯Ø§Ø¹":8039,"ĠØ¨ÙĦØ¹ÙĬØ¯":8040,"Ø±ÙĥØ¨":8041,"ĠØªØŃÙĬ":8042,"ĠØ§ÙĦÙģØ§Ø³":8043,"ĠÙħØ´Ø±ÙĬØ©":8044,"ĠØ§ÙĦÙĥØ°Ø¨":8045,"ĠØ§ÙĦØ£ÙħÙĦ":8046,"ĠØµØŃÙĬØª":8047,"ÙĪÙĦÙĬØª":8048,"ÙĪØ´ÙĬ":8049,"ĠÙĤØ§ÙĦÙĪÙĦÙĬ":8050,"ĠÙĪØ¬ÙħØ§ÙĦ":8051,"ĠØªØ¨Ø³Ø©":8052,"ĠØ§ÙĦØ²Ø¹":8053,"Ġmme":8054,"Ġst":8055,"Ġfin":8056,"ĠØ³Ø¨ØŃØ§ÙĨÙĪ":8057,"ĠØ®Ø·ÙĪØ©":8058,"ĠÙĬØ·ÙĦÙĤ":8059,"ĠØ§ÙĦÙħÙĨØ§Ø³Ø¨":8060,"ĠÙĨØ¬ØŃØª":8061,"ĠØ®Ø±Ø¬ÙĨØ§":8062,"ĠÙħÙĩØ§Ø¨ÙĦ":8063,"ĠØ¬ÙĨØ§Øª":8064,"ĠØ¸Ùĩ":8065,"ĠØŃÙĥÙĬÙħ":8066,"ĠÙĨØ¸ÙĨ":8067,"ĠØ§ÙĦÙħØ³ØªØ«ÙħØ±":8068,"ĠÙģÙĦÙĪØº":8069,"ĠØ¨Ø¹ÙĬØ¯Ø§":8070,"ĠØ´Ø±Ø·":8071,"ĠÙĪÙĬØ³ÙĥÙĨ":8072,"ĠÙĥÙĦÙħØ§ØªÙĥ":8073,"Ø¨Ø³ÙĥØ±Ø©":8074,"ĠÙħÙħÙĦÙĥØ©":8075,"ĠØªÙĨØªÙĩÙĬ":8076,"ĠØ§ÙĦØ¬Ø§ÙħØ¹Ø©":8077,"ÙĬØ§Ø±ÙĬØª":8078,"ĠÙĤØ§ØªÙĦÙĬ":8079,"Ġbonne":8080,"ĠØ§ØŃØ³ÙĨØª":8081,"ÙĨÙĪØ±ÙħØ§ÙĦ":8082,"ĠJ":8083,"ÙĦÙħØ§":8084,"ÙĬØ§ÙĨ":8085,"ÙĬØªÙĪ":8086,"ĠÙī":8087,"ÙĪØ§Ùħ":8088,"Ø§ÙĦØº":8089,"ÙħÙĪØ§":8090,"ĠØ§ÙĦØ§Ø«":8091,"ĠÙĪÙħÙĦ":8092,"Ø¯ÙĨÙĬ":8093,"ĠÙĬØªÙĬ":8094,"ĠÙĬØ¯ÙĬÙĥ":8095,"ĠÙĦØ³Ø§ÙĨ":8096,"ĠØ¹Ø§ÙħÙĦ":8097,"ĠÙĥÙģØ±":8098,"Ø²ÙĬØª":8099,"Ø²ÙĨØ³":8100,"Ø²Ø§ÙĤ":8101,"Ø·ØŃØ©":8102,"ĠÙħÙĨØ²":8103,"ĠØ®Ø¨Ø±Ø©":8104,"ĠØŃØ·ÙĪ":8105,"ĠÙĤØ±Ø¨":8106,"Ø¯ÙĬØ§ÙĨ":8107,"ĠØ§ÙĦÙħØ±ÙĬ":8108,"ĠØ§ÙĦÙħØ§ÙĨÙĬØ§":8109,"ĠØ§ÙĦÙħÙĨÙĪØ§ÙĦ":8110,"ĠØ³ØªØ±":8111,"ĠÙĪØ§ÙĦØªÙĪÙģÙĬÙĤ":8112,"Ø§Ø³ÙħØ¹":8113,"ĠØ§ÙĦØ¬Ùĩ":8114,"ĠØºØ¯ÙĪØ§":8115,"ĠØ®ÙĪØ¨ÙĬØ¨":8116,"Ø³ØªØ§ÙĨÙĬ":8117,"ÙĪÙħØ´":8118,"ÙĤÙĬØ§Ùħ":8119,"ĠØ²ÙĩØ±Ø©":8120,"Ø¨ÙĦÙĨØ§":8121,"ĠØ§ÙĦØªÙĥ":8122,"ĠØ§ÙĦØªØ§ÙĦÙĬ":8123,"ĠÙĦÙĦØ®ÙĬØ±":8124,"Ø§Ø®ÙĦ":8125,"ÙĪÙĥØ´":8126,"ĠØ§ÙĦØ£Ø¹":8127,"ĠØ§ÙĨØªÙĤØ§Ø¯":8128,"ĠØµØŃÙĬØŃØ©":8129,"ĠØ§Ø§Ùĩ":8130,"ĠØ§ÙĦØ®Ø¨Ø²":8131,"ĠØ§ÙħØ©":8132,"ĠÙĪÙĨÙĤÙĪÙĦ":8133,"ĠØ¹ÙĦØ§ÙħØ©":8134,"ÙĥØ§ÙĨØª":8135,"Ú¨ÙĪ":8136,"ĠÙħØ³Ø¬Ø¯":8137,"ĠØ¢Ùĩ":8138,"ĠØ§Ø¹ÙĬØ´":8139,"ĠØªÙĪØ§ØµÙĦ":8140,"ÙĬØ¹Ø¬Ø¨ÙĨÙĬ":8141,"ĠØ§ÙĦØ¬Ø²ÙĬØ±Ø©":8142,"ĠÙĬÙĨØµØ±":8143,"ĠÙĬÙĨØŃÙĬ":8144,"ĠÙĨÙĤÙĪÙĦÙĥÙħ":8145,"ĠØªØµÙĨØ¹":8146,"ĠÙĨØ®Ø§Ùģ":8147,"ĠØ£ÙħØ§Ùħ":8148,"ĠÙħØ§ÙĥÙĦØ©":8149,"ĠÙĪÙĤÙĦØª":8150,"ĠÙħØ§ÙĨÙĤØ¯Ø±Ø´":8151,"ĠÙħØºØ±Ø¨":8152,"ĠØ±Ø§ÙĬÙĬ":8153,"ĠØ¨Ø¹Ø¶ÙĨØ§":8154,"ill":8155,"ÙĨØ¯ÙĬÙĦ":8156,"ĠÙħØ´Ø§Ø¡Ø§ÙĦÙĦÙĩ":8157,"ĠØ¯Ø§ÙĬØ±Ø©":8158,"ĠØ·ÙĪÙĦÙĤØ©":8159,"ĠÙħÙĩÙħÙĩ":8160,"ĠØµØ±Ø§ØŃÙĩ":8161,"ĠØ§ÙĦØ¬Ø²Ø§ÙĬØ±ÙĬÙĬÙĨ":8162,"iment":8163,"ĠØ«ÙĤØ§Ùģ":8164,"ĠÙĤØ¨Ø§ÙĬÙĦÙĬ":8165,"ĠÙĥÙĦÙħØ§ØªÙĩ":8166,"ĠØ§ÙĦØ§Ø¬ØªÙħØ§Ø¹ÙĬ":8167,"ĠÙĨÙĨØµØŃÙĥ":8168,"ÙĥØªÙĪØ±":8169,"ØªØµØ§Ø±":8170,"ÙĬØ§Ø±Ø¨ÙĬ":8171,"ĠØ§ÙĦØªØ³ÙĪÙĬÙĤ":8172,"ĠØ¨ÙģÙģ":8173,"ĠØ³Ø§Ø¹Ø§Øª":8174,"ĠÙĦÙģØ±ÙĨØ³Ø§":8175,"Ġfois":8176,"ĠØ§ÙĦØ®ÙĦÙĬØ¬":8177,"Ø£Ø³ØªØºÙģØ±":8178,"nÃ©":8179,"ĠØ§ØªÙĥ":8180,"Ø§Ø§Ùħ":8181,"ÙĬØ§Ùĥ":8182,"ØªÙĦÙĪ":8183,"ØªØ¹Ø±Ùģ":8184,"Ø¨Ø±ÙĪ":8185,"Ø¯Ø¹ÙĪ":8186,"Ø¹ÙĬØ¨":8187,"Ø¹ÙħØ±":8188,"ØŃØ§ÙĪÙĦ":8189,"ĠÙĬØ§ØŃ":8190,"ĠÙģÙħÙĬ":8191,"ĠÙģÙĤØ§ÙĦ":8192,"ĠØªÙĩÙħ":8193,"ĠØªÙģØ³":8194,"ĠÙĦØ¯ÙĬÙĥ":8195,"Ø´ÙĨ":8196,"Ø¬Ø§ÙħÙĬ":8197,"ĠÙĨÙĬØ©":8198,"ĠÙĨØ®ÙĦ":8199,"ĠÙĥØ±ÙĪ":8200,"ØµÙī":8201,"ĠÙħÙĨÙĤØ¯Ø±Ø´":8202,"Ø§ØªØ¨":8203,"ĠØ®ÙĦÙĬÙĩ":8204,"ĠØ¬ÙĩÙĦ":8205,"ĠØŃÙĬØ§":8206,"ÙĪÙĨÙĬØ´":8207,"Ø§Ø¹Ø·":8208,"ÙĪØ±Ø¨ÙĬ":8209,"Ø§Ø¦Ø©":8210,"ĠÙĪØ§ÙĦØ§ÙĨ":8211,"ĠÙħØ¹ÙĬÙĨ":8212,"ĠÙħØ¹ÙĦÙĪÙħÙĩ":8213,"ĠÙħØ§ÙĤØ¯Ø±Ø´":8214,"Ø§ÙĨÙĬÙĥ":8215,"ĠØ§ÙĦÙĨØ§Ø¬ØŃ":8216,"ĠØ·ÙĦÙĤ":8217,"ĠÙĬØ§Ø§ÙĦÙĦÙĩ":8218,"ĠØ²Ø§ÙĬØ¯":8219,"ĠØ¨Ø²Ùģ":8220,"ĠØ§ÙĦÙģØ¬Ø±":8221,"ĠÙĬØŃÙģØ¯Ùĥ":8222,"ĠÙĪÙĦÙĥÙħ":8223,"ĠØ§ÙĦØ£Ø·ÙģØ§ÙĦ":8224,"ĠØµØŃØ±":8225,"ĠØ§ÙĦØ®Ø¶":8226,"ÙĤØªÙĩ":8227,"ÙĤØªÙĩØ§":8228,"Ø¶ÙĦØ§Øª":8229,"Ø³Ø¨Øª":8230,"Ø¨Ø¹Ùĥ":8231,"ĠÙĦÙħÙĪØ±Ø§ÙĦ":8232,"Ú¨ÙĦ":8233,"ĠÙĪØ¹ÙĬØ¯":8234,"ĠØªÙĤÙĦÙĤ":8235,"ĠØ¨ÙĬØ¨ÙĬ":8236,"ĠØªØ®ØµØµ":8237,"ĠÙĪØ´ØŃØ§ÙĦ":8238,"ĠØ°ÙĥÙĬ":8239,"ĠØ¨Ø±Ø§ÙĨÙĬ":8240,"ĠÙħØ³Ø¹ÙĪØ¯":8241,"ĠØ§Ø¹ÙĦÙī":8242,"ĠØªÙĨÙģØ¹":8243,"ĠÙĬÙĤÙĪÙĦÙĪÙĨ":8244,"ĠÙĬØ¯Ø®ÙĦÙĪ":8245,"ĠÙĬÙĤÙĦ":8246,"ĠØ¯Ø§Ø±ÙĪØ§":8247,"ĠØªÙħÙĪØ±":8248,"ĠÙĤÙĦØªÙĦÙĩ":8249,"Ø§ØºÙĬ":8250,"ĠØ§ÙĦÙĩØ§Ø¯":8251,"ĠØ§ØµØ¯ÙĤØ§Ø¡":8252,"ØŃØ´Ùħ":8253,"ĠÙħØ®Ø·":8254,"ĠÙĬÙĩØ¨ÙĦ":8255,"ĠÙĬÙĩØ¶Ø±":8256,"ĠÙĬÙĪØ§ÙģÙĤÙĨÙĬ":8257,"ĠØ®ÙĦØ§ØµØª":8258,"ĠØ¬Ø§ÙĬÙĬÙĨ":8259,"ĠÙĨØªÙĪØ§ØµÙĦ":8260,"ĠÙĬÙģÙĥØ±":8261,"ĠØ²ÙĬØ§Ø¯Ø©":8262,"ĠÙĦØ£ÙħØ±ÙĬÙĥØ§":8263,"ĠÙĬÙħØ§Ùĩ":8264,"ĠÙĥÙĨØªÙĪ":8265,"ĠØªØ·Ø¨ÙĬÙĤ":8266,"ĠÙĪÙĨØªÙģØ±Ø¬":8267,"ĠØªÙĪØŃØ´ØªÙĥ":8268,"Ø¬ÙĦÙĬØ²ÙĬ":8269,"ĠØ¨ÙĤÙĪØ©":8270,"ĠØ¨ØºØ§":8271,"ĠÙĩØ§Ø§ÙĬÙĦ":8272,"ĠÙĪØ§ÙĤÙĬÙĦ":8273,"ĠÙĦØ§ÙĬÙģ":8274,"ĠÙĥØ±Ø´ÙĬ":8275,"ĠÙĥØ§ÙħÙĦÙĬÙĨ":8276,"ĠØŃÙĦÙħÙĥ":8277,"ĠÙĬØ¨Ø§ÙĨÙĪ":8278,"Ø¨Ø§ÙĤÙĬ":8279,"ĠØ§ÙĦØŃÙħØ§Ùħ":8280,"ĠØ§Ø¶Ø±Ø¨":8281,"ĠÙĪØ§ØµÙĦÙĪØ§":8282,"ĠÙĨØ²ÙĬØ¯ÙĪ":8283,"ĠÙħØ¹ÙĨØ¯ÙĪØ´":8284,"ÙģÙĪØ±ÙĨÙĬØ§":8285,"ĠÙĨØ§Ø¬ØŃÙĬÙĨ":8286,"ĠÙħØ¬ÙĩÙĪØ¯Ø§ØªÙĥ":8287,"ĠØªØ¹Ø·ÙĬÙĨÙĬ":8288,"ĠÙĦÙĩØ¬ØªÙĨØ§":8289,"ĠÙĤØ¶ÙĬØ©":8290,"ĠÙģØ§ÙĦØ¹Ø§ÙĦÙħ":8291,"ĠØ§ÙĦÙĨÙĤØ§Ø·":8292,"ĠÙĨÙĨØ³Ùī":8293,"ĠÙĨØµØŃØŃ":8294,"ÙħÙĦØ§ØŃØ¸Ø©":8295,"ĠÙħÙģÙĤÙĪØ¯Ø©":8296,"ĠÙħØ®ØªÙĦÙģØ©":8297,"ri":8298,"Ø§ÙĦØ¨Ø±ÙĨØ§ÙħØ¬":8299,"ÙĩÙĪØ±Ø©":8300,"ĠÙĪØ¨ÙĬ":8301,"ĠÙĪØ§ÙĪÙĦ":8302,"ĠÙħØ²ÙĬ":8303,"ĠÙħÙħÙĬØ²Ø©":8304,"ÙģÙĪØ§":8305,"Ø³Ø§Ø¨":8306,"Ø³Ø§Ø³":8307,"ĠÙĬØ§Øµ":8308,"ĠÙĬØªÙĥ":8309,"ĠØ¨ÙĬØ±":8310,"ĠÙĦÙĪÙĦØ§":8311,"ĠØ¹Ø§Ø¬Ø¨":8312,"ĠÙĨÙģØªØ®Ø±":8313,"ĠÙĩØ±Ø¨":8314,"ØµØ§Ø±":8315,"ĠØ´Ø§Ø±":8316,"ĠØŃØ§Ùģ":8317,"ĠØŃØ±ÙĤ":8318,"ĠØ§ÙĦÙħØ±Øª":8319,"ĠØ³ÙĬØ¨":8320,"ĠØ³Ø§ÙĦÙħ":8321,"ÙĪÙĦÙĥÙĨ":8322,"ØºØ§":8323,"ĠÙĪØ§ÙĦÙģØ±":8324,"ÙħØ§Ø§ÙĦ":8325,"Ø±ÙĪØ©":8326,"Ø±ÙĪØŃÙĥ":8327,"ĠØºØ²Ø©":8328,"ĠØ¥ÙĦ":8329,"ĠØªØ¹ØªØ¨Ø±":8330,"ĠÙĬØŃØ±":8331,"ĠØ²ÙĥØ±ÙĬ":8332,"ĠØ§ÙĦØ´Ø§Ø´Ø©":8333,"ĠÙĪÙĦÙĨ":8334,"ĠØ§ÙĦØ³ÙĪØ±ÙĬ":8335,"ĠØ§ÙĦØ®Ø§Øª":8336,"ĠÙĪØªØ´ÙĪÙģ":8337,"Ø§ÙĦÙĬØªÙĬ":8338,"ĠØ§ÙĬÙħØ§ÙĨ":8339,"ĠØ§Ø¨Ø¯Ø¹":8340,"Ġcha":8341,"ĠÙĦÙĩØ§Ø¯":8342,"ĠÙĪØ¬ÙĩØ©":8343,"ĠÙĪØ¨Ø§ÙĦØª":8344,"ĠÙĨØªÙģØ±Ø¬Ùĥ":8345,"ĠØªÙĨÙĤØµ":8346,"ĠØ§ÙĦØ²Ø¨ÙĦ":8347,"ĠØ§ØªÙĪ":8348,"ĠÙĨÙģØ³ÙĬØ©":8349,"ĠØ¨ÙĬÙĨÙĩÙħ":8350,"ĠÙĬØ³ØªØ¹ÙħÙĦ":8351,"ĠØ§Ø´ÙģÙĬ":8352,"ĠÙĬØŃØ¨ÙĪØ§":8353,"ĠØ®Ø·ÙĬØ±":8354,"ĠÙĬØ·ÙĬØ¨":8355,"ĠÙĨØ³ØªÙĨØªØ¬":8356,"ĠÙĬÙĩØ¨Ø·":8357,"ĠØ´ÙĪÙģÙĪØ§":8358,"ĠÙĬØµØ±Ø§":8359,"ĠÙĬØµØ¨ØŃ":8360,"ĠØ¹Ø¨Ø¯Ø§ÙĦØ¨Ø§Ø³Ø·":8361,"ĠØ±ØŃÙĬÙħ":8362,"ĠÙģÙĪØ±Ø±":8363,"ĠØŃÙĬØ§ØªÙĨØ§":8364,"ĠÙĪØµØŃØ©":8365,"ĠØ¬Ø§ÙĬØŃ":8366,"ĠØ§ÙĦØ¨ÙĦØ§ØµØ©":8367,"ĠØ¹ÙĬÙĨÙĬÙĥ":8368,"ĠÙħØ§Ø¯Ø§Ø±":8369,"Ø±Ø³Ø§ÙĦØ©":8370,"ĠØ§ÙĦÙģØ±ØµØ©":8371,"ĠØ¨Ø£Ø¨ÙĪÙĨÙĬ":8372,"ĠÙĦØ¯Ø²Ø§ÙĬØ±":8373,"ĠÙĪØ§Ø§ØµÙĦ":8374,"ĠØ¹Ø§Ø¯ÙĬØ©":8375,"ĠØ®Ø³Ø±Øª":8376,"ĠÙģÙĦÙĪÙĤØ§Øª":8377,"ĠÙĪØ§Ø¬ÙħÙĦ":8378,"ada":8379,"ĠØ§ÙĦÙģØ¯ÙĬÙĪÙĩØ§Øª":8380,"ĠØ§ÙĦØŃÙĥØ§ÙĬÙĩ":8381,"ĠÙĬØ¬Ø¹ÙĦÙĥ":8382,"ĠØ±Ø§Ø¨Ø·":8383,"ĠØ§ÙĦØ¬Ø§ÙħØ¹":8384,"ĠÙĨØ§ÙĤØµØ©":8385,"ĠÙħÙģÙĬÙĩØ§Ø´":8386,"ĠÙĪÙĨØ¹Ø§ÙĪØ¯":8387,"ike":8388,"ĠÙĬØ¹Ø·ÙĬÙĩÙħ":8389,"Ø¸ÙĬÙħØ©":8390,"ĠØ§ÙĦØ¨Ø³Ø§Ø·Ø©":8391,"Ġcarto":8392,"Ø¹ÙĦØ§Ø¨Ø§ÙĦÙĬ":8393,"ĠØ¨Ø§ÙħØªÙĬØ§Ø²":8394,"ĠÙĪØ±Ø²ÙĤØ§":8395,"zaky":8396,"Ġcartoons":8397,"vo":8398,"ÙĦØ§Ø¬":8399,"Ø§ÙĦÙĬÙĨ":8400,"ĠØ§ÙĦÙĪØ¬Ùĩ":8401,"ÙĩÙĪÙĦ":8402,"ĠÙĪØ²ÙĪØ¬":8403,"ĠÙħØ³ÙĦÙħØ©":8404,"Ø¹Ø§ÙĪØ¯":8405,"ÙĤØ¶":8406,"ĠØ¨ÙĤÙī":8407,"ĠÙģÙĥÙĦ":8408,"ĠØªÙĥÙħÙĦÙĪ":8409,"ĠÙĦÙħÙĪ":8410,"ĠÙĦØºÙĬØ±":8411,"ĠÙĦØ®Ø±ÙĬÙĨ":8412,"ĠÙĨØ±Ùģ":8413,"ĠÙĨÙĤØ¯Ùħ":8414,"Ø®Ø¯ÙħØ©":8415,"ØµØ§ØŃØ¨ÙĬ":8416,"ĠÙħÙĨØ¹":8417,"ĠØ´ÙħØ³":8418,"ĠØ´Ø¨Ø¹Øª":8419,"ĠØ£ØµØŃØ§Ø¨":8420,"ĠØ§ÙĨØ³Øª":8421,"ĠØ¯Ø±Ø§ÙħØ§":8422,"Ø§ÙĥØ¯":8423,"Ø§ÙĬØª":8424,"ĠØµÙģØ±":8425,"Ø£ÙĪ":8426,"Ø£ÙĨÙĬ":8427,"ØªÙĬÙĩØ§":8428,"ĠØªØ¹ÙĦÙĤ":8429,"ĠÙĬØŃØª":8430,"ĠÙĨØªØ¹Ø±Ùģ":8431,"Ø±ÙĥÙĬ":8432,"Ø§ØµÙĩ":8433,"ĠØ§Ø®Ø±Ø¬":8434,"ØŃØ¨ÙĪ":8435,"ĠÙħØ´ÙĬØª":8436,"ĠØ§ÙĦØ£Ø®Ø±Ùī":8437,"Ø§ÙĦÙħØ´ÙĥÙĦ":8438,"ĠØ§ÙĦØ³ÙĥØ±":8439,"ĠØ§ØŃÙĪØ§ÙĦ":8440,"ĠØ§ÙħÙĦ":8441,"ĠÙĬØªØŃØ¯Ø«":8442,"ĠÙħØŃØ¨ÙĬ":8443,"ØªØŃÙĬØ§ØªÙĨØ§":8444,"ĠÙħØ±Ø³ÙĬ":8445,"ĠÙĪÙĩØ°Ø§Ùĥ":8446,"ÙĪÙĩØ±Ø§ÙĨ":8447,"ĠÙĥÙĨØªÙħ":8448,"ĠÙĪØ´ÙĥÙĪÙĨ":8449,"ĠØ³ÙĦØ§ÙĦ":8450,"ĠØ°ÙĥØ±Ùĩ":8451,"Ġtou":8452,"ĠÙĦØ¹ÙĬÙĨ":8453,"ĠÙĨØ³Ø£ÙĦ":8454,"ĠÙĬØ¯Ùĥ":8455,"ĠØªØ¬ÙħØ¹":8456,"ĠÙĨÙĤÙĦ":8457,"ĠÙħØ²Ø§Ø¨":8458,"ĠØ§ØªÙĤ":8459,"ÙĦØ§ÙħÙĬ":8460,"ĠØ§Ø¯Ø¹Ùħ":8461,"ĠÙĨØ®Ø¯ÙħÙĪ":8462,"ĠÙĤØ§Ø¹Ø¯Ø©":8463,"Ø¹ÙĬØ·":8464,"ĠØ¯Ø±ÙĪÙĨ":8465,"ĠØ¹ÙĤØ¨Ø©":8466,"ĠØ¹ÙħÙĦØª":8467,"Ø±Ø§ÙĩÙĬ":8468,"ĠØªØ²ÙĬØ¯ÙĪ":8469,"ĠØ§ÙĦÙħØµØ·ÙģÙī":8470,"amel":8471,"ĠØªØºÙĨÙĬ":8472,"ĠØ§Ø«Ø±":8473,"ĠÙĪØªÙĪÙĦÙĬ":8474,"ĠØ§ÙĦÙĤØ¨Ø§Ø¦ÙĦ":8475,"ĠØªÙĦØ§ÙĤÙĬØª":8476,"ĠØ£ØºÙĦØ¨":8477,"ĠØ§ÙĦØ¯Ø§Ø®ÙĦ":8478,"ĠØ¨Ø±ØŃÙħØªÙĥ":8479,"ĠØ§Ø³ØªÙģØ¯Øª":8480,"ĠÙĬØ§Ø³ÙĬÙĨ":8481,"ï·º":8482,"ĠÙĬÙħØ³ØŃ":8483,"ag":8484,"op":8485,"ÙĬØ§Ø¯":8486,"ÙĨÙĪØ§":8487,"ÙĨØ¯Ø§":8488,"ÙĪØ¹ÙĦØ§Ùĩ":8489,"Ø±ÙĬØ±":8490,"ĠØ§ÙĦØ·ÙĬ":8491,"ĠØ§ÙĦØ§ØŃØ³ÙĨ":8492,"Ø¯Ø§Ø±Ø©":8493,"ĠÙħÙħØ«ÙĦØ©":8494,"ØŃØ¯Ø©":8495,"ĠÙĬØ²ÙĪØ±":8496,"ĠÙģÙĨÙĬ":8497,"ĠÙĦØ±ÙħØ¶Ø§ÙĨ":8498,"Ø´ÙĬØ©":8499,"Ø¬Ø¯Ø©":8500,"Ø¬Ø±Ùĩ":8501,"ĠÙĨØ±Ùī":8502,"ÙĦÙĬØ§Øª":8503,"ĠØ¬Ø§Ø¦":8504,"ĠØ¬Ø§ÙĨØ¨":8505,"ĠØŃÙģ":8506,"ĠÙĤØ±ÙĬØ©":8507,"ĠØ§ÙĦÙħØ§Ø±ÙĬÙĥØ§ÙĨ":8508,"ĠØ³ÙĦÙĥ":8509,"ĠØ³Ø§Ø±Ø©":8510,"Ø§ÙĬÙĬ":8511,"Ø§Ø¹Ùĥ":8512,"ĠÙĪØ§ÙĦØ§ØŃ":8513,"ÙĦÙĪÙĬ":8514,"ĠØ±Ø¨ÙĬØ¹":8515,"ĠØºØ§ÙĨ":8516,"ĠØºØ¯Ø§":8517,"ØªÙĬØ¬Ø©":8518,"ÙĥØ±ÙĥÙħ":8519,"ĠØ·Ø§Ø±ÙĤ":8520,"ĠØ²ÙĬØ±":8521,"ĠØ²ÙĩØ±":8522,"ĠØ§ÙĦÙģÙĦÙĪÚ¨":8523,"ĠÙħØ´Ø§Ø¹Ø±":8524,"ĠØ§ÙĦØ¨ÙĪØ§":8525,"ĠØ§ÙĦØ®Ø§Ø·Ø±":8526,"ÙĤØªØ±ØŃ":8527,"ĠÙĨØ¹Ø·ÙĬ":8528,"ĠÙħØŃØ§ÙĬÙĨÙĥ":8529,"ĠØ§ÙĦØ±ÙĤÙħ":8530,"ĠØ«Ø§ÙĨÙĬØ§":8531,"ĠÙĪÙĩØ±ÙĨ":8532,"ĠØ£Ø®ÙĪÙĥÙħ":8533,"ĠØ°Ø±":8534,"Ø§Ø¶ØŃÙĥ":8535,"ĠÙĬØ¯ÙĬØ±ÙĩØ§":8536,"ane":8537,"ĠÙĦØ¹ØªØ±ÙĪØ³":8538,"ĠØªØ¬Ø§Ø±Ø¨":8539,"ĠÙĨÙģØ³ÙĪ":8540,"Ø¯Ø±ÙĪÙĨ":8541,"ĠÙĥÙĪÙĨÙĥ":8542,"ĠÙħØ§ÙĨØ¹Ø±Ùģ":8543,"ĠÙħÙĤÙĦÙĤ":8544,"ĠÙĪØ§ÙĦÙħØ³ÙĦÙħ":8545,"ĠÙĤØ±Ø§Ø±":8546,"ĠÙĤØ±Ø±Øª":8547,"ĠÙĤÙĦØ¨Ùĩ":8548,"ĠØªØ±ÙĪÙĨ":8549,"ĠØ§ÙĦØ¶ÙĪØ¡":8550,"Ø³ÙĥØ±ÙĬØ©":8551,"ĠØ§ÙĦØ³ÙĦØ§ÙħØ©":8552,"ĠØ·ÙĦØ¹ÙĪ":8553,"ĠØ´Ø¹ÙĪØ¨":8554,"ĠØ£ØµØ¯ÙĤ":8555,"ĠÙĨÙĥØªØ´Ùģ":8556,"Ġpass":8557,"Ø§ÙĦØŃÙħØ¯ÙĦÙĦÙĩ":8558,"ĠØ³ÙĥØ§ØªØ´":8559,"ĠÙĨØ¶ØŃÙĥÙĪ":8560,"ĠÙĥØ´ÙħÙĬØ±":8561,"ĠØ§ÙĦÙĨØ³Ø§":8562,"Ø§ÙĨØ³Ø§":8563,"ĠØ±ÙĥØ²":8564,"ĠØ´ÙĬØ®ÙĨØ§":8565,"ĠØºÙĦØ·Øª":8566,"ĠØ¹Ø±Ø´Ùĩ":8567,"ĠØ§ÙĦÙĥØ¨ÙĬØ±Ø©":8568,"Ã¨re":8569,"Ø«ÙĬÙĤÙĩ":8570,"ĠØ£Ø°Ø±Ø¨ÙĬØ¬Ø§ÙĨ":8571,"ĠÙħÙĪÙģÙĤØ©":8572,"ÙĨÙĬÙĨØ©":8573,"ÙħÙĤ":8574,"ÙħØ§Ø¹Ø©":8575,"ØªØ§Ø¨":8576,"ĠÙĪØ¨Ø±":8577,"ĠÙĪØ¯Ø¹":8578,"ØŃÙĥÙħ":8579,"Ø³Ùī":8580,"ĠØ¨ÙĨØ©":8581,"ĠØ¨ÙĤÙĬØª":8582,"ĠÙģÙĪÙĦ":8583,"ĠØªØ±ÙĬØŃ":8584,"ĠÙĦÙħØ±":8585,"ĠÙĦÙĨØ¯":8586,"ĠÙĦØ§ÙĩÙĦ":8587,"Ø¬Ø§Ø¹Ø©":8588,"ĠÙĨØ·ÙĬØŃ":8589,"ĠÙĥÙĪØ±ÙĬØ§":8590,"ĠÙĥÙĪÙĦÙĬÙĨ":8591,"ĠØ±Ø´":8592,"Ø®ÙĦÙĩ":8593,"Ø®ÙĪØ±":8594,"Ø®ÙĦÙĥ":8595,"Ø®ÙĦÙĩØ§":8596,"Ø·Øª":8597,"ĠØ´Ùħ":8598,"ĠØ´Ø±ØŃ":8599,"ĠØ´ÙĩØ¯Ø§Ø¡":8600,"ĠØ¬ÙĩØ¯":8601,"ĠÙĤÙĪÙĦÙĨØ§":8602,"ĠØ£Ø´ÙĬØ§Ø¡":8603,"ĠØ¯ÙĬØ§":8604,"ĠØ¯Ø¨Ø±":8605,"ĠØ§ÙĦÙħØ§":8606,"ĠØ§ÙĦÙħÙĤØ¨ÙĦ":8607,"Ø§ÙĥØ±":8608,"ĠØ§ÙĦØ¹ÙĨØµ":8609,"Ø±ÙĪÙħ":8610,"ØªÙĪÙĥ":8611,"ØªÙĪÙĦÙĬ":8612,"ĠØ¨Ø§ÙĦØ³ÙĬ":8613,"ĠØ¥Ø°ÙĨ":8614,"ĠØ²Ùħ":8615,"Ø±ÙĥÙĩ":8616,"ĠØªØŃÙĦÙĬÙĦ":8617,"ĠØ¨Ø²Ø²Ø§Ùģ":8618,"ĠØ§Ø®ÙĪØ©":8619,"ĠØ§ÙĦÙģØ±ØŃ":8620,"ĠÙĦÙĦØº":8621,"ĠØ§ÙĨØªØ§Ø¬":8622,"ĠØ§ÙĦØ³ÙĥØ§ÙĨ":8623,"ĠØ§ÙĦØ®Ø±ÙĪØ¬":8624,"ĠÙĪÙħØ§Ø²":8625,"ĠÙĪÙĨÙĪØ±ÙĬ":8626,"ĠØ®ÙĬØ±Ø§Øª":8627,"ĠØ«Ø¨Øª":8628,"ĠÙģØ§ÙĦØ³":8629,"ĠÙģØ§ÙĦØ¨ÙĦØ§Ø¯":8630,"ĠØªØ®Ø¯ÙħÙĬ":8631,"ĠØŃØ§Ø¬Ø§Øª":8632,"Ø¯ÙĪÙĩØ§":8633,"Ø®Ø±Ø§Ø¬":8634,"ĠØ§ÙĦØ²Ø§":8635,"Ġmal":8636,"ĠÙĬØ¨Øº":8637,"ĠØªØ´Ø¬Ø¹":8638,"ĠØ§ÙĦÙħØ´Ø§ÙĩØ¯ÙĬÙĨ":8639,"ĠØªØµÙĬØ¨":8640,"Ġam":8641,"ĠØ¨ÙĩØ§Ø¯":8642,"ĠØªÙģÙĪ":8643,"ØªÙħØ¨Ø±":8644,"ard":8645,"ĠØ®Ø·Ø±Ùĩ":8646,"ĠØ§ÙĦÙħÙĪØ§Ø¶ÙĬØ¹":8647,"ĠÙĪØ®Ø±Ø¬":8648,"ĠÙħØ§Ø±ÙĬØ§":8649,"ĠÙĦØªÙħØ§":8650,"Ø¹ÙĬØ¯ÙĥÙħ":8651,"Ø·ÙĨØ¨ÙĪÙĦ":8652,"ĠØ¬ÙħØ§Ø¹Ùĩ":8653,"ĠØ§ÙĦØ§Ø¹ÙĦØ§Ùħ":8654,"ĠØ§ÙĦØªÙĪØ§Ø¶Ø¹":8655,"ĠÙĬØ±Ø²ÙĤÙĨÙĬ":8656,"ĠØ´Ø±ÙĥØ§Øª":8657,"ĠØªØ¨Ø¹Ø«":8658,"ĠØ³ÙĬØ±ÙĬÙĪ":8659,"ĠÙĬÙĤØ¯Ø±ÙĪØ§":8660,"ĠØµØ¯ÙģØ©":8661,"ĠØ®ÙģÙĬÙģØ©":8662,"ĠÙħÙĪØªØ§ÙĨØ§":8663,"ĠØ´Ø±ÙģØªÙĨØ§":8664,"ĠÙħØºØ§ÙħØ±Ø§Øª":8665,"ĠØ§ÙĦÙħÙĦØ§ÙĬÙĬÙĨ":8666,"ĠÙĪÙĨØ´Ø§ÙĦÙĦÙĩ":8667,"ÙĨØŃØ¨Ùĥ":8668,"ĠÙħØ§Ø¯ÙĬØ±Ø´":8669,"ĠØ¨Ø±ØŃÙħØªÙĩ":8670,"Ġjust":8671,"ĠØ±Ø®ÙĬØ³":8672,"ÙħØ§ÙģÙĩÙħØªØ´":8673,"mil":8674,"Ãª":8675,"ÙĥÙĬØªØ´":8676,"Ø¨ÙĪØ¹":8677,"ĠÙĪØ¸":8678,"ĠÙĪÙĤÙĬÙĦ":8679,"ĠÙħÙĥÙĨ":8680,"Ø¹ÙĪØ¯Ø©":8681,"ØŃØ§Ø¡":8682,"ĠØ¨Ø§ØŃ":8683,"ĠØ¨ÙĤÙĪÙĦ":8684,"ĠØ¨ÙħØ´":8685,"ĠØ¨Ø°ÙĦÙĥ":8686,"ĠØªØ±ØŃÙħ":8687,"ĠØªÙģÙĬØ¯":8688,"ĠÙĦØ§ÙĦ":8689,"ĠØ¹ÙĤÙĪÙĦ":8690,"ĠØ¹ÙĪÙĨÙĥ":8691,"ĠÙĨÙĪÙħ":8692,"ĠÙĨØ§Ø¶":8693,"ĠÙĥÙģÙĬÙģØ©":8694,"ĠØ±Ø§Ùģ":8695,"ĠÙĩØ¶":8696,"Ø²Ø§Ø±":8697,"ĠØ®Ø±ÙĪÙģ":8698,"ĠØŃÙĦØ§Ø¨":8699,"Ø¶ÙĪ":8700,"ĠÙĤÙĦÙĤ":8701,"ĠØ£Ø¹Ø¯":8702,"Ø¯ÙĬÙĤ":8703,"Ø¯ÙĬØ´":8704,"ĠØ§ÙĦÙħØ¶":8705,"ĠØ§ÙĦÙħØ±Ø§Ùĩ":8706,"Ø§Ø³ÙĦ":8707,"ĠØ§ÙĦØ¹Ø²":8708,"ĠØ§ÙĦØ¹ÙĤØ¯":8709,"ĠØ§ÙĦØ¹Ø¬Ø²Ø©":8710,"ĠØ§ÙĦØ¬ÙĩÙĦ":8711,"ÙĦØ§ÙĤÙī":8712,"ÙħØ§ÙĤ":8713,"ĠØ¹ÙĨÙĩÙħ":8714,"Ø¸Ø§Øª":8715,"ĠØ®ÙĪÙĪ":8716,"ĠØ¥Ø¹":8717,"ĠØ§ÙĦØŃØ·Ø¨":8718,"ĠØªØ¹ÙĥÙħ":8719,"ĠØ²ÙĦÙĪÙħ":8720,"ĠØ²ÙĬØ±ÙĪ":8721,"ĠØ§ÙĦØªÙħ":8722,"ĠØ§ÙĦØ´Ø¬Ø±Ø©":8723,"ĠØ§ÙĦØ´ØªØ§Ø¡":8724,"Ø¨Ø±Ùĩ":8725,"Ø¨Ø±Ø¹":8726,"ĠØ§Ø®Ø°":8727,"ĠØºÙĬØ±Ùĥ":8728,"ĠØ§ÙĦÙģÙĪ":8729,"ĠÙĪÙĬØ®ÙĦÙĬ":8730,"ĠÙħØ´ÙĥÙĦØ©":8731,"ĠØ§ÙĦÙĤØ§Ø±Ø©":8732,"ĠØ§ÙĦØ¯ÙĪØ§Ø¡":8733,"Ø®ÙĦØ´":8734,"ĠØ§ÙĦØ³Ùĥ":8735,"ĠØ§ÙĦÙĦÙĬØ¨ÙĬ":8736,"ĠØ£ÙĨÙĨØ§":8737,"ĠØ£ÙĨÙĨÙĬ":8738,"ĠÙĬÙĪÙģÙĤÙĪ":8739,"Ø±ØªÙĩ":8740,"ĠÙĬØ®ÙħÙħ":8741,"ĠØ§ÙĦØ±Ø£ÙĬ":8742,"ĠØ§Ø±Ùī":8743,"Ø§Ø²ÙħØ´":8744,"ĠØªØ®ÙĦÙĬÙĥ":8745,"ĠÙĥØ§ÙĬÙĨÙĩ":8746,"ĠØ°ÙĬÙĥ":8747,"ĠØ¨Ø±Ø§Ùĥ":8748,"ĠØ¬ÙħÙĬÙĦÙĩ":8749,"ĠÙĬØ³Ø±ÙĤ":8750,"Ġar":8751,"Ġare":8752,"ĠØ§ÙĦØŃÙħØ¯ÙĦÙĩ":8753,"ĠÙħØ§ÙĬØª":8754,"ĠØ§ÙĦÙĩÙĨ":8755,"ĠØ§ÙĦØ³ÙĬØ§ØŃ":8756,"ĠÙĨØ¹Ø±ÙģÙĩÙħ":8757,"ÙħØ¬Ø±Ø¯":8758,"ĠØ¨Ø¹Ø¶ÙĩÙħ":8759,"ÙĢÙĢÙĩ":8760,"ĠØŃÙħÙĦØ©":8761,"ĠØ®ÙĦÙĬÙĨÙĬ":8762,"ĠØ¨Ø·Ø±ÙĬÙĤÙĩ":8763,"ĠØ¯ÙĬÙĨÙĬØ©":8764,"ĠÙĨØ¸Ø§Ùħ":8765,"ĠÙĦØ®Ø·":8766,"ĠÙĨÙĪØµÙĦÙĪ":8767,"ĠØŃØ³Ø¨Øª":8768,"ĠØ§ÙĦÙĥØ±Ø§Ùħ":8769,"ĠØ£Ø´ÙĩØ±":8770,"ĠØ§ÙĦÙĬÙĩÙĪØ¯":8771,"ĠØ§Ø«ÙĨÙĬÙĨ":8772,"ĠØ§Ø²ÙĪØ±":8773,"ÙĩÙĦØ§ÙĪ":8774,"ĠÙĥÙĪØ¨ÙĬ":8775,"ĠØ´Ø±ÙģØª":8776,"ĠØ§ÙĦØ®Ø·Ø±Ø©":8777,"ĠÙĥÙĦÙĬØª":8778,"ĠØ§ÙĦØªÙģØ§ÙĩØ©":8779,"ÙĥØ±ÙĬØ§Øª":8780,"ĠØ§ÙĦØµØ§ÙĦØŃØ©":8781,"ĠÙĨØªÙħÙĨØ§ÙĪ":8782,"ĠØ§ÙĦÙĨØ¸Ø§ÙģØ©":8783,"ĠØ§ÙĦØ¨Ø±ÙĪØ¬ÙĬ":8784,"ĠØ£ØµØ¨ØŃØª":8785,"Ø¨ØºÙĬØª":8786,"ĠØªØŃÙħÙĦ":8787,"ĠØ§ÙĦØ§ØªØŃØ§Ø¯":8788,"ĠØ§ÙĦÙĥØªØ§Ø¨":8789,"ĠØ§Ø±Ø¬ÙĪÙĥ":8790,"ÙĦÙĬÙģØ²ÙĬÙĪÙĨ":8791,"ĠÙĪØ±Ø³ÙĪÙĦÙĩ":8792,"ĠØ¹Ø§ÙĤÙĦØ©":8793,"ain":8794,"ob":8795,"Ġentre":8796,"ĠØ¤":8797,"ÙĥØ¯":8798,"ĠÙĪÙĦÙĤÙħØ§ÙĨ":8799,"Ø¯ÙĥÙħ":8800,"ĠÙħÙĤÙĬ":8801,"ÙĤØ±Ø§Ùħ":8802,"ĠÙģØ§Ùĥ":8803,"ĠÙģÙĦØª":8804,"Ø´Ø·":8805,"ĠÙĨØ§Ø´":8806,"ĠÙĨÙĩØ¯Ø±ÙĪ":8807,"ĠÙĥÙħØ§ÙĨ":8808,"ĠÙĥØ§Ø±Ùĩ":8809,"ĠØ±Øº":8810,"Ø§Ø±Ø¨ÙĬ":8811,"ØµÙĪØª":8812,"ĠØ¬ÙĪØ¹":8813,"ĠØŃØ§Ø¶Ø±":8814,"Ø§Ø¦Ùĩ":8815,"ĠÙĪØ§ÙĦØ´Ø¹Ø¨":8816,"ĠÙħØ¹Ø¯":8817,"Ø±ÙĪØ¨Ø©":8818,"ĠØ¨Ø§ÙĦØ°":8819,"ÙģÙĬØ²Ø§":8820,"ÙĥØ±Ø±":8821,"ĠÙĬØ¹ÙĬÙĬ":8822,"ĠÙĨØªØ§Ø¨Ø¹Ùĥ":8823,"ĠØ§ÙĦÙĨØ¸Ø±":8824,"ĠØ·Ø¹Ø§Ùħ":8825,"ĠØ§ÙĦØªØ®":8826,"Ø§Ø²ÙĪÙĨ":8827,"ĠØ§ÙĦØ´Ø§Ø¨Ø©":8828,"ĠØ§Ø®ÙĪØªÙĨØ§":8829,"ĠØ§ÙĦÙģØ§ÙĨ":8830,"ĠØ§ÙĦÙģÙĪÙĤ":8831,"ÙĬØªÙĩÙħ":8832,"Ø§Ø·Ùĩ":8833,"ĠÙĪÙĦÙĦ":8834,"ĠÙĪÙĦØ¹":8835,"ÙĪØ¯Ø§":8836,"ÙĪØ¯ÙĬÙĨ":8837,"ĠØ§ÙĨØªØ¸Ø§Ø±":8838,"ĠÙĪØªØ³ØªØ§ÙĩÙĦ":8839,"ĠÙĬØªØ§Ø¨Ø¹":8840,"ĠØ§ÙĦÙĬØ§Ø¨Ø§ÙĨ":8841,"ĠØ®ÙĬØ±ÙħÙĨ":8842,"ĠÙģØ§ÙĦØºØ±Ø¨Ø©":8843,"ĠÙĤØ§ÙĦÙĩÙħ":8844,"ĠÙĨØŃÙĥÙħ":8845,"ĠØ§ÙĦØ·ÙħÙĪØŃ":8846,"ĠØªÙĤØµØ¯":8847,"Ø¦Ùĥ":8848,"ÙħØªÙĩ":8849,"ĠØ³ÙĦØ¹Ø©":8850,"ĠØ¨Ø±Ø¯":8851,"ĠÙĪØ±ÙħØ¶Ø§ÙĨ":8852,"ĠÙĦÙĥÙĨÙĩ":8853,"ĠØªØ¨ØºÙĬ":8854,"ĠØªØ³ØªÙģØ§Ø¯":8855,"ĠØªØ¬Ø§Ø±Ø©":8856,"ĠØªØµØ¯ÙĤ":8857,"ĠÙĬØ³ØªÙĨØ§ÙĪ":8858,"ĠÙĦÙĤÙĬÙĨØ§":8859,"ĠØ¬Ø¯Ø§Ø§":8860,"ĠØªÙĥØ±ÙĬ":8861,"ĠÙĨØ¬ÙĪ":8862,"ĠØ²Ø¹ÙħØ©":8863,"ĠØŃÙĤÙĥ":8864,"ĠÙĩØ¯ÙĪÙĥ":8865,"ash":8866,"ĠÙĬÙĥØ¨Ø±":8867,"ĠØ®Ø±Ø¬Ø©":8868,"ĠÙĪØ²ÙĨØ©":8869,"ĠØªÙĩØ¨Ø·":8870,"ĠØ¨Ø§ÙĬÙĨØ§":8871,"ĠØ¸Ø±ÙĪÙģ":8872,"ĠØªØ¹ÙĦÙħÙĨØ§":8873,"ĠØ·Ø±ÙĬÙĤÙĩ":8874,"ĠØ§ÙĦØ¶ÙĬ":8875,"ĠÙĨØ¸Ø±":8876,"ĠØ³ÙĪÙī":8877,"ĠØ±Ø¬ÙĦØ§ÙĪÙĬ":8878,"Ġkeep":8879,"ĠØ¨Ø£ÙĦÙģ":8880,"ĠÙĪØªØŃÙĬØ§ØªÙĬ":8881,"uss":8882,"ĠÙĬØ¬ÙĬØ¨ÙĪ":8883,"ĠÙĪØ§ÙĤÙĬÙĦØ§":8884,"ĠÙĬØ®Ø¨Ø·ÙĩØ§":8885,"ĠÙĤÙĪÙĦÙĪØ§":8886,"ĠØ§ØŃØªØ±Ø§ÙģÙĬØ©":8887,"ĠØ§ÙĦØ´Ø®ØµÙĬØ§Øª":8888,"ĠØªØ²ÙĪØ±ÙĨØ§":8889,"ĠØ±Ø¨ØŃÙĨØ§":8890,"ĠØ§ÙĦÙģÙĨØ§Ø¯ÙĤ":8891,"Ġchos":8892,"ĠØ§ÙĦØ§Ø´ØªØ±Ø§Ùĥ":8893,"Ġexact":8894,"ĠÙĩØ¯Ø±ØªÙĥ":8895,"ĠÙĬÙĦØ²Ùħ":8896,"ĠØ·Ø§ØŃØª":8897,"ØµØ¯ÙĤÙĨÙĬ":8898,"ĠØ§ÙĦÙħÙĬØ²Ø§ÙĨ":8899,"ĠÙĪÙĨØ§Ø³ÙĩØ§":8900,"ult":8901,"ĠÙĨØ¯Ø¹ÙħÙĥ":8902,"ĠØ§Ø¸ÙĨ":8903,"ĠØ±Ø§Ø¡Ø¹":8904,"ĠØ§ÙĦÙģØ¶ÙĬÙĦ":8905,"Ġtrava":8906,"ok":8907,"Ġimp":8908,"ÙĨÙĪØ¹":8909,"ÙĪØ¸":8910,"ĠØ§ÙĦÙĤÙĪÙĦ":8911,"ĠØ§ÙĦØ±Ø¨ØŃ":8912,"Ø¨Ø§Ø³":8913,"Ø¨ÙĨØª":8914,"ĠÙĪØ±ØŃÙħÙĩ":8915,"Ø¯ÙĪÙĥ":8916,"ĠÙħØ¯ÙĬÙĨÙĩ":8917,"Ø³ÙħÙĬ":8918,"ĠÙģØ§Ø·":8919,"ĠÙĦØ²ÙĬ":8920,"Ø´ÙĬØ´":8921,"Ø¬ÙĬØ´":8922,"ĠÙĥÙĪØ¨":8923,"Ø·Ø±ÙĬÙĤ":8924,"ĠØ´Ø¨":8925,"ĠØ´Ø§Ø¯":8926,"ĠØ´ÙĪØ§Ø±Ø¹":8927,"ĠØ®Ø§ÙĦÙĬ":8928,"ĠØ®Ø§Ø³Ø±":8929,"ĠØŃÙĦÙĬ":8930,"ĠØŃØ§ÙĦÙĥ":8931,"ĠØŃØ¬Ø§":8932,"ÙĪÙĨÙĬØ§":8933,"Ø¶ÙĬØŃ":8934,"Ø§Ø´Ø§ÙĨ":8935,"ĠØ¯ÙĤÙĬÙĤÙĩ":8936,"ĠØ§ÙĦÙħØŃØ¨":8937,"ĠØ§ÙĦÙħØ±Ùĩ":8938,"ĠØ§ÙĦÙħØ¨Ø¯Ø¹":8939,"Ø§ÙĬÙĦÙĬØ©":8940,"Ø§Ø¦ÙĩØ§":8941,"ĠØ§ÙĦØ¹Ø¨Ø¯":8942,"ĠØºØ¶":8943,"ØªÙĬØ§Ø±":8944,"ĠÙĥÙĦØ§ÙħÙĬ":8945,"ĠÙĬØŃØ§ÙĪÙĦ":8946,"ÙĦÙĤØ§Ø´":8947,"ĠØ·ÙĪØ±":8948,"ĠÙĦØ§ÙĬÙĨ":8949,"ĠØ§ÙĦØ´Ø§Ùħ":8950,"ĠØ§ÙĦØ´Ø¯ÙĬØ¯":8951,"ĠØ§ÙĦØ´ÙĪØ§Ø±Ø¹":8952,"ĠØ§ÙĦÙģÙĨÙĬØ©":8953,"ĠÙĪÙĬØŃØ¨":8954,"ÙĤÙĪÙĦØ´":8955,"ĠØ§ÙĦÙĥÙĪØ±":8956,"ĠØ§ÙĦØ£Ø´ÙĬØ§Ø¡":8957,"ĠØµØŃÙĪØ±ÙĥÙħ":8958,"Ø§ÙĦÙħÙĪÙĨ":8959,"ĠØ§ÙĦØ³Ø§Ø¨ÙĤ":8960,"ĠØ§ÙĪÙĦÙī":8961,"ĠÙĪÙĨØ±ÙĪØŃ":8962,"ĠÙĬØ®Ø³Ø±":8963,"ĠÙħØ±ØªÙĪ":8964,"Ø¶ØŃÙĥØ´":8965,"ĠÙĨØŃØ§ÙĪÙĦ":8966,"ĠØªØ®ÙĬ":8967,"ĠØ§ÙĦØºÙĬØ±Ø©":8968,"ĠØ¨Ø¯ÙĦØª":8969,"ĠØ§ÙĦØ¥ØŃ":8970,"ĠØ§ÙĦØ°ÙĩØ§Ø¨":8971,"ĠÙĦØ¹Ø§Ø´ÙĪØ±":8972,"ĠØªÙĪØ§Ø¶Ø¹":8973,"ĠØ¨Ø³Ø±Ø¹Ø©":8974,"ĠØ§Ø¬Ø±":8975,"ĠÙĬÙĤØµØ¯":8976,"ĠØ¯Ø§Ø±ÙĥÙħ":8977,"ĠØ§Ø³ØªØ¹ÙħØ§ÙĦ":8978,"ĠÙĤÙĦØªÙĦÙĩØ§":8979,"ĠÙħØ§ÙĬØ´":8980,"ĠÙĦØŃÙĦÙĤØ©":8981,"ĠÙĪÙĥØª":8982,"ĠØ§ÙĦÙħØŃÙĬØ·":8983,"ĠØŃÙĨØ§ÙĬØ§":8984,"ĠØ§ÙĦÙĦÙĪÙĦ":8985,"ĠØ§ÙĦØ§ÙħØ§Ø²ÙĬØºÙĬØ©":8986,"ĠØ´ÙģØªÙĩ":8987,"ĠØ´Ø¨Ø§Ø¨ÙĨØ§":8988,"ĠØ§ÙĦÙĤØ±Ø£ÙĨ":8989,"ĠÙĬÙĥÙģÙĬ":8990,"ĠÙħØ§Ø±ÙĬÙĥØ§ÙĨ":8991,"ord":8992,"ĠØ¨Ø§ÙĬÙĨÙĩ":8993,"ĠØªØ±ÙĥÙĬ":8994,"ĠØªØ¯ÙĪØ±":8995,"ĠØ¹ÙĦÙħÙĬ":8996,"ĠÙģØ¹ÙĦØª":8997,"ĠÙĬÙĤØ¯Ø±Ø´":8998,"ÙĩØ§Ø¯Ø§":8999,"ĠØ§ÙĦØ§ØŃÙĦØ§Ùħ":9000,"ĠØ£ÙĪÙĦØ§":9001,"ĠØ§ÙĦØ·Ø±ÙĬÙĤÙĩ":9002,"ÙĤØ§Ø¯Ø§":9003,"ĠÙĦÙĦÙĤÙĦØ¨":9004,"ĠÙĪØ«Ø§Ø¦ÙĤÙĬ":9005,"ĠØ¹ÙģÙĪÙĬ":9006,"ĠÙĨØ¶ÙĬÙģ":9007,"ĠØ§ÙĦØ§ØºÙĪØ§Ø·":9008,"ĠÙĪØ§ÙĦØ£Ø±Ø¶":9009,"ĠÙĪØ§ØªÙħÙĨÙī":9010,"ĠÙģØªØŃØª":9011,"ĠØªØ¶ÙĬØ¹":9012,"ĠØ¨Ø±ÙĬØ·Ø§ÙĨÙĬØ§":9013,"ĠØ§ÙĦÙħØ±Ø¶Ùī":9014,"ØºÙģØ±Ø©":9015,"ĠÙĬØ³ØªØ±ÙĥÙħ":9016,"ĠÙģØ§ÙĦÙĬÙĪØªÙĬÙĪØ¨":9017,"ĠØŃØ§Ø´Ø§":9018,"ĠØ§ÙĦÙħØªÙĪØ³Ø·":9019,"ĠÙĥÙĪÙħÙĬØ±Ø³":9020,"ĠÙĦØ§ØŃØ¸Øª":9021,"ĠÙĨÙĨØªØ¸Ø±":9022,"ĠÙĥØ§ÙĦÙĬÙģÙĪØ±ÙĨÙĬØ§":9023,"ĠÙĬÙħÙĨØ¹":9024,"ĠÙĨÙĬÙģÙĪ":9025,"ichem":9026,"ĠØ§ÙĦØ·Ø¨ÙĬØ¹ÙĬØ©":9027,"ĠØ§ÙĦØ±ÙħØ¶Ø§ÙĨÙĬØ©":9028,"oc":9029,"ÙĪØ§Ø¹":9030,"ÙĩÙĬØ§":9031,"ØªØ§ÙĤ":9032,"ĠÙħØ§ÙĩÙĬ":9033,"ĠÙħØ¯Ø§ÙĬØ±":9034,"ÙģÙĦÙĪÙĤ":9035,"ĠÙĬÚ¨":9036,"ĠÙģØµÙĦ":9037,"ĠØªØ´ÙĬ":9038,"ĠØªÙĤØ¯ÙĬØ±":9039,"ĠØ¹Ø§ÙĤÙĦ":9040,"ĠÙĨØ±ØªØ§ØŃ":9041,"ĠÙĥØ±Ø´":9042,"ĠØ±ÙĤØ¯":9043,"ÙĬØ±ÙĬÙĥ":9044,"Ø®ÙĨ":9045,"Ø®Ø§Ø¨Ø§Øª":9046,"ØµØ¨Ø±":9047,"Ø·ÙĬØ¨":9048,"ĠØ®ÙĬÙĬ":9049,"ĠØ¬Ø±Ø§ØŃ":9050,"ĠØŃØ§Ø±":9051,"ĠØŃØ·ÙĬ":9052,"Ø¶Ùĩ":9053,"ĠÙĤÙħ":9054,"ĠØ£ÙĦÙĦÙĩ":9055,"ĠØ¯ÙĬÙĨÙĬ":9056,"ÙĪÙĦØ§Ø±":9057,"Ø§Ø¹Ø¯Ùĥ":9058,"Ø§Ø¨ÙĬÙĨ":9059,"ĠØµØ¨Ø±":9060,"ĠÙĪØ§ÙĦØ³ÙĦ":9061,"Ø§ÙĩØ±ÙĬÙĨ":9062,"ĠØ§ÙĦØ¹ÙĪØ¯Ø©":9063,"Ø§ÙĪØ§Ùĩ":9064,"ĠØ§ÙĦØŃØ§ÙĦÙĬ":9065,"ĠØ§ÙĦØŃÙĦÙĬØ¨":9066,"ĠÙĬØŃØ¨Ùĩ":9067,"ĠÙĬØ¹Ø¨Ø¯":9068,"ĠØ§ÙĦØªØ£":9069,"ĠØ§ÙĦÙģØ§Ø¶ÙĦ":9070,"ĠØ§ÙĦÙĤÙĩÙĪØ©":9071,"ĠØ§ÙĦØ£ØµÙĦ":9072,"ĠØ§ÙĪÙĥ":9073,"ĠÙĪØªØ±ÙĪØŃ":9074,"ĠÙħØ§Ø´ÙģØª":9075,"ÙĦØªØ´":9076,"Ø§ÙĦÙĬÙģ":9077,"ĠÙħØŃØ§ÙģØ¸":9078,"ĠØ§ÙĬØ¯ÙĬ":9079,"ÙĦØ¨Ùĥ":9080,"ĠÙĤØ§ÙĦÙĦÙĥ":9081,"ĠÙĩØ§Ø¯ÙģØ©":9082,"ĠØªØ®ÙħØ§Ùħ":9083,"ĠØ³ÙĬØ§ØŃ":9084,"ĠÙĬØ¬ÙĬÙĨÙĬ":9085,"ĠØ¬Ø§ÙħØ¹Ø©":9086,"ĠØ¨Ø¯Ø£Øª":9087,"ĠØªÙĥÙĪÙĨÙĪ":9088,"ĠØªØ¬Ø¹ÙĦ":9089,"Ø¯Ø±Ø³":9090,"ĠØ¨ÙĬÙĨÙĥ":9091,"ĠØªÙĥØª":9092,"ĠÙħÙĥØ©":9093,"ĠØªØ¹Ø±ÙģØ´":9094,"ĠØ±Ø³Ø§ÙĦ":9095,"ÛĮÙĨ":9096,"ÛĮØ±":9097,"ĠÙĨØ¹Ø±ÙģÙĥ":9098,"ĠÙĦØ£ÙĨÙĩÙħ":9099,"ĠØ±ØŃØ§ÙĦÙĬØ³ØªØ§":9100,"ĠÙħØ§Ø²Ø§ÙĦÙĪ":9101,"ĠØ¹Ø´Ø§ÙĨ":9102,"ĠØ§ÙĦÙħØ¬Ø§ÙĦØ§Øª":9103,"ĠÙħØµØ±ÙĬ":9104,"ĠÙħØµÙĪØ±":9105,"Ġnon":9106,"ĠÙĩØ§ÙĥØ¯Ø§":9107,"ĠÙĨØ¯Ø¹ÙĬ":9108,"ĠØ§ÙĦØŃØ±Ø§Ø´":9109,"ĠØ¹Ø§Ø¯ÙĦ":9110,"ĠÙĬØ·ÙĦØ¹ÙĪ":9111,"ĠØŃØ¨ÙĬØ¨ØªÙĬ":9112,"Ø¨Ø³Ø§Ø·Ø©":9113,"ĠÙģÙĥØ§ÙĩØ©":9114,"ĠÙĬØ®ÙĦÙĬÙĦÙĥ":9115,"ĠØ§ÙĦØªØ¬Ø§Ø±Ùĩ":9116,"ĠØ§Ø¶ØŃÙĥ":9117,"ÙĦÙĦØ£Ø³Ùģ":9118,"ĠÙĦÙĪÙĦØ§ÙĬØ©":9119,"Ġall":9120,"ĠÙĬØ¶ÙĬØ¹":9121,"ĠØ¥ÙĦÙĬÙĩØ§":9122,"ĠØ§ÙĦÙħØ«ÙĦ":9123,"ĠvidÃ©":9124,"ĠØºØ§Ø¶ÙĨÙĬ":9125,"ĠØ´ÙĬÙĥÙĪØ±":9126,"ĠØªÙħØ«ÙĬ":9127,"ĠØ§ÙĦØ¹ÙĦØ§ÙħØ©":9128,"ĠØ³Ø§ÙģØ±Øª":9129,"eo":9130,"hh":9131,"ÙĨØ¬":9132,"ÙĪØ°":9133,"ÙħÙī":9134,"ĠØ§ÙĦØ§Ø°":9135,"ØªØ§ÙĨ":9136,"Ø¨ØªÙĨØ§":9137,"Ø¯ÙĤÙĬÙĤØ©":9138,"ĠÙħØ¯Ùĩ":9139,"ĠÙħØ±ÙĥØ²":9140,"ØŃÙĦÙī":9141,"ÙģØ³ÙĬ":9142,"Ø³ÙĦÙĬ":9143,"Ø³ØªÙĪÙī":9144,"ĠÙĬÙĬ":9145,"ĠÙĬÙĥÙĦ":9146,"ĠÙĬÙģØ³":9147,"ĠÙģÙĦÙĤ":9148,"ĠØªÙĤØª":9149,"ĠØªÙĪÙĨØ³ÙĬ":9150,"ĠØªØ°ÙĩØ¨":9151,"ĠØ±Ø¶":9152,"Ø²ÙĬÙĥ":9153,"ĠØ®Ø§ÙĬ":9154,"ĠØ¬Ø§Ùĥ":9155,"ĠØ¬ÙĦÙģØ©":9156,"ĠØŃØ§Ùĥ":9157,"ĠØŃÙĦÙĤ":9158,"ĠØŃØ§ÙĥÙħ":9159,"ĠØ£ÙĩÙħ":9160,"Ø§Ø´Ø§Øª":9161,"ĠØ§ÙĨØ¯ÙĪÙĨÙĬØ³ÙĬØ§":9162,"ĠØ¯ÙĦ":9163,"ĠØ¯Ø§ÙĪ":9164,"ĠØ¯ÙĪÙĦÙĩ":9165,"ĠØ§ÙĦÙħØŃØªØ§Ø¬":9166,"ĠØ³ÙĦÙĬÙħ":9167,"Ø§Ø¹Ø¨":9168,"Ø£Ø±ÙĪØ¹":9169,"ĠØ§ÙĦØ¹Ø§Ø¦ÙĦØ§Øª":9170,"ĠÙħØ¹ÙĦØ¨":9171,"Ø±ÙĪÙĤØ©":9172,"ĠØ¨Ø§ÙĦÙģÙĬØ¯ÙĬÙĪ":9173,"ĠØ¨Ø§ÙĦÙħØ´":9174,"Ø¸ÙĦ":9175,"ĠØªØŃÙĦ":9176,"ÙħÙĨØ§ÙĦÙĥ":9177,"ĠØ§ÙĦØ´Ø±ÙĪÙĤ":9178,"ÙĪØ³Ø®":9179,"ĠØ§ÙĦÙĤÙĪÙħ":9180,"ĠØ§ÙĦÙĤÙĦÙĬÙĦ":9181,"ĠØ§ÙĦØ¨Ø±ÙĥØ©":9182,"ĠÙĪÙĦØ§ÙĬÙĩ":9183,"ĠØ§Ø³Ø·":9184,"ĠØ§ÙĦØ®Ø§ÙĪØ©":9185,"ÙĤØªÙĦØªÙĨÙĬ":9186,"ĠÙĪØªÙĤÙĪÙĦ":9187,"ĠÙĬØŃÙģØ¸Ùĩ":9188,"ĠØ§ÙĬØ´":9189,"ĠØ§ÙĬØ·Ø§ÙĦÙĬØ§":9190,"ÙĩØ¯Ø§Ùģ":9191,"ĠÙĪÙĩØ§Ø°":9192,"ĠØ§Ø±ÙģØ¹":9193,"ĠØ¨ÙĦÙĬØ²ÙĬØ±":9194,"ØªØ´Ø¨Ùĩ":9195,"oul":9196,"ĠÙĦÙĩØ§Ø°":9197,"Ø¢Ùĩ":9198,"Ø®ØµÙĥ":9199,"ĠØ§ÙĦØ¥Ø´":9200,"ĠÙĦØ¹Ø±Ø¨":9201,"ĠÙħØ²ÙĦØª":9202,"ĠØ§ØªØ§Ø¨Ø¹":9203,"ĠØ®ÙĦØ§Ùģ":9204,"ĠÙĬÙĨØŃ":9205,"ÙĪØ²ÙĬÙĨØ©":9206,"ĠØªØ´ÙĪÙģÙĩØ§":9207,"ĠÙģÙĩÙħÙĨÙĬ":9208,"ĠÙĪØ§ÙĦÙħØºØ±Ø¨":9209,"ĠÙĪØ§ÙĦÙħØ¤ÙħÙĨ":9210,"ĠÙĨØ±ÙĪØŃÙĪØ§":9211,"Ø·ÙĪÙĬØ±":9212,"ĠÙħØªØ§Ø¨Ø¹ØªÙĥ":9213,"ĠØ£Ø¹Ø¸Ùħ":9214,"Ø±Ø§ÙĩÙĪ":9215,"ĠÙĨØ¸ÙĬÙģØ©":9216,"ÙħØ´ÙĥÙĪØ±":9217,"ĠÙĨØ·ÙĬØ¨":9218,"ĠØ¨Ø±ÙĪØŃÙĥ":9219,"ell":9220,"ĠÙħØ·ÙĪÙĦØ´":9221,"ĠÙĨÙĥÙĪÙĨÙĪ":9222,"ĠØ§ØŃØªØ±Ø§ÙħÙĬ":9223,"ĠØ±Ø£ÙĬÙĬ":9224,"Ġrest":9225,"ĠÙĨÙĦÙĤØ§":9226,"ĠÙĪØ§Ø±ÙĪØ¹":9227,"Ø¬Ø§ÙĨØ¨":9228,"ĠØ§Ø±ØŃÙħÙĩ":9229,"oop":9230,"ĠÙĤØ§ÙĦØªÙĦÙĪ":9231,"ĠØ§ÙĦÙħØ®Ø¯Ø±Ø§Øª":9232,"ĠØ§ÙĦØ¬ÙħØ§Ø¹Ø©":9233,"ĠÙĨÙĤØ¯Ø±ÙĪØ§":9234,"ĠØµÙģØŃØ©":9235,"ĠØ´Ø±ÙĬÙĥÙĬ":9236,"Ø¯Ø§Ø¡Ø©":9237,"ĠÙħØ´Ø§ÙĩØ¯Ø§Øª":9238,"ĠÙĥØ°Ø§ÙĦÙĥ":9239,"ĠØ§ÙĦØ³ÙĪØ¯Ø§Ø¡":9240,"ĠØ¬ÙĬÙĩØ©":9241,"ĠØ§ÙĦØ¹Ø§ØµÙħÙĩ":9242,"ĠØ±ÙĬÙģÙĥØ§":9243,"ĠØ¨Ø§ÙĦØ¥ÙĨØ¬ÙĦÙĬØ²ÙĬØ©":9244,"ĠÙĪØ¨Ø§ÙĦØªØ§ÙĦÙĬ":9245,"ĠÙĪØ§ÙĦÙħØ³ÙĦÙħØ§Øª":9246,"age":9247,"ja":9248,"jamel":9249,"ni":9250,"of":9251,"ĠU":9252,"ÙĬØ®":9253,"ÙĨØ§ØªÙĥ":9254,"ÙĪØªÙĪØ¨Ø±":9255,"ÙĩØ¬":9256,"ĠÙĪÙĩÙħØ§":9257,"ĠÙħØ§Ø¯ÙĬ":9258,"Ø¹Ø§Ø¯":9259,"ÙĤØ§Ø¦ÙĨØ§":9260,"ĠÙĬØ®ÙĦÙģ":9261,"ĠØ¨Ø¹Ùħ":9262,"ĠÙģØ§ÙĦÙĦÙĩ":9263,"ĠÙģÙħÙĨ":9264,"ĠÙģØ£ÙĨØª":9265,"ĠØªÙĤÙĬ":9266,"ĠØªØºÙĦØ·":9267,"ĠÙĨÙĬÙĥ":9268,"ĠÙĨÙĤØ·Ùĩ":9269,"Ø§Ø±Ø¬ÙĬ":9270,"ĠØ®Ø§Øª":9271,"ĠØŃØ¶Ø±":9272,"ÙĪÙĨÙĬØ©":9273,"Ø¶ÙĬØ©":9274,"ĠÙĤØ§Ø±ÙĬ":9275,"ĠÙĤØ§Ø§Ø¹":9276,"Ø±ÙĬØ¨ÙĬ":9277,"ĠØ¯Ø±ÙĪØ³":9278,"ĠØ§ÙĦÙħØ§Ø³":9279,"Ø°Ø¨ÙĪ":9280,"ĠØ³ÙĪÙĨ":9281,"ĠØ³Ø§Ùĥ":9282,"Ø§Ø¹Ø²":9283,"Ø§Ø¨Ø¯Ø§Ø¹":9284,"ØºØ§Ø±Ø¨Ø©":9285,"ĠÙĪØ§ÙĦÙħÙĨ":9286,"ĠÙĪØ§ÙĦÙħØ±":9287,"ĠÙĪØ§ÙĦØ¢":9288,"Ø£Ùħ":9289,"Ø«ÙĤ":9290,"Ø«Ùī":9291,"ÙĨÙĬÙģ":9292,"ÙĨÙĬØ§Øª":9293,"ĠØ§ÙĦØ¹Ø¬":9294,"ĠØ§ÙĦØ¹Ø±Ø¶":9295,"ĠØ§ÙĦØ¬Ø¯":9296,"ĠÙħØ¹ÙĦÙĪÙħ":9297,"Ø±ÙĪØ§Øª":9298,"ĠØ¨Ø§ÙĦÙĩÙħ":9299,"ĠØ§ÙĦØŃØ±ÙĬØ©":9300,"ĠÙĬØ¹Ø§ÙĨÙĬ":9301,"ĠÙĬØ¹Ø±Ø¶":9302,"ĠØ·ÙĦ":9303,"ĠØªØŃØ§ÙĪÙĦ":9304,"ĠØªØŃÙĪØ§Ø³":9305,"ĠØ§ÙĦØªÙĤØ¯Ùħ":9306,"Ø§Ø²Ø§ÙĨ":9307,"ĠØ§ÙĦØ´Ø§ÙĪÙĬØ©":9308,"ĠØºÙĬØ±Ùĩ":9309,"ĠØ§ÙĦÙģÙĨÙĬ":9310,"ĠÙĪÙĬØŃÙħ":9311,"ĠÙħØ´Ø§Ø±ÙĬØ¹":9312,"ÙħÙĪØ³ÙĬÙĤÙī":9313,"ĠØ§ÙĦØ£ØŃØ¯":9314,"Ø®ÙĦØ¹":9315,"ĠØµØŃØŃ":9316,"ĠØ§ÙĪÙģÙĤÙĥ":9317,"ĠØ§ÙĦØ®ÙĪÙģ":9318,"ĠØ§ÙħØ§Ø²ÙĬØºÙĬ":9319,"ĠÙĨØ¹ÙĦÙĤ":9320,"ĠØ§ÙĦØµØŃØ±Ø§":9321,"ĠÙĪÙĨØ³Øª":9322,"Ø±ØªÙĨØ§":9323,"Ø¨Ø¯Ø£":9324,"Ø¶ØŃÙĥØªÙĨÙĬ":9325,"ĠÙĨØ´ÙĪÙģÙĥÙħ":9326,"ĠÙĪØ¹Ø§Ø´ÙĪØ±":9327,"ĠØªÙĤØ¹":9328,"ĠØªØ®Øµ":9329,"ĠÙĪØ´ÙģØª":9330,"ÙĢØ§":9331,"ÙĢÙĩ":9332,"ĠØ¨ÙĨØ³Ø¨Ø©":9333,"ĠØ§Ø¹Ø¬Ø¨ÙĨÙĬ":9334,"ĠÙĨØªÙģØ±Ø¬Ùĩ":9335,"ĠØªÙĨØ²ÙĦ":9336,"ĠØ§ÙĦØ¬Ø²Ø§":9337,"ĠØ¨Ø³ØŃ":9338,"ĠØ¶ØŃÙĥÙĨØ§":9339,"ĠÙĬÙĤØ±Ø§ÙĪ":9340,"ĠØªØ´Ø§Ø±Ùĥ":9341,"ĠØªØ´Ø¹Ø±":9342,"ĠØ§ÙĦÙħØ´ØªØ±Ùĥ":9343,"ØªØ¨Ø§Ø±":9344,"ĠÙĨÙĤÙĪÙĦÙĦÙĥÙħ":9345,"Ġsp":9346,"ĠÙĨØ¨ÙĤÙī":9347,"ĠÙĪÙĥØ¨Ø±Ø§":9348,"ÙĩØ¯Ø±Ø´":9349,"ĠØ§ÙĦØ§ÙħØ§Ø²ÙĬØº":9350,"ĠÙħØºØªØ±Ø¨":9351,"ĠØ§ÙĨØ´Ø§Ø¡Ø§ÙĦÙĦÙĩ":9352,"ĠÙĨØ¹Ø±ÙģÙĩØ§":9353,"ĠÙĨØ¹Ø±ÙģÙĪØ§":9354,"ĠØ§ÙĦØ§Ø³Ùģ":9355,"ĠØ§ÙĦØ§Ø³Ø¹Ø§Ø±":9356,"ĠØ²ÙĬØ§Ø¯":9357,"ĠÙħØ§Ø¯Ø§":9358,"ĠÙħÙĩÙĪØ´":9359,"ĠÙħÙĩØªÙħ":9360,"ĠØ¨Ø§ÙĦØ¹ØªØ±ÙĪØ³":9361,"Ø±Ø³ÙĪÙĦ":9362,"ĠØ§ÙĦØ£ÙħØ§Ø²ÙĬØºÙĬØ©":9363,"ĠØ§ÙĦØ«Ø§ÙĨÙĬÙĩ":9364,"ĠØ¹Ø§Ø¯Ø§Øª":9365,"ĠØªÙĨØ³Ø§Ø´":9366,"ĠÙĪØ§Ø³Ø¹Ø©":9367,"ĠØµÙĪØªÙĩ":9368,"ication":9369,"ĠDZ":9370,"ĠØ®Ø±Ø·ÙĬ":9371,"ÙĦÙĦØ§Ø³Ùģ":9372,"ĠÙħØ±ØªØ§ØŃ":9373,"ĠØ¯Ø®ÙĪÙĦ":9374,"ĠØ§ÙĦØ®ÙĦØ§Ø¨Ø©":9375,"ĠØ¥ÙĬØ¬Ø§Ø¨ÙĬ":9376,"ĠÙĬÙĨØªÙĤØ¯":9377,"ĠØ§ÙĦØŃØ³Ø§Ø¨":9378,"ĠÙĬØ±ÙģØ¯":9379,"ĠØªØ±ÙĬÙĥÙĪ":9380,"ĠÙĬØ«Ø¨Øª":9381,"ĠØ§ÙĥØªØ´Ø§Ùģ":9382,"ĠØ§ÙĦÙħØ³Ø¤ÙĪÙĦÙĬÙĨ":9383,"ØªØ¹ÙĦÙĬÙĤØ§Øª":9384,"ĠÙĥØ§ØªØ¨":9385,"Ø¨Ø§ÙĬÙĨØ©":9386,"Ġvraiment":9387,"ĠØ§ÙĦØŃØ¶Ø§Ø±Ø©":9388,"ĠÙħØ§ØŃØ¨Ø´":9389,"ĠØ¹Ø±ÙĬÙĪØ§Øª":9390,"Mohamed":9391,"OU":9392,"tion":9393,"Ø§ÙĪÙĦØ©":9394,"ĠÙ¾":9395,"ÙĨØ¨ÙĬ":9396,"ÙĨØªÙĬ":9397,"ÙĨØ³ÙĬØª":9398,"ÙĪØ§ÙĦØŃ":9399,"ĠØ§ÙĦÙĨØª":9400,"ĠØ§ÙĦØ±Ø§ÙĤÙĬ":9401,"ÙĩÙĨ":9402,"ØªÙĤÙĪÙĦ":9403,"ĠÙĪÙĪØ§ÙĦ":9404,"ĠÙħØ³ÙĦ":9405,"ĠÙħØ±Ùģ":9406,"ĠÙħÙĬØ¨":9407,"ĠÙħØ§ÙĦØŃ":9408,"ĠÙħØ¶ÙĬ":9409,"ÙĤÙĪØ³":9410,"ÙĤØ¹Ø¯":9411,"ĠÙĬØ§Ø¨ÙĦ":9412,"ĠÙĬØ¨Ø¯ÙĦ":9413,"ĠÙĬØ§Ø³ÙħÙĬÙĨ":9414,"ĠØ¨ØªØŃ":9415,"ĠÙģØ§ÙĦØŃÙĦÙĤØ©":9416,"ĠØªØ§Ø«":9417,"ĠØªØ§Ø¨Ø¹Ø©":9418,"ĠÙĦØ²Ùħ":9419,"ĠØ¹Ø§ÙĬ":9420,"ĠÙĥÙĪÙĦÙĬ":9421,"ĠØ±Ø§Ø¨ÙĬ":9422,"Ø¨ÙĬØ¯":9423,"Ø§ØªÙĦÙĬ":9424,"Ø§ØªÙĨØ©":9425,"ĠØ®Ø°":9426,"ĠØ®Ø¨Ø²":9427,"ĠÙĤÙĦØ¹":9428,"ĠØ£Ø³Ùħ":9429,"Ø±ÙĬØ§ÙĦ":9430,"ĠØ§ÙĦÙħÙĬÙĥ":9431,"ĠØ§ÙĦÙħØ¯ÙĬÙĨÙĩ":9432,"Ø§ÙĬØ¯Ø©":9433,"Ø§Ø¨Ø¯":9434,"Ø§ØŃÙĨØ§":9435,"Ø§ÙģÙĬÙĨ":9436,"Ø§Ø¦ÙĬÙĩ":9437,"Ø§Ø³Ø§Øª":9438,"Ø«ÙħØ§Ø±":9439,"ĠØ§ÙĦØ¹Ø¯":9440,"Ø§ÙĪÙĨØ§":9441,"Ø§ÙĪØ¯ÙĬ":9442,"ĠØ¨Ø§ÙĦÙĪ":9443,"ÙģÙĬØ¯Ø©":9444,"ØªÙĬØ¨":9445,"ĠÙĬØŃÙĦ":9446,"ĠØ§ÙĦÙĨØ¬":9447,"ĠØ·Ø±ØŃ":9448,"ĠØªØŃØªÙĪÙĬ":9449,"ĠØ§ÙĦØªØ·ÙĪØ±":9450,"ĠØ§ÙĦØ´Ø§Ùģ":9451,"ĠØ§ÙĦÙģÙĥØ±":9452,"ĠÙħØ´Ùģ":9453,"ĠÙħØ´Ø§Ø±Ùĥ":9454,"ĠÙħØ´ÙĩØ¯":9455,"Ø¹Ø¯ÙĥÙħ":9456,"ĠÙħØªÙī":9457,"ĠØ§ÙĦÙĥØ§Ø±":9458,"ĠØ§ÙĨØªØ±ÙĨØª":9459,"ĠØ§ÙĦØ³ÙĨ":9460,"ĠÙĪØªÙģ":9461,"ÙĦØªÙĩÙħ":9462,"ĠØ§ÙĦÙĬÙĩØ§":9463,"ĠØ§ÙĬÙĩØ§":9464,"ÙĪÙĦÙĬÙĩ":9465,"ĠØ§ÙĦØµÙĪØ±":9466,"ĠØ§ÙĦØ±Ø¯Ø§Ø¡Ø©":9467,"ØªØ±ÙĪÙĨÙĬ":9468,"ĠØ§Ø¨ØŃØ«":9469,"ĠÙĨØŃÙĤÙĤ":9470,"ĠØ§Ø±ÙĪØ¨Ø§":9471,"ĠØªÙĤØ§ÙĦÙĬØ¯":9472,"ÙħØªØ¹ÙĪ":9473,"ĠØ³ÙĦØ³ÙĦÙĩ":9474,"ĠÙĪØ¬ÙĩÙĪ":9475,"Ø¢ÙħÙĬÙĨ":9476,"ÙĢÙĬ":9477,"ĠØ°Ùĥ":9478,"ĠØ°ÙĨØ¨":9479,"ĠØªØªØ³":9480,"ĠØªØªØ±Ùĥ":9481,"ĠØ¨Ø±ÙĥØ©":9482,"ĠØ§ÙĦØ¥Ø®":9483,"ĠÙĬØ³ÙħÙĪÙĩØ§":9484,"Ø§ØºÙĬØª":9485,"ĠØ§Ø´ÙĩØ¯":9486,"Ġvous":9487,"ÙĬØŃÙĬ":9488,"ĠØ§ÙĦÙĩÙĪØ§Ø¡":9489,"ĠÙħÙĪØŃ":9490,"ĠÙĤÙĦØªÙĬ":9491,"ĠÙĨØ¬Ø±Ø¨":9492,"ĠØ¨Ø§Ø¨Ø§Ùĩ":9493,"ĠØ§ÙĦÙħÙĪØ³ÙĬ":9494,"ĠØ§ÙĦÙħÙĪØªÙī":9495,"ĠÙħØ§ÙĦØºØ±ÙĬ":9496,"ast":9497,"ĠØªÙĦÙĤØ§ÙĩØ§":9498,"Ø¥ÙĨØ´Ø§Ø¡":9499,"ĠØ¹ÙĨØ¯ÙĩÙħØ´":9500,"ĠØ¨ØŃØ«":9501,"ÙģÙĦØ³Ø·ÙĬÙĨ":9502,"ĠØ´Ø§Ø¨Ø§":9503,"ĠØ³ØªØ©":9504,"Ġgood":9505,"ÙĤØ§ÙĦÙĩØ§":9506,"ĠØ¯ÙĥØªÙĪØ±":9507,"Ġpart":9508,"ĠØ£Ø³ØªØ§Ø°":9509,"ĠÙĬØ®Ø±Ø¬ÙĪØ§":9510,"ĠØ§Ø·ÙģØ§ÙĦ":9511,"ĠÙĤÙĪÙĦØª":9512,"ĠØ§ÙĦØ§Ø¨ØªØ³Ø§ÙħØ©":9513,"ĠÙģÙĦÙĪÙĤØ±":9514,"ĠÙĬØ²ÙĬØ¯ÙĪ":9515,"ĠÙĬØ²ÙĬØ¯Ùĥ":9516,"ĠÙģØªØ±Ø©":9517,"ĠÙħÙħØªØ§Ø²Ø©":9518,"ÙĨØ³ÙĬØªÙĪ":9519,"ĠÙĤÙĦÙĬÙĦØ§":9520,"ĠØ§ÙĦØ¹ÙĤÙĦÙĬÙĩ":9521,"ĠØ±Ø§Ø¬Ø¹":9522,"ĠØ¢ÙĦØ§Ùģ":9523,"Ġprof":9524,"ĠÙĨØ¨ØºÙĬÙĥÙħ":9525,"ĠÙĤØ§ØªÙĦÙĪ":9526,"ĠÙħØ¯ÙĬØ±Ø´":9527,"Ø§Ø¤ÙĦ":9528,"ĠØ¨ÙĨÙģØ³Ùĥ":9529,"ĠØ§ÙĦÙħÙĨØªØ¬Ø§Øª":9530,"ĠÙģØ´Ø¨Ø§Ø¨":9531,"Ø§Ø³ØªØºÙģØ±Ø§ÙĦÙĦÙĩ":9532,"ĠØ§Ø³Ø¨Ø§ÙĨÙĬØ§":9533,"ĠØ±Ø®ÙĬØµ":9534,"illeur":9535,"ĠØ§ÙĦÙħØªØŃØ¯Ø©":9536,"Ã§":9537,"ÙĬÙĦØ©":9538,"Ø¨ÙĥÙĬ":9539,"Ø¯Ø´":9540,"ĠÙĬÙĦÙħ":9541,"ĠÙĬÙĦØ¨Ø³":9542,"ĠÙģÙĤØ±":9543,"ĠØªÙĪÙĨ":9544,"ĠØªØµØ±":9545,"ĠÙĦØ¨Ø±":9546,"ĠÙĦÙĪÙĥ":9547,"ĠÙĦØ·ÙĬÙģ":9548,"ĠÙĨØ±ÙĬØŃ":9549,"ĠÙĨØ¯Ø¹ÙħÙĪ":9550,"ĠÙģÙĬÙĦ":9551,"ĠÙĥØ¯":9552,"ĠÙĩØ§ÙĨÙĬ":9553,"Ø²ÙĬØ§":9554,"ÙĬÙĨÙĩØ§":9555,"Ø§ÙħØ¹":9556,"ĠØ´Ø§ÙģÙĬ":9557,"ĠØ®ÙĩÙĩ":9558,"ÙĪÙĨØµ":9559,"ÙĩØ§ÙĬÙĦ":9560,"ĠÙĤÙĬØ³":9561,"ĠÙĤÙĨØ§Ùĩ":9562,"ĠØ£ØµÙĦ":9563,"ĠØ¯ÙĨ":9564,"ĠØ¯Ø§Ùħ":9565,"ĠØ§ÙĦÙħÙĬØ¯":9566,"ĠØ³ÙģÙĬ":9567,"ĠØ³Ø§ÙģØ±":9568,"Ø§ÙģÙĬØ§":9569,"ÙĪØ±ÙĨÙĬ":9570,"ÙĦØ§ÙĪ":9571,"ÙģÙĬØ²ÙĬ":9572,"Ø§Ø¬Ø¹":9573,"ÙĬØ¯ÙĪ":9574,"Ø³ØªØ§Ø°":9575,"ÙĪØ§Ø§ÙĪ":9576,"ĠØªØ¹ÙĩØ§":9577,"ĠÙĬØŃØ±ÙĤ":9578,"ĠØ·ÙĪÙħÙĪØ¨ÙĬÙĦ":9579,"ĠØªØŃØ´":9580,"ĠØªØŃÙĬØ±":9581,"ĠØ§ÙĦØªØ§ÙĦÙĤ":9582,"ĠØ§ÙĦÙĤØ´":9583,"ĠØ§ÙĦÙĤØ¨Ø±":9584,"ĠØ§ÙĦÙĤØµØ±":9585,"ĠØ§ÙĦØ¨ÙĪØ±":9586,"ĠØ§ÙĦØ¨ÙĨØª":9587,"ÙħØ¹Øª":9588,"Ø±Ø§ÙĩØ§":9589,"Ø§ÙĦÙħØ±Ø©":9590,"ĠØ§ÙĦØ³ÙĬÙĨ":9591,"ĠÙĬØªØºÙĬØ±":9592,"ĠØ§ÙĦÙĪØµÙģ":9593,"ĠÙħØ±ÙĪØ±":9594,"ĠØ¹ÙĦØ§Ùħ":9595,"ĠÙĨØ´ÙĪÙģÙĪÙĩ":9596,"ĠØªÙĤØ·Ø¹":9597,"ĠÙħØ³Ø§Ø¹Ø¯Ø©":9598,"ĠØ±ÙĪØŃÙĪØ§":9599,"ÙħØ§ÙĨØ©":9600,"ÙĪØªÙĬÙģ":9601,"ĠÙĨØ´Ø§":9602,"Ø§ÙĨØªÙħ":9603,"ĠÙĪØ±ÙĤØ©":9604,"ĠØªØ¨Ø§Øª":9605,"ĠØªØ³ØªÙħØªØ¹":9606,"Ġmin":9607,"ĠØ§Ø¬Ø¯":9608,"ĠÙĬÙĤÙĪÙĦÙĩØ§":9609,"ĠØ§ÙĦØ«ÙĪØ±Ø©":9610,"ØŃØªØ§":9611,"iss":9612,"ĠÙĪØ£Ø³":9613,"ĠÙħØ¬Ø§ÙĨØ§":9614,"Ġfi":9615,"ĠØ¨ÙĩØ°":9616,"Ø±Ø¯Ø§Ø³":9617,"ØªÙħÙĨØ§":9618,"ĠØ®Ø·Ø§":9619,"Ø§Ø³ÙħØŃÙĦÙĬ":9620,"ĠØ§ÙĦØ§ÙħØ±ÙĬÙĥÙĬØ©":9621,"ĠÙģÙĩÙħØªÙĬ":9622,"ĠÙĬØµØ¨Ø±":9623,"ĠÙħØ¯Ùī":9624,"ĠØ£Ø¬Ø±":9625,"ĠØ§ÙĤØ¹Ø¯":9626,"ĠØ¹Ø±ÙģØªÙĥ":9627,"ĠÙħÙĩÙĨØ¯":9628,"ĠØ§ÙĦÙģÙĬØ¯ÙĬÙĪØ§":9629,"ĠÙĪÙĩÙĪÙħØ§":9630,"ĠÙĥÙĨØ²":9631,"ĠÙĦØ§Ø¨ÙĪÙĦÙĬØ³":9632,"ĠÙĨØ¸Ø±Ø©":9633,"ĠØ¹ÙĦÙħØ§Ø¡":9634,"ÙĥÙĬÙģØ§Ùĩ":9635,"Ø¹ÙĨØ¯ÙĨØ§":9636,"Ø²ÙĪØ§Ø¬":9637,"ĠØ§ÙĦØ§ÙĬÙħØ§ÙĨ":9638,"ĠØ§ÙĦØ´Ø¹ÙĪØ±":9639,"ĠØ§ÙĦØ¢Ø®Ø±":9640,"ĠØ§ÙĦØ¢Ø®Ø±Ø©":9641,"ĠØ§ÙĦØªØµÙĪÙĬØ±ÙĬØ©":9642,"ĠØ¬Ø§ÙĪØ¨ÙĨÙĬ":9643,"ĠÙĦØµØ§ÙĦØŃ":9644,"Ġprobl":9645,"ĠØ³ÙĩÙĦØ©":9646,"ĠÙĪØ§Ø¨ÙĪÙĨÙĬ":9647,"ĠÙħØ§ÙģÙĩÙħØª":9648,"ĠÙħØ±ØŃÙĦØ©":9649,"ĠØ§ÙĦØ²ÙĪØ¬Ø©":9650,"ĠØ§ÙĦØ¨ÙĤØ§Ø¡":9651,"ĠØ§ÙĦØ¯Ø®ÙĪÙĦ":9652,"ĠØ¨Ø§ÙĦÙģØ±ÙĨØ³ÙĬØ©":9653,"ĠØ§ØªÙĪØ³ÙĦ":9654,"Al":9655,"ap":9656,"ĠZ":9657,"ÙĬÙħØ§":9658,"ÙĪÙĬØ¯":9659,"Ø§Ø¥":9660,"ÙĩÙĦÙĪ":9661,"ÙĥÙģ":9662,"ÙĥØªØ¨":9663,"ĠÙĪÙĩØ¯":9664,"ĠÙħÙĤÙĬÙħ":9665,"ØŃÙī":9666,"ÙģØ¯ÙĬÙĪ":9667,"ĠÙĬØ¤ÙħÙĨ":9668,"ĠÙĬØ¸ÙĩØ±":9669,"ĠØªØ¨ØŃØ«":9670,"ĠÙĦÙĪÙħ":9671,"ĠÙĦØ²ÙĪØ¬":9672,"ĠÙĦØªØ¹":9673,"ĠÙĦØ°ÙĬ":9674,"ĠØ¹ÙĤØ¯":9675,"ĠØ¹ØµØ±":9676,"ĠØ¹Ø²ÙĪØ¬":9677,"ĠØ¹ÙĬØ³":9678,"ĠÙĨÙĪÙĦÙĪ":9679,"ĠÙĨØ¨Ø¹Ø«":9680,"ĠÙģÙĬÙģ":9681,"ĠÙģÙĬÙĦØ§":9682,"Ø®Ùĩ":9683,"Ø®Ø´ÙĪ":9684,"Ø·Ø´":9685,"Ø¨ÙĬÙĩØ§":9686,"Ø§ÙħØªÙĥ":9687,"ĠØ®Ø§ÙĨ":9688,"ĠØ¬Ø§ÙĬØ§":9689,"ĠØ¬Ø±Ø¨Øª":9690,"ĠØŃÙĬØª":9691,"ĠØŃÙĤÙĬÙĤÙĬØ©":9692,"ĠØ£ÙħÙĦ":9693,"ĠØ¯ÙĪØ¨":9694,"ĠØ§ÙĦÙħÙĦØŃ":9695,"ĠØ³Ø¤":9696,"ĠØ³ÙĤØ³":9697,"Ø§ÙĬÙĬØ±":9698,"Ø§ØŃÙĦ":9699,"ØºÙģØ§Ø±":9700,"ĠØ§ÙĦØ¹Ø§ÙĦÙĬ":9701,"ØµØŃØªÙĥ":9702,"Ø§ÙĦÙĦÙĩØ§":9703,"ĠØªØ¹Ø±ÙĬÙģ":9704,"Ø±Ø¨ÙĬØ¹":9705,"ĠØ§ÙĦÙĨØ®ÙĦØ©":9706,"ĠØ§ÙĦØªØºÙĬÙĬØ±":9707,"ĠØ§ÙĦØªÙģÙĥÙĬØ±":9708,"ĠØ§ÙĦØ´Ø±ÙĬÙģ":9709,"ĠÙĪÙĬØ¬ÙĬ":9710,"ÙĪÙĥÙĦ":9711,"ĠØ§ÙĦÙĤÙĪØ©":9712,"Ø§Ø·ÙĪ":9713,"ĠØ§ÙĦØ¯Ø§ÙħØ©":9714,"ĠØ§ÙĦØ¯ÙĦÙĬÙĦ":9715,"ĠÙĪØªØ³":9716,"ĠÙĪÙĨÙĪØ±":9717,"ĠÙħØŃØª":9718,"ĠØ§ÙĬÙħØ§Ø¬":9719,"ĠÙĪØŃØ³ÙĨ":9720,"ØªØŃÙĬÙĩ":9721,"ĠØ§ÙĦØµØ¹":9722,"ĠÙģØ§ÙĦØ¯Ø§Ø±":9723,"ĠÙĪØ¹ÙĨ":9724,"Ø¦Ø§Ø¨":9725,"ĠØ§ÙĦØºØ±ÙĬØ¨":9726,"Ø¹ÙħÙĦÙĩØ§":9727,"Ø§Ø±ÙĬÙģ":9728,"ĠÙĦØ§Ø²ÙħÙĥ":9729,"Ø¤ÙĪÙĨ":9730,"Ø¯ÙĪØ§Øª":9731,"ĠØ¨Ø¯ÙħÙĪØ¹":9732,"Ø¨Ø§Ø¨ÙĨØ§":9733,"Ø§Ø³ØªÙħØ±":9734,"ÙģÙĩÙħØ´":9735,"ĠÙħØ²ÙĬØ§":9736,"ĠØ®ÙĦØ·":9737,"ĠØ¯Ø§Ø±ÙĪÙĩ":9738,"ĠØªØ´Ø¬ÙĬØ¹":9739,"ĠÙĨØ¯ÙĬØ±ÙĪÙĩØ§":9740,"Ø±ÙĤÙĩ":9741,"ĠÙĬÙĨÙĪØ±":9742,"Ġvu":9743,"ĠØ§Ø°Ø±Ø¨ÙĬØ¬Ø§ÙĨ":9744,"ĠÙħÙĦÙĬØŃØ§":9745,"ĠØ§ÙĦÙĦØ®Ø±":9746,"ĠØ®Ø·Ø§Ùĥ":9747,"ĠÙħØ³ØªØ«ÙħØ±":9748,"ØªØ±ÙĥÙĬØ§":9749,"ĠØŃØ³Ø¯":9750,"ĠÙħØ§ÙĦØ§Ø²ÙħØ´":9751,"ĠÙĬÙĥØ°Ø¨":9752,"ÙĪØ§Ø±Ø¯":9753,"ĠØ¹Ø±ÙģÙĨØ§":9754,"ĠÙħØ§Ø¹Ø¬Ø¨":9755,"ĠÙĦØ£ÙĩÙĦ":9756,"ĠØ³Ø¨ÙĪÙĨØ³":9757,"ĠÙĦØ¹Ø²ÙĬØ²Ø©":9758,"ĠØªÙĬÙĦÙĬÙģÙĪÙĨ":9759,"Ø±ÙĬÙĥØ©":9760,"ĠÙĬØ®Ø±Ø¬ÙĪ":9761,"ĠØ§ÙĦØ¹Ø²ÙĬØ²Ø©":9762,"ĠØ§ØŃØªØ±Ùħ":9763,"ÙĥØ§ÙĬÙĨØ©":9764,"ĠÙĬØ¹Ø§ÙĪÙĨÙĥÙħ":9765,"ĠØ§ÙĦÙĥØ±Ø´":9766,"ĠØ¹Ø§ÙĦÙħÙĬØ§":9767,"ĠÙģØªØ§Ø©":9768,"ĠÙĪØ§Ø¬Ø¹ÙĦ":9769,"ĠÙĪØ§Ø³ÙĥÙĨÙĩ":9770,"ĠØ´ÙĥÙĬØª":9771,"ÙģÙĥØ±ØªÙĨÙĬ":9772,"ĠÙĬØ¹Ø·ÙĬÙĨØ§":9773,"ĠÙĥØ±ÙĩÙĨØ§":9774,"ĠØ¯ÙĬØ§ÙĦÙĥÙħ":9775,"ĠÙħÙĬÙħÙĪÙĨØ©":9776,"ĠÙĦØŃÙħÙĬ":9777,"ĠÙĬØ§Ø¬ÙħØ§ÙĦ":9778,"ĠØ³Ø¨ÙĬØ³ÙĬØ§ÙĦ":9779,"ĠØªØ¨Ø¯ÙĦØª":9780,"ĠØ§ÙĦØ¨Ø±ÙĪØ¯ÙĪÙĬ":9781,"ĠÙħÙĪÙĩÙĪØ¨":9782,"ĠØ§ÙĦØ¨Ø·ÙĦ":9783,"ĠØ§ÙĤØªØµ":9784,"ĠØ¨Ø§ÙĦØ¯Ø±Ø§ÙĩÙħ":9785,"ĠØ§ÙĦØ¨Ø³ÙħØ©":9786,"ĠØ¹Ø§Ø¦ÙĦØªÙĥ":9787,"ĠØ¯ÙĪÙħØ§Ø¬":9788,"ĠØ±Ø§ÙħØ²":9789,"ĠÙħØ´ÙĪØ§Ø±Ùĥ":9790,"pko":9791,"oxpko":9792,"ĠØ¬ÙĪÙĬÙĦÙĬØ©":9793,"jsoxpko":9794,"Ġtoujour":9795,"tt":9796,"ÙĦÙĨØ§Ø´":9797,"ÙĬØ§Ø®ÙĬ":9798,"ÙĪØ³Øª":9799,"ÙĤØ§Ø¡":9800,"ĠÙĬØ°":9801,"ĠÙĬÙĪØ±ÙĬ":9802,"ĠÙĬÙĪÙĨØ³":9803,"ĠÙĬØ°ÙĥØ±":9804,"ĠØ¨Ø±ØŃÙħØ©":9805,"ĠÙģØ±Ø§ÙĤ":9806,"ĠÙģÙĩØ§Ø°":9807,"ĠØªØ·ÙĬØŃ":9808,"ĠØªØ³ÙħØŃ":9809,"Ø§ÙĨØ§Ø´":9810,"Ø´Ø§Ùģ":9811,"Ø¬Ø±Ø¨":9812,"Ø¬ÙħÙĬÙĦ":9813,"ĠØ±Ø²":9814,"ĠÙĩÙĨØ¯":9815,"ĠÙĩØ§Ø¨Ø·":9816,"Ø²Ø¨":9817,"Ø®ÙĬÙĨ":9818,"ĠØ´ØŃ":9819,"ĠØ¬Ø±ÙĬÙĪ":9820,"ĠØŃØ±ÙĬØ©":9821,"ĠØŃÙĦÙĬØ¨":9822,"ĠÙĤØ³ÙħØ§":9823,"ĠØ£ÙģÙĩÙħ":9824,"ĠØ§ÙĨØ²ÙĬÙħ":9825,"ĠØ¯ÙĪÙĨØ§Ùģ":9826,"ĠØ§ÙĦÙħØ±Ø§":9827,"ĠØ§ÙĦÙħØŃØ¨Ø©":9828,"ĠØ³ÙĤØ·":9829,"ØºÙĨÙĬ":9830,"ĠÙĪØ§ÙĦÙĥØ±Ùħ":9831,"ĠÙħØ¹Ø§ÙĨÙĬ":9832,"ØªÙĪØ§Ø¶Ø¹":9833,"ĠÙĥÙĬØª":9834,"Ø±Ø¬ÙĪØ§":9835,"Ø³ØªÙĪØ±":9836,"Ø³ØªÙĤØ¨ÙĦ":9837,"ÙĪØ§ÙĩØ§":9838,"ĠØªØ¹ÙĬÙĬ":9839,"ĠÙĬØŃØ³ÙĨ":9840,"ÙĥÙĪÙĨÙĬ":9841,"ĠØ²Ø§ÙĦ":9842,"ĠØªØŃØ³ÙĨ":9843,"ĠØªØŃÙģÙĬØ²":9844,"ÙħÙĨØ±Ø§Ø³Øª":9845,"ĠÙĦÙĦØ§Ùħ":9846,"Ø§Ø·ÙĬØ±":9847,"ĠØ§Ø³Ø·ÙĨØ¨ÙĪÙĦ":9848,"ĠØ§ÙĦØ¯ÙĪØ±Ø©":9849,"ĠØ§ØŃÙĬØ§ÙĨØ§":9850,"ĠØ§ÙĪÙĬ":9851,"ĠØ§ÙĪØ¯ÙĬ":9852,"ĠÙĨØ¹ÙħÙĩ":9853,"ĠØ¶ÙĪ":9854,"ĠØ¶ÙĬÙĤ":9855,"ĠØ¯ÙĬØ±ÙĩÙħ":9856,"ĠÙĬØ´Ùģ":9857,"Ø±ÙĪØŃØ´":9858,"ĠÙĨØŃØ³ÙĪ":9859,"ÙĪØªØ¨Ø±":9860,"ÙĪÙĩØ§Øª":9861,"ĠÙĪØ´ÙħÙĨ":9862,"ĠÙĪØ¬ÙĪØ§Ø¯":9863,"ĠØ¨Ø±Ø§ÙĩÙĬÙħ":9864,"ĠÙĩØ§Ø°ÙĪÙĥ":9865,"Ø¨ÙĦØ§Ø¯ÙĬ":9866,"ĠØªÙĨØ´ÙĬØ·":9867,"ĠÙĨÙĤÙĪÙĦÙĩ":9868,"ĠØ¹ÙħØ¨Ø§ÙĦÙĬ":9869,"ĠØ¨ÙĬÙĨÙħØ§":9870,"ĠØ§ÙĦÙħØ´ÙĥÙĦØ©":9871,"ĠØ§ÙĦÙħØ´ÙĥÙĦÙĩ":9872,"ĠØ§Ø¯Ùħ":9873,"Ø¹ÙĪØ°":9874,"ØªÙħÙĨÙĬØª":9875,"ĠØ§ÙĦÙĦØ§ÙĬÙĥ":9876,"ĠØ§ÙĦØ§Ø®ÙĪØ©":9877,"ĠÙħÙĦØ§Ùĥ":9878,"ÙĦØ§ÙĤØ§Øª":9879,"ĠØ¨Ø§Ø¨ÙĪÙĨÙĬ":9880,"ĠÙĪØµØ§ÙĦØŃ":9881,"ĠØ£ÙĥÙĬØ¯":9882,"ĠÙĥÙħÙĦÙĪØ§":9883,"ÙĦÙĪÙĤØ§Øª":9884,"ĠÙĬØ¹Ø±ÙģÙĩØ§":9885,"ĠÙĪÙģÙĬÙĩ":9886,"ĠÙĪÙĦØ§Ø¯ÙĩØ§":9887,"ĠÙħØ§Ø±Ø³ÙĬ":9888,"ĠÙĬÙħÙĦÙĥ":9889,"ĠØªØ±ÙĤØ¯":9890,"ĠÙħØªØ§Ø¨Ø¹ÙĬÙĥ":9891,"ĠÙĪØ§ØŃØ¨":9892,"Ø¬ÙĦÙĬØ²":9893,"Ġquel":9894,"ĠÙĤØµÙĬØ±Ø©":9895,"ÙĤØµÙī":9896,"che":9897,"ĠØ§ÙĦØ£ÙħØ§Ùħ":9898,"ĠÙĪØ·ÙĨÙĬ":9899,"ĠÙĦÙĦØ¹Ø§Ùħ":9900,"ĠØ£Ø³Ø§Ø³":9901,"ĠÙĤØ¨Ø§ÙĬÙĦ":9902,"ÙĨØ´Ø§ÙĦÙĩ":9903,"ĠØ§ÙĦÙĤÙĬÙħ":9904,"ĠØ¨ØµÙĪØª":9905,"ĠØ§ÙĦØªØŃÙĬØ©":9906,"ĠØ§ÙĦØªØŃÙĪÙĬØ³Ø©":9907,"ĠØ®ØµÙĨØ§":9908,"ĠØ®ØµÙĨÙĬ":9909,"ĠØ§ÙĦØ¢Ø®Ø±ÙĬÙĨ":9910,"ĠÙĦÙĦÙĤÙĨØ§Ø©":9911,"ĠÙĪØ¥Ø°Ø§":9912,"ĠØ¶Ø±Ø¨Øª":9913,"ĠØ§ÙĦØªÙĦÙģØ²Ø©":9914,"ĠÙĬØ¬Ø¹ÙĦÙĪ":9915,"ĠÙĬØ§Ø¬ÙĪØ§Ø¯":9916,"ĠØªØ¨Ø¯Ø£":9917,"ĠØ§ÙĦØŃØ³Ø¯":9918,"ĠÙĬØ¨Ø¯Ø£":9919,"ĠØ§ÙĦØªØ±ÙĥÙĬØ©":9920,"ĠÙĪØ§Ø¶ØŃØ©":9921,"ØŃØ¨Ø³Ø´":9922,"ĠØ§ÙĤØªØ±Ø§ØŃ":9923,"ÙĬØ±Ø§ØªÙĬÙĨ":9924,"ĠØ§ÙĦÙĪØ·ÙĨÙĬØ©":9925,"ĠØ£ÙĩÙĦÙĩ":9926,"ĠØ¬ÙĪØ²Øª":9927,"ĠØ§ØŃØªØ±Ø§ÙħØ§ØªÙĬ":9928,"ĠØ£ÙĨÙĬØ³":9929,"ĠØ¬Ø§ÙĨÙģÙĬ":9930,"ĠØºØ§ÙĦØ·Ø©":9931,"ĠÙħÙĤØ§Ø±ÙĨØ©":9932,"ĠØ£Ø±Ø¯Øª":9933,"ĠØ§ÙĦØŃØ³ÙĨØ§Øª":9934,"ĠÙĦÙĨØ¯ÙĨ":9935,"ip":9936,"ĠÃ©":9937,"Ġwa":9938,"Ġans":9939,"Ø±Ø§Ø¯":9940,"ĠØ§ÙĦØ±Ùģ":9941,"ØªØ®":9942,"ĠÙĪØ®ÙĦ":9943,"Ø¹ÙĨÙĬ":9944,"ĠÙĬØ±Ùī":9945,"ĠÙĬØ¨ÙĬØ¹ÙĪ":9946,"ĠØ¨Ø§Ø¯":9947,"ĠØ¨ÙĥØ±":9948,"ĠØ¨ÙĪØ±Ùĥ":9949,"ĠÙģØ¸":9950,"ĠÙģÙĦÙĥ":9951,"ĠÙģØ§ÙĬØ±":9952,"ĠÙģÙĦØ¹":9953,"ĠØªØ§ÙĬ":9954,"ĠØªØºÙĬØ¶":9955,"Ø§ÙĨØªÙĬ":9956,"ĠÙĦØ§Ø¯":9957,"ĠÙĦØ¨ØŃØ±":9958,"Ø´ÙĥØ±":9959,"Ø´Ø®Øµ":9960,"ĠÙĨØ±Ø¯":9961,"ĠÙĨØ¯ÙĬÙĥ":9962,"ĠÙĨØ¨Ø¯ÙĦ":9963,"ĠÙĨØ±Ø¬Ø¹ÙĪ":9964,"ĠÙĥØ§ÙģÙĬ":9965,"ÙĦÙĬÙĦØ©":9966,"ĠÙĩØ±":9967,"ĠÙĩØ²":9968,"Ø§Ø±Ø§":9969,"ÙĬØ±Ùĥ":9970,"ĠÙħÙĨØ§Ø´":9971,"ĠØŃØ¨Ùĩ":9972,"ÙĪÙĨØ§Øª":9973,"Ø¶Ø§Ø±":9974,"ĠÙĤØ³":9975,"ĠØ¯ØŃÙĥ":9976,"ĠØ§ÙĦÙħØ¨ÙĦØº":9977,"ĠØµØ±Ùģ":9978,"Ø§ÙĩÙĦÙĪØ§":9979,"ĠØ§ÙĦØ¬ÙĩØ©":9980,"Ø§ÙĪØ§":9981,"ÙģÙĬØ¸":9982,"ØµØŃÙĥÙħ":9983,"ĠØ®ÙĪÙĬØ©":9984,"ĠØ§ÙĦØŃÙĬØ·":9985,"ĠØªØ¹Ø§ÙĦ":9986,"ĠÙĬØŃÙĬØ§":9987,"ĠÙĬØŃØªØ±Ùħ":9988,"ĠÙĬØŃØ¯Ø«":9989,"ĠÙĨØªÙĥÙĦÙħ":9990,"ĠØ§ÙĦÙĨØªÙĬØ¬Ø©":9991,"Ø±Ø¨ÙĬÙĨ":9992,"ĠØªØŃØ·ÙĪ":9993,"ĠØªØŃØ¯Ø«":9994,"ĠØ§ÙĦÙĤØ·Ø§Ø±":9995,"ĠØ§ÙĦØ¨Øµ":9996,"ĠÙħØªÙħ":9997,"ÙħÙĪØ¶ÙĪØ¹":9998,"ĠØ§ÙĪØ¯":9999}